{
  "version": "1.0",
  "truncation": null,
  "padding": null,
  "added_tokens": [
    {
      "id": 0,
      "content": "<pad>",
      "single_word": false,
      "lstrip": false,
      "rstrip": false,
      "normalized": false,
      "special": true
    },
    {
      "id": 1,
      "content": "<sos>",
      "single_word": false,
      "lstrip": false,
      "rstrip": false,
      "normalized": false,
      "special": true
    },
    {
      "id": 2,
      "content": "<eos>",
      "single_word": false,
      "lstrip": false,
      "rstrip": false,
      "normalized": false,
      "special": true
    }
  ],
  "normalizer": null,
  "pre_tokenizer": {
    "type": "ByteLevel",
    "add_prefix_space": false,
    "trim_offsets": true,
    "use_regex": true
  },
  "post_processor": {
    "type": "ByteLevel",
    "add_prefix_space": true,
    "trim_offsets": false,
    "use_regex": true
  },
  "decoder": {
    "type": "ByteLevel",
    "add_prefix_space": true,
    "trim_offsets": true,
    "use_regex": true
  },
  "model": {
    "type": "BPE",
    "dropout": null,
    "unk_token": null,
    "continuing_subword_prefix": null,
    "end_of_word_suffix": null,
    "fuse_unk": false,
    "byte_fallback": false,
    "ignore_merges": false,
    "vocab": {
      "<pad>": 0,
      "<sos>": 1,
      "<eos>": 2,
      "!": 3,
      "\"": 4,
      "#": 5,
      "$": 6,
      "%": 7,
      "&": 8,
      "'": 9,
      "(": 10,
      ")": 11,
      "*": 12,
      "+": 13,
      ",": 14,
      "-": 15,
      ".": 16,
      "/": 17,
      "0": 18,
      "1": 19,
      "2": 20,
      "3": 21,
      "4": 22,
      "5": 23,
      "6": 24,
      "7": 25,
      "8": 26,
      "9": 27,
      ":": 28,
      ";": 29,
      "<": 30,
      "=": 31,
      ">": 32,
      "?": 33,
      "@": 34,
      "A": 35,
      "B": 36,
      "C": 37,
      "D": 38,
      "E": 39,
      "F": 40,
      "G": 41,
      "H": 42,
      "I": 43,
      "J": 44,
      "K": 45,
      "L": 46,
      "M": 47,
      "N": 48,
      "O": 49,
      "P": 50,
      "Q": 51,
      "R": 52,
      "S": 53,
      "T": 54,
      "U": 55,
      "V": 56,
      "W": 57,
      "X": 58,
      "Y": 59,
      "Z": 60,
      "[": 61,
      "\\": 62,
      "]": 63,
      "^": 64,
      "_": 65,
      "`": 66,
      "a": 67,
      "b": 68,
      "c": 69,
      "d": 70,
      "e": 71,
      "f": 72,
      "g": 73,
      "h": 74,
      "i": 75,
      "j": 76,
      "k": 77,
      "l": 78,
      "m": 79,
      "n": 80,
      "o": 81,
      "p": 82,
      "q": 83,
      "r": 84,
      "s": 85,
      "t": 86,
      "u": 87,
      "v": 88,
      "w": 89,
      "x": 90,
      "y": 91,
      "z": 92,
      "{": 93,
      "}": 94,
      "~": 95,
      "¡": 96,
      "¢": 97,
      "£": 98,
      "¤": 99,
      "¥": 100,
      "¦": 101,
      "§": 102,
      "¨": 103,
      "©": 104,
      "ª": 105,
      "«": 106,
      "¬": 107,
      "®": 108,
      "¯": 109,
      "°": 110,
      "±": 111,
      "²": 112,
      "³": 113,
      "´": 114,
      "µ": 115,
      "¶": 116,
      "·": 117,
      "¸": 118,
      "¹": 119,
      "º": 120,
      "»": 121,
      "¼": 122,
      "½": 123,
      "¾": 124,
      "¿": 125,
      "Â": 126,
      "Ã": 127,
      "Ä": 128,
      "Å": 129,
      "Æ": 130,
      "È": 131,
      "É": 132,
      "Ê": 133,
      "Ë": 134,
      "Ì": 135,
      "Î": 136,
      "Ï": 137,
      "Ð": 138,
      "Ñ": 139,
      "×": 140,
      "Ø": 141,
      "Ù": 142,
      "Û": 143,
      "à": 144,
      "á": 145,
      "â": 146,
      "ã": 147,
      "ä": 148,
      "å": 149,
      "æ": 150,
      "ç": 151,
      "è": 152,
      "é": 153,
      "ê": 154,
      "ë": 155,
      "ì": 156,
      "í": 157,
      "ï": 158,
      "ð": 159,
      "Ġ": 160,
      "Ģ": 161,
      "ģ": 162,
      "Ĥ": 163,
      "ĥ": 164,
      "Ħ": 165,
      "ħ": 166,
      "Ĩ": 167,
      "ĩ": 168,
      "Ī": 169,
      "ī": 170,
      "Ĭ": 171,
      "ĭ": 172,
      "Į": 173,
      "į": 174,
      "İ": 175,
      "ı": 176,
      "Ĳ": 177,
      "ĳ": 178,
      "Ĵ": 179,
      "ĵ": 180,
      "Ķ": 181,
      "ķ": 182,
      "ĸ": 183,
      "Ĺ": 184,
      "ĺ": 185,
      "Ļ": 186,
      "ļ": 187,
      "Ľ": 188,
      "ľ": 189,
      "Ŀ": 190,
      "ŀ": 191,
      "Ł": 192,
      "ł": 193,
      "Ń": 194,
      "Ġt": 195,
      "he": 196,
      "Ġa": 197,
      "in": 198,
      "on": 199,
      "re": 200,
      "Ġthe": 201,
      "at": 202,
      "Ġo": 203,
      "er": 204,
      "en": 205,
      "Ġs": 206,
      "it": 207,
      "an": 208,
      "or": 209,
      "Ġw": 210,
      "Ġc": 211,
      "es": 212,
      "is": 213,
      "ion": 214,
      "Ġof": 215,
      "Ġp": 216,
      "ou": 217,
      "al": 218,
      "nd": 219,
      "ed": 220,
      "Ġin": 221,
      "Ġf": 222,
      "ing": 223,
      "Ġb": 224,
      "Ġto": 225,
      "ar": 226,
      "Ġm": 227,
      "ic": 228,
      "Ġand": 229,
      "Ġd": 230,
      "ro": 231,
      "ent": 232,
      "le": 233,
      "Ġth": 234,
      "Ġre": 235,
      "as": 236,
      "ation": 237,
      "om": 238,
      "ct": 239,
      "Ġh": 240,
      "ve": 241,
      "ll": 242,
      "Ġn": 243,
      "st": 244,
      "Ġe": 245,
      "ĠC": 246,
      "Ġbe": 247,
      "Ġy": 248,
      "Ġl": 249,
      "Ġg": 250,
      "ment": 251,
      "ce": 252,
      "Ġfor": 253,
      "ot": 254,
      "et": 255,
      "id": 256,
      "ut": 257,
      "ĠI": 258,
      "Ġon": 259,
      "Ġyou": 260,
      "ly": 261,
      "im": 262,
      "Ġis": 263,
      "ad": 264,
      "se": 265,
      "Ġpro": 266,
      "ĠS": 267,
      "Ġthat": 268,
      "ĠA": 269,
      "ur": 270,
      "ig": 271,
      "il": 272,
      "ow": 273,
      "ra": 274,
      "The": 275,
      "Ġu": 276,
      "ver": 277,
      "ol": 278,
      "Ġcon": 279,
      "ch": 280,
      "ay": 281,
      "Ġit": 282,
      "ith": 283,
      "ir": 284,
      "Ġ(": 285,
      "ĠP": 286,
      "ter": 287,
      "Ġwith": 288,
      "ul": 289,
      "Ġ1": 290,
      "ĠM": 291,
      "Ġas": 292,
      "Ġst": 293,
      "Ġde": 294,
      "her": 295,
      "'s": 296,
      "ies": 297,
      "Ġ2": 298,
      "Ġwh": 299,
      "ate": 300,
      "pp": 301,
      "if": 302,
      "Ġan": 303,
      "ort": 304,
      "00": 305,
      "Ġwe": 306,
      "ect": 307,
      "Ġor": 308,
      "ld": 309,
      "op": 310,
      "ity": 311,
      "Ġcom": 312,
      "ess": 313,
      "Ġsu": 314,
      "Ġare": 315,
      "ab": 316,
      "..": 317,
      "Ġhe": 318,
      "res": 319,
      "am": 320,
      "ill": 321,
      "ĠE": 322,
      "Ġme": 323,
      "ers": 324,
      "ge": 325,
      "ive": 326,
      "ĠR": 327,
      "od": 328,
      "Ġby": 329,
      "qu": 330,
      "Ġex": 331,
      "ant": 332,
      "ri": 333,
      "ec": 334,
      "art": 335,
      "ĠD": 336,
      "est": 337,
      "ist": 338,
      "Ġnot": 339,
      "ht": 340,
      "nt": 341,
      "ke": 342,
      "ĠT": 343,
      "Ġha": 344,
      "Ġr": 345,
      "ain": 346,
      "ĠN": 347,
      "um": 348,
      "os": 349,
      "ust": 350,
      "oc": 351,
      "iv": 352,
      "un": 353,
      "and": 354,
      "Ġwas": 355,
      "ial": 356,
      "Ġat": 357,
      "em": 358,
      "ĠB": 359,
      "ac": 360,
      "Ġsh": 361,
      "Ġthis": 362,
      "ĠF": 363,
      "ĠG": 364,
      "us": 365,
      "end": 366,
      "ations": 367,
      "th": 368,
      "ight": 369,
      "ould": 370,
      "rom": 371,
      "ore": 372,
      "Ġv": 373,
      "ions": 374,
      "Ġne": 375,
      "Ġhave": 376,
      "our": 377,
      "ud": 378,
      "ure": 379,
      "âĢ": 380,
      "ĠH": 381,
      "Ġfrom": 382,
      "ff": 383,
      "Ġk": 384,
      "Ġle": 385,
      "omm": 386,
      "el": 387,
      "Ġres": 388,
      "all": 389,
      "Ġal": 390,
      "ĠO": 391,
      "ĠL": 392,
      "ber": 393,
      "ie": 394,
      "ĠW": 395,
      "ard": 396,
      "'t": 397,
      "port": 398,
      "Ġgo": 399,
      "red": 400,
      "Ġall": 401,
      "Ġim": 402,
      "ance": 403,
      "Ġdo": 404,
      "ther": 405,
      "te": 406,
      "pl": 407,
      "Ġad": 408,
      "ated": 409,
      "Ġch": 410,
      "ich": 411,
      "Ġse": 412,
      "Ġapp": 413,
      "ork": 414,
      "Ġwill": 415,
      "Ġ200": 416,
      "cc": 417,
      "ice": 418,
      "ome": 419,
      "vel": 420,
      "orm": 421,
      "rou": 422,
      "Ġen": 423,
      "ary": 424,
      "Ġcont": 425,
      "ans": 426,
      "iz": 427,
      "Ġ-": 428,
      "Ġpart": 429,
      "ĠU": 430,
      "du": 431,
      "You": 432,
      "Ġcan": 433,
      "ip": 434,
      "Ġab": 435,
      "ĠComm": 436,
      "ational": 437,
      "age": 438,
      "Ġj": 439,
      "ia": 440,
      "Ġinc": 441,
      "Ġwhich": 442,
      "per": 443,
      "lic": 444,
      "able": 445,
      "ry": 446,
      "ult": 447,
      "pt": 448,
      "ak": 449,
      "ount": 450,
      "pe": 451,
      "Th": 452,
      "ear": 453,
      "ical": 454,
      "ments": 455,
      "...": 456,
      "out": 457,
      "Ġhas": 458,
      "iss": 459,
      "anad": 460,
      "form": 461,
      "ag": 462,
      "Ġcomp": 463,
      "ide": 464,
      "Ġyour": 465,
      "ren": 466,
      "ĠJ": 467,
      "ĠSt": 468,
      "Ġag": 469,
      "ib": 470,
      "Ġpl": 471,
      "ire": 472,
      "ction": 473,
      "ine": 474,
      "ĠCanad": 475,
      "ub": 476,
      "ost": 477,
      "erv": 478,
      "Ġwhe": 479,
      "Ġout": 480,
      "ities": 481,
      "ru": 482,
      "now": 483,
      "Ġprov": 484,
      "ast": 485,
      "ake": 486,
      "Ġ19": 487,
      "ord": 488,
      "og": 489,
      "tern": 490,
      "act": 491,
      "ous": 492,
      "Ġsp": 493,
      "Ġman": 494,
      "Ġits": 495,
      "nder": 496,
      "Ġtheir": 497,
      "Ġper": 498,
      "It": 499,
      "In": 500,
      "Ġus": 501,
      "Ġreg": 502,
      "ase": 503,
      "ep": 504,
      "ram": 505,
      "Ġcomm": 506,
      "ĠIn": 507,
      "Ġ3": 508,
      "ence": 509,
      "Ġknow": 510,
      "ong": 511,
      "ates": 512,
      "ition": 513,
      "ose": 514,
      "Ġwork": 515,
      "ime": 516,
      "Ġacc": 517,
      "Ġother": 518,
      "Ġup": 519,
      "one": 520,
      "velop": 521,
      "Ġtr": 522,
      "Ġbeen": 523,
      "ell": 524,
      "Ġdis": 525,
      "Ġthere": 526,
      "ree": 527,
      "ue": 528,
      "ap": 529,
      "gh": 530,
      "Ġmy": 531,
      "ign": 532,
      "ian": 533,
      "Ġwere": 534,
      "Ġunder": 535,
      "ok": 536,
      "so": 537,
      "Ġint": 538,
      "very": 539,
      "ject": 540,
      "Ġimp": 541,
      "ces": 542,
      "Ġone": 543,
      "ual": 544,
      "Ġcons": 545,
      "Ġrec": 546,
      "ind": 547,
      "Ġright": 548,
      "Ġthey": 549,
      "ress": 550,
      "are": 551,
      "Ġli": 552,
      "ack": 553,
      "ission": 554,
      "Ġco": 555,
      "ish": 556,
      "ons": 557,
      "Ġso": 558,
      "fe": 559,
      "uro": 560,
      "eral": 561,
      "ĠThe": 562,
      "ace": 563,
      "Ġcl": 564,
      "Ġany": 565,
      "Ġbut": 566,
      "Ġpre": 567,
      "reat": 568,
      "Ġalso": 569,
      "lud": 570,
      "Ġwould": 571,
      "Ġind": 572,
      "Wh": 573,
      "'m": 574,
      "Ġun": 575,
      "Ġam": 576,
      "Ġabout": 577,
      "Ġact": 578,
      "Ġwho": 579,
      "Ġmore": 580,
      "Ġqu": 581,
      "ific": 582,
      "ĠRe": 583,
      "Ġsub": 584,
      "Ġ\"": 585,
      "au": 586,
      "Ġass": 587,
      "ĠUn": 588,
      "gram": 589,
      "Ġyear": 590,
      "Ġoff": 591,
      "ame": 592,
      "ach": 593,
      "ade": 594,
      "Ġdevelop": 595,
      "ail": 596,
      "Ġwhat": 597,
      "'re": 598,
      "ĠCanada": 599,
      "ens": 600,
      "vern": 601,
      "oy": 602,
      "Ġshould": 603,
      "ices": 604,
      "pport": 605,
      "Ġar": 606,
      "Ġrequ": 607,
      "ark": 608,
      "Ġev": 609,
      "Ġte": 610,
      "formation": 611,
      "ew": 612,
      "__": 613,
      "urope": 614,
      "Ġhad": 615,
      "Ġno": 616,
      "ild": 617,
      "Ġlike": 618,
      "ited": 619,
      "ors": 620,
      "Ġneed": 621,
      "ublic": 622,
      "ink": 623,
      "ond": 624,
      "Ġtime": 625,
      "Ġresp": 626,
      "We": 627,
      "ident": 628,
      "oun": 629,
      "Ġjust": 630,
      "aw": 631,
      "ution": 632,
      "Ġfo": 633,
      "Ġpe": 634,
      "ĠEurope": 635,
      "ative": 636,
      "ĠâĢ": 637,
      "Ġhis": 638,
      "Ġcount": 639,
      "int": 640,
      "He": 641,
      "ĠCh": 642,
      "This": 643,
      "Ġserv": 644,
      "ang": 645,
      "rib": 646,
      "Ġem": 647,
      "ass": 648,
      "Ġbet": 649,
      "Ġ4": 650,
      "Ġif": 651,
      ").": 652,
      "ĠK": 653,
      "ory": 654,
      "ph": 655,
      "ced": 656,
      "ings": 657,
      "Ġeff": 658,
      "01": 659,
      "Ġinclud": 660,
      "Ġthan": 661,
      "Ġnew": 662,
      "Ġrel": 663,
      "Ġpol": 664,
      "ook": 665,
      "ove": 666,
      "Ġfu": 667,
      "ĠPro": 668,
      "Ġthem": 669,
      "Ġ5": 670,
      "erm": 671,
      "av": 672,
      "ĠV": 673,
      "Ġdec": 674,
      "we": 675,
      "Ġinv": 676,
      "Ġour": 677,
      "Ġprodu": 678,
      "Ġmay": 679,
      "Ġsome": 680,
      "gan": 681,
      "Ġover": 682,
      "Ġdon": 683,
      "Ġreport": 684,
      "ric": 685,
      "ob": 686,
      "ility": 687,
      "ite": 688,
      "ures": 689,
      "Ġget": 690,
      "lect": 691,
      "resent": 692,
      "ternational": 693,
      "ĠCommission": 694,
      "yst": 695,
      "ied": 696,
      "Ġinformation": 697,
      "pos": 698,
      "ile": 699,
      "itt": 700,
      "Ġher": 701,
      "âĢĻ": 702,
      "ating": 703,
      "Ġconc": 704,
      "ning": 705,
      "Ġob": 706,
      "Ġhere": 707,
      "),": 708,
      "cy": 709,
      "ision": 710,
      "Ġhim": 711,
      "Ġpartic": 712,
      "ck": 713,
      "irst": 714,
      "ĠCon": 715,
      "con": 716,
      "ov": 717,
      "ystem": 718,
      "tic": 719,
      "Ġprogram": 720,
      "eneral": 721,
      "Ġdid": 722,
      "Ġro": 723,
      "Ġadd": 724,
      "Ġ199": 725,
      "Ġthese": 726,
      "ater": 727,
      "ious": 728,
      "Ġwant": 729,
      "ible": 730,
      "Ġspec": 731,
      "Ġinto": 732,
      "Ġsa": 733,
      "Ġtrans": 734,
      "iew": 735,
      "ays": 736,
      "ally": 737,
      "hed": 738,
      "Ġsc": 739,
      "Ġsuch": 740,
      "Ġtra": 741,
      "ound": 742,
      "Ġappro": 743,
      "alth": 744,
      "ection": 745,
      "Ġpr": 746,
      "200": 747,
      "lement": 748,
      "Ġpos": 749,
      "Ġsec": 750,
      "vernment": 751,
      "ne": 752,
      "wo": 753,
      "ention": 754,
      "Ġexp": 755,
      "oint": 756,
      "llow": 757,
      "Ġdes": 758,
      "irect": 759,
      "old": 760,
      "ract": 761,
      "ise": 762,
      "ember": 763,
      "Ġwhen": 764,
      "Ġonly": 765,
      "anc": 766,
      "fore": 767,
      "rent": 768,
      "ople": 769,
      "Ġpers": 770,
      "ĠEuropean": 771,
      "ient": 772,
      "ular": 773,
      "cil": 774,
      "Ġgu": 775,
      "get": 776,
      "ives": 777,
      "tain": 778,
      "mb": 779,
      "Ġshall": 780,
      "'ll": 781,
      "Ġfin": 782,
      "Ġbec": 783,
      "itte": 784,
      "rough": 785,
      "unity": 786,
      "ased": 787,
      "ĠDe": 788,
      "su": 789,
      "ause": 790,
      "roup": 791,
      "ouncil": 792,
      "Ġuse": 793,
      "uman": 794,
      "Ġinst": 795,
      "What": 796,
      "ries": 797,
      "Ġ6": 798,
      "Ġsystem": 799,
      "ange": 800,
      "abl": 801,
      "eth": 802,
      "Ġmust": 803,
      "rit": 804,
      "own": 805,
      "Ġsupport": 806,
      "And": 807,
      "Ġprovid": 808,
      "Ġsee": 809,
      "ank": 810,
      "ft": 811,
      "uth": 812,
      "Ġcould": 813,
      "ĠAr": 814,
      "vers": 815,
      "Ġfollow": 816,
      "ploy": 817,
      "ween": 818,
      "Ġnow": 819,
      "ah": 820,
      "ittee": 821,
      "Ġthrough": 822,
      "sel": 823,
      "Ġpeople": 824,
      "Ġgood": 825,
      "ĠStates": 826,
      "Ġwhere": 827,
      "wn": 828,
      "Ġshe": 829,
      "Ġent": 830,
      "olog": 831,
      "Ġtwo": 832,
      "ty": 833,
      "cess": 834,
      "igh": 835,
      "uring": 836,
      "arch": 837,
      "ss": 838,
      "ĠCouncil": 839,
      "Ġbetween": 840,
      "Ġhow": 841,
      "Ġest": 842,
      "ulation": 843,
      "conom": 844,
      "Ġrem": 845,
      "Ġthink": 846,
      "xt": 847,
      "Ġagain": 848,
      "Ġorgan": 849,
      "Ġmade": 850,
      "Ġthose": 851,
      "Ġwell": 852,
      "ood": 853,
      "ax": 854,
      "Ġimport": 855,
      "Ġfirst": 856,
      "ticle": 857,
      "fter": 858,
      "ww": 859,
      "ari": 860,
      "ĠUnited": 861,
      "na": 862,
      "Ġinte": 863,
      "Ġform": 864,
      "air": 865,
      "ys": 866,
      "Ġdif": 867,
      "feren": 868,
      "chn": 869,
      "Ġyears": 870,
      "hen": 871,
      "Ġtake": 872,
      "ĠY": 873,
      "Ġdevelopment": 874,
      "ret": 875,
      "ĠHe": 876,
      "hip": 877,
      "Ġgot": 878,
      "als": 879,
      "Ġinter": 880,
      "Ġrep": 881,
      "Ġnum": 882,
      "iron": 883,
      "Ġdet": 884,
      "ĠTh": 885,
      "Ã©": 886,
      "ural": 887,
      "Ġpublic": 888,
      "oth": 889,
      "Ġref": 890,
      "Ġmon": 891,
      "Ġmark": 892,
      "Ġmeet": 893,
      "mber": 894,
      "ĠReg": 895,
      "Ġ7": 896,
      "uthor": 897,
      "its": 898,
      "Ġdisc": 899,
      "orld": 900,
      "ĠCommittee": 901,
      "ick": 902,
      "Ġ9": 903,
      "ency": 904,
      "Ġback": 905,
      "aking": 906,
      "Ġmake": 907,
      "der": 908,
      "Ġeffect": 909,
      "viron": 910,
      "eration": 911,
      "Ġapplic": 912,
      "Ġatt": 913,
      "ble": 914,
      "Ġinternational": 915,
      "Ġac": 916,
      "Ġcountries": 917,
      "amp": 918,
      "Ġ8": 919,
      "ife": 920,
      "ene": 921,
      "raph": 922,
      "Ġactiv": 923,
      "oci": 924,
      "Ġcar": 925,
      "Ġset": 926,
      "Ġfe": 927,
      "me": 928,
      "vironment": 929,
      "ĠNo": 930,
      "ards": 931,
      "Ġprocess": 932,
      "No": 933,
      "âĢĿ": 934,
      "EC": 935,
      "cept": 936,
      "Ġmin": 937,
      "les": 938,
      "ional": 939,
      "Ġleg": 940,
      "Ġra": 941,
      "Ġincre": 942,
      "Ġpar": 943,
      "ister": 944,
      "Ġpolic": 945,
      "Ġrev": 946,
      "Ġoper": 947,
      "That": 948,
      "ince": 949,
      "row": 950,
      "Ġchild": 951,
      "Ġvery": 952,
      "Ġresult": 953,
      "uc": 954,
      "agement": 955,
      "ved": 956,
      "inc": 957,
      "Ġconcer": 958,
      "Ġservices": 959,
      "Ġstr": 960,
      "Ġproject": 961,
      "Ġpur": 962,
      "rest": 963,
      "Ġevery": 964,
      "Ġmeas": 965,
      "Ġcall": 966,
      "lp": 967,
      "Ġway": 968,
      "ents": 969,
      "'ve": 970,
      "Ġlevel": 971,
      "round": 972,
      "ination": 973,
      "____": 974,
      "Ġpri": 975,
      "ization": 976,
      "ĠGo": 977,
      "ants": 978,
      "Ġnational": 979,
      "Ġav": 980,
      "ining": 981,
      "ocial": 982,
      "ted": 983,
      "ateg": 984,
      "ĠCanadian": 985,
      "Ġimplement": 986,
      "Ġ201": 987,
      "ever": 988,
      "omen": 989,
      "other": 990,
      "ts": 991,
      "But": 992,
      "Ġke": 993,
      "ĠMr": 994,
      "Ġproduct": 995,
      "Ġprot": 996,
      "Ġbel": 997,
      "land": 998,
      "Ġperson": 999,
      "Ġused": 1000,
      "Ġloc": 1001,
      "arm": 1002,
      "ough": 1003,
      "Ġfl": 1004,
      "ute": 1005,
      "ration": 1006,
      "Ġhelp": 1007,
      "urn": 1008,
      "ines": 1009,
      "ism": 1010,
      "ght": 1011,
      "19": 1012,
      "Ġ10": 1013,
      "alk": 1014,
      "Ġdef": 1015,
      "Ġcontin": 1016,
      "ety": 1017,
      "Ġauthor": 1018,
      "Ġnumber": 1019,
      "Ġsign": 1020,
      "ĠSec": 1021,
      "urity": 1022,
      "ized": 1023,
      "ĠAg": 1024,
      "ference": 1025,
      "Ġhuman": 1026,
      "conomic": 1027,
      "Ġlook": 1028,
      "Ġcent": 1029,
      "Ġbeing": 1030,
      "Ġdown": 1031,
      "Ġmost": 1032,
      "Ġdoes": 1033,
      "com": 1034,
      "Ġlaw": 1035,
      "ĠNations": 1036,
      "Ġhealth": 1037,
      "Ġafter": 1038,
      "How": 1039,
      "Ġincluding": 1040,
      "Ġestabl": 1041,
      "here": 1042,
      "Ġgroup": 1043,
      "inal": 1044,
      "iness": 1045,
      "uss": 1046,
      "ĠâĢľ": 1047,
      "Ġsay": 1048,
      "Ġext": 1049,
      "ix": 1050,
      "Ġparticular": 1051,
      "Ġph": 1052,
      "Ġlong": 1053,
      "Ġemploy": 1054,
      "ving": 1055,
      "erg": 1056,
      "Ġtechn": 1057,
      "ruct": 1058,
      "Ġbl": 1059,
      "Ġsaid": 1060,
      "li": 1061,
      "vention": 1062,
      "There": 1063,
      "ful": 1064,
      "Ġaw": 1065,
      "If": 1066,
      "iod": 1067,
      "Ġ0": 1068,
      "Ġstud": 1069,
      "ave": 1070,
      "ict": 1071,
      "ified": 1072,
      "ĠEn": 1073,
      "Ġbu": 1074,
      "ily": 1075,
      "Ġ$": 1076,
      "Ġwithin": 1077,
      "ata": 1078,
      "Ġbefore": 1079,
      "Ġend": 1080,
      "ĠMin": 1081,
      "Ġcap": 1082,
      "ined": 1083,
      "ished": 1084,
      "Ġpropos": 1085,
      "ality": 1086,
      "Ġmain": 1087,
      "ired": 1088,
      "Ġsur": 1089,
      "ON": 1090,
      "sp": 1091,
      "Ġplan": 1092,
      "ĠIt": 1093,
      "ont": 1094,
      "Ġmarket": 1095,
      "Ġthen": 1096,
      "itions": 1097,
      "uch": 1098,
      "day": 1099,
      "Ġposs": 1100,
      "ĠYou": 1101,
      "Ġconf": 1102,
      "Ġop": 1103,
      "utions": 1104,
      "ĠAct": 1105,
      "Ġcur": 1106,
      "Ġdep": 1107,
      "ocu": 1108,
      "ases": 1109,
      "Ġ.": 1110,
      "They": 1111,
      "led": 1112,
      "Ġrights": 1113,
      "olution": 1114,
      "min": 1115,
      "pr": 1116,
      "ĠWh": 1117,
      "Ġorder": 1118,
      "Ġissu": 1119,
      "Ġequ": 1120,
      "Ġexper": 1121,
      "any": 1122,
      "Ġbecause": 1123,
      "ee": 1124,
      "up": 1125,
      "ources": 1126,
      "Ġfollowing": 1127,
      "uation": 1128,
      "Ġeven": 1129,
      "Ġeach": 1130,
      "Ġgoing": 1131,
      "Ġfund": 1132,
      "Ġgreat": 1133,
      "Ġhigh": 1134,
      "ks": 1135,
      "Ġfact": 1136,
      "Ġsame": 1137,
      "For": 1138,
      "ER": 1139,
      "unic": 1140,
      "usiness": 1141,
      "Ġrespect": 1142,
      "the": 1143,
      "Ġens": 1144,
      "Ġval": 1145,
      "eah": 1146,
      "ics": 1147,
      "Ġsm": 1148,
      "Ġpresent": 1149,
      "ĠMember": 1150,
      "lear": 1151,
      "Ġmany": 1152,
      "ancial": 1153,
      "Ġagainst": 1154,
      "Ġsit": 1155,
      "ather": 1156,
      "Ġplace": 1157,
      "ven": 1158,
      "ting": 1159,
      "ady": 1160,
      "ower": 1161,
      "Ġcol": 1162,
      "Ġfind": 1163,
      "Ġperiod": 1164,
      "ote": 1165,
      "Ġown": 1166,
      "lease": 1167,
      "Ġcour": 1168,
      "Ġmod": 1169,
      "ages": 1170,
      "ath": 1171,
      "hes": 1172,
      "Ġed": 1173,
      "As": 1174,
      "Ġprom": 1175,
      "Ġpoint": 1176,
      "ody": 1177,
      "Ġ?": 1178,
      "Ġworld": 1179,
      "Ġbas": 1180,
      "Ġcor": 1181,
      "Ġboth": 1182,
      "Ġcome": 1183,
      "ource": 1184,
      "AT": 1185,
      "rol": 1186,
      "Ġcond": 1187,
      "Ġprovide": 1188,
      "So": 1189,
      "Ġrepresent": 1190,
      "Ġactivities": 1191,
      "ĠAn": 1192,
      "ĠAs": 1193,
      "ĠÂ": 1194,
      "Ġinvest": 1195,
      "iven": 1196,
      "arl": 1197,
      "resident": 1198,
      "Ġaccess": 1199,
      "ool": 1200,
      "iti": 1201,
      "Ġrece": 1202,
      "ended": 1203,
      "Ġcase": 1204,
      "ability": 1205,
      "Ġgr": 1206,
      "Ġadv": 1207,
      "ĠState": 1208,
      "onna": 1209,
      "Ġrequire": 1210,
      "ters": 1211,
      "Ġinf": 1212,
      "Ġrespons": 1213,
      "Ġaccord": 1214,
      "ised": 1215,
      "Ġquest": 1216,
      "Ġrese": 1217,
      "Ġcountry": 1218,
      "stit": 1219,
      "Ġavail": 1220,
      "Ġ12": 1221,
      "ouse": 1222,
      "Ġdirect": 1223,
      "isions": 1224,
      "Ġstand": 1225,
      "illion": 1226,
      "Ġdist": 1227,
      "Ġcost": 1228,
      "ared": 1229,
      "ivers": 1230,
      "Ġsom": 1231,
      "urther": 1232,
      "ĠRes": 1233,
      "ital": 1234,
      "AR": 1235,
      "Ġdem": 1236,
      "Ġduring": 1237,
      "Ġcomple": 1238,
      "Ġimportant": 1239,
      "000": 1240,
      "Ġmed": 1241,
      "Ġparticip": 1242,
      "Ġinterest": 1243,
      "Ġlet": 1244,
      "Oh": 1245,
      "Ġday": 1246,
      "Ġlife": 1247,
      "thing": 1248,
      "10": 1249,
      "Ġbr": 1250,
      "Ġcer": 1251,
      "Ġthree": 1252,
      "Ġgonna": 1253,
      "Ġconsid": 1254,
      "Ġfam": 1255,
      "Ġenvironment": 1256,
      "Ġbro": 1257,
      "self": 1258,
      "Ġpolicy": 1259,
      "ĠAm": 1260,
      "ned": 1261,
      "Ġmat": 1262,
      "Ġwomen": 1263,
      "ĠSp": 1264,
      "Ġpay": 1265,
      "rim": 1266,
      "und": 1267,
      "kay": 1268,
      "artment": 1269,
      "Ġdata": 1270,
      "IN": 1271,
      "aj": 1272,
      "Well": 1273,
      "par": 1274,
      "ug": 1275,
      "Ġdra": 1276,
      "Ġdocu": 1277,
      "ĠArticle": 1278,
      "por": 1279,
      "ification": 1280,
      "agraph": 1281,
      "ieve": 1282,
      "Ġaccount": 1283,
      "ner": 1284,
      "Ġregard": 1285,
      "Ġtak": 1286,
      "ected": 1287,
      "Ġgovernment": 1288,
      "Ġagree": 1289,
      "Ġprovided": 1290,
      "icial": 1291,
      "--": 1292,
      "duct": 1293,
      "Ġnon": 1294,
      "AN": 1295,
      "Ġcare": 1296,
      "ption": 1297,
      "Ġservice": 1298,
      "arge": 1299,
      "ES": 1300,
      "blem": 1301,
      "Ġfound": 1302,
      "Ġmuch": 1303,
      "be": 1304,
      "Ġcre": 1305,
      "ify": 1306,
      "Ġmeasures": 1307,
      "ession": 1308,
      "ĠÃ": 1309,
      "Ġcontrib": 1310,
      "Ġtell": 1311,
      "Ġimpro": 1312,
      "An": 1313,
      "ferent": 1314,
      "Ġlist": 1315,
      "Ġlast": 1316,
      "stand": 1317,
      "oard": 1318,
      "Ġhand": 1319,
      "lev": 1320,
      "Ġ15": 1321,
      "Ġident": 1322,
      "Ġsect": 1323,
      "ĠOff": 1324,
      "ĠEx": 1325,
      "Ġsocial": 1326,
      "Ġmanagement": 1327,
      "Ġbusiness": 1328,
      "Ġlead": 1329,
      "Ġ[": 1330,
      "Ġmean": 1331,
      "Ġsupp": 1332,
      "ivid": 1333,
      "ething": 1334,
      "Ġavailable": 1335,
      "Ġrequest": 1336,
      "ĠEU": 1337,
      "Ġaddition": 1338,
      "enef": 1339,
      "Ġchildren": 1340,
      "ĠQ": 1341,
      "Ġproblem": 1342,
      "Âł": 1343,
      "ize": 1344,
      "ĠPart": 1345,
      "She": 1346,
      "Ġterm": 1347,
      "Ġpo": 1348,
      "Ġmemb": 1349,
      "ral": 1350,
      "ittle": 1351,
      "pri": 1352,
      "ĠAd": 1353,
      "io": 1354,
      "Ġser": 1355,
      "Ġfull": 1356,
      "Ġtoo": 1357,
      "Ġadop": 1358,
      "Ġstill": 1359,
      "Ġfinancial": 1360,
      "Ġter": 1361,
      "Ġhapp": 1362,
      "Ġpract": 1363,
      "ues": 1364,
      "Ġret": 1365,
      "Ġfac": 1366,
      "ology": 1367,
      "Ġstate": 1368,
      "ium": 1369,
      "On": 1370,
      "Ġprev": 1371,
      "ience": 1372,
      "Ġmembers": 1373,
      "ibility": 1374,
      "Ġel": 1375,
      "Ġeconomic": 1376,
      "Ġ20": 1377,
      "Ġensure": 1378,
      "ross": 1379,
      "ness": 1380,
      "Ġgl": 1381,
      "ock": 1382,
      "Ġris": 1383,
      "ĠSe": 1384,
      "ĠGovernment": 1385,
      "ird": 1386,
      "Ġ'": 1387,
      "Re": 1388,
      "Ġ18": 1389,
      "Ġdifferent": 1390,
      "Ġtalk": 1391,
      "ature": 1392,
      "leg": 1393,
      "Ġgeneral": 1394,
      "minist": 1395,
      "Ġelect": 1396,
      "Ġresearch": 1397,
      "ential": 1398,
      "iament": 1399,
      "ĠDirect": 1400,
      "Ġcurrent": 1401,
      "ecess": 1402,
      "ually": 1403,
      "ĠIs": 1404,
      "Ġindust": 1405,
      "Ġwithout": 1406,
      "12": 1407,
      "Ġche": 1408,
      "ĠTr": 1409,
      "Ġfore": 1410,
      "man": 1411,
      "Ġrest": 1412,
      "Ġsim": 1413,
      "unities": 1414,
      "ĠMinister": 1415,
      "Ġallow": 1416,
      "Ġaff": 1417,
      "Ġshow": 1418,
      "ĠWe": 1419,
      ".\"": 1420,
      "ale": 1421,
      "aff": 1422,
      "Ġrecomm": 1423,
      "itted": 1424,
      "Ġeduc": 1425,
      "Ġinstit": 1426,
      "IC": 1427,
      "'d": 1428,
      "une": 1429,
      "Ġsomething": 1430,
      "ĠGeneral": 1431,
      "ners": 1432,
      "Ġair": 1433,
      "ĠInd": 1434,
      "Ġaddress": 1435,
      "Ġspecial": 1436,
      "EN": 1437,
      "Ġredu": 1438,
      "ilities": 1439,
      "Ġsecond": 1440,
      "Ġindic": 1441,
      "Ġlittle": 1442,
      "med": 1443,
      "Ġcompet": 1444,
      "arg": 1445,
      "Ġreally": 1446,
      "ield": 1447,
      "erc": 1448,
      "Ġview": 1449,
      "ilit": 1450,
      "Ġobject": 1451,
      "Ġinvol": 1452,
      "Ġdesign": 1453,
      "ically": 1454,
      "Ġbenef": 1455,
      "Ġnever": 1456,
      "ered": 1457,
      "Ġassist": 1458,
      "atives": 1459,
      "Ġdidn": 1460,
      "Ġreal": 1461,
      "Ġreview": 1462,
      "ĠFr": 1463,
      "....": 1464,
      "ĠInternational": 1465,
      "Ġpossible": 1466,
      "chool": 1467,
      "Ġgive": 1468,
      "Ġmonth": 1469,
      "ĠMan": 1470,
      "Ġarea": 1471,
      "Ġexpl": 1472,
      "gr": 1473,
      "Ġassess": 1474,
      "ulations": 1475,
      "ances": 1476,
      "ĠCommunity": 1477,
      "ately": 1478,
      "Ġissues": 1479,
      "tt": 1480,
      "ĠUnion": 1481,
      "ĠRep": 1482,
      "ĠServ": 1483,
      "Ġsince": 1484,
      "ights": 1485,
      "Ġvis": 1486,
      "Ġdecision": 1487,
      "St": 1488,
      "Ġareas": 1489,
      "11": 1490,
      "Ġput": 1491,
      "ĠAl": 1492,
      "Ġstart": 1493,
      "Ġfun": 1494,
      "ĠPresident": 1495,
      "Ġnecess": 1496,
      "operation": 1497,
      "itor": 1498,
      "Ġplay": 1499,
      "Ġask": 1500,
      "ex": 1501,
      "Ġins": 1502,
      "ived": 1503,
      "Ġann": 1504,
      "ought": 1505,
      "cl": 1506,
      "Ġfurther": 1507,
      "ecial": 1508,
      "Ġname": 1509,
      "omp": 1510,
      "Ġpat": 1511,
      "Ġwater": 1512,
      "eric": 1513,
      "ajor": 1514,
      "Ġworking": 1515,
      "Ġ2005": 1516,
      "Ġ11": 1517,
      "Ġ2006": 1518,
      "Ġbetter": 1519,
      "ĠAf": 1520,
      "ĠOr": 1521,
      "ason": 1522,
      "Ġtraining": 1523,
      "Ġwhile": 1524,
      "ĠLe": 1525,
      "Ġcontain": 1526,
      "orry": 1527,
      "ves": 1528,
      "ividual": 1529,
      "Ġcontrol": 1530,
      "atic": 1531,
      "Ġproducts": 1532,
      "Ġtax": 1533,
      "Ġtest": 1534,
      "angu": 1535,
      "www": 1536,
      "Ġpop": 1537,
      "ĠNew": 1538,
      "ars": 1539,
      "Ġmeeting": 1540,
      "Ġimplementation": 1541,
      "Ġparagraph": 1542,
      "OR": 1543,
      "All": 1544,
      "ait": 1545,
      "eng": 1546,
      "Ġsecurity": 1547,
      "ists": 1548,
      "ample": 1549,
      "Ġlim": 1550,
      "ried": 1551,
      "Ġocc": 1552,
      "ten": 1553,
      "Ġopen": 1554,
      "work": 1555,
      "riend": 1556,
      "Ġspe": 1557,
      "iving": 1558,
      "Ġsubm": 1559,
      "atory": 1560,
      "Ġtreat": 1561,
      "ĠUN": 1562,
      "reed": 1563,
      "Ġmeans": 1564,
      "Ġprior": 1565,
      "Ġproced": 1566,
      "Ġprof": 1567,
      "ĠProgram": 1568,
      "fer": 1569,
      "Ġty": 1570,
      "Ġpolit": 1571,
      "Ġrequired": 1572,
      "ĠSecret": 1573,
      "Ġstrateg": 1574,
      "less": 1575,
      "semb": 1576,
      "ĠDevelop": 1577,
      "Ġapplication": 1578,
      "arliament": 1579,
      "IS": 1580,
      "Ġcommunity": 1581,
      "Ġappropri": 1582,
      "Ġ14": 1583,
      "Ġmillion": 1584,
      "idence": 1585,
      "mm": 1586,
      "ians": 1587,
      "Ġ2004": 1588,
      "Ġtaken": 1589,
      "ope": 1590,
      "Ġ13": 1591,
      "ien": 1592,
      "ultural": 1593,
      "Ġamount": 1594,
      "ĠPl": 1595,
      "Ġclear": 1596,
      "ina": 1597,
      "orth": 1598,
      "Ġdeterm": 1599,
      "??": 1600,
      "Ġdiscuss": 1601,
      "Ġorganiz": 1602,
      "Ġresources": 1603,
      "Ġ198": 1604,
      "Ġindividual": 1605,
      "ederal": 1606,
      "ccess": 1607,
      "ways": 1608,
      "Ġperform": 1609,
      "ĠDep": 1610,
      "Ġestablish": 1611,
      "ator": 1612,
      "ĠRegulation": 1613,
      "az": 1614,
      "ĠCent": 1615,
      "Ġstat": 1616,
      "ules": 1617,
      "ering": 1618,
      "Ġless": 1619,
      "Ġconditions": 1620,
      "iol": 1621,
      "Ġcertain": 1622,
      "Ġ30": 1623,
      "To": 1624,
      "Ġhead": 1625,
      "Ġiniti": 1626,
      "for": 1627,
      "Ġeffort": 1628,
      "oh": 1629,
      "imes": 1630,
      "Ġtot": 1631,
      "Ġlocal": 1632,
      "ION": 1633,
      "aim": 1634,
      "Ġcompl": 1635,
      "Ġla": 1636,
      "Ġmet": 1637,
      "Ġremain": 1638,
      "ull": 1639,
      "Ġ16": 1640,
      "Ġmajor": 1641,
      "go": 1642,
      "oney": 1643,
      "ier": 1644,
      "udget": 1645,
      "ins": 1646,
      "Ġwhy": 1647,
      "Ġgrow": 1648,
      "Ġanother": 1649,
      "Ġ:": 1650,
      "ĠHealth": 1651,
      "Ġ2007": 1652,
      "ĠFor": 1653,
      "ceed": 1654,
      "Ġ17": 1655,
      "Ġkm": 1656,
      "AL": 1657,
      "Ġchang": 1658,
      "Ġear": 1659,
      "gg": 1660,
      "Ġgen": 1661,
      "oss": 1662,
      "rodu": 1663,
      "Ġhome": 1664,
      "Ġquestion": 1665,
      "Ġbased": 1666,
      "ending": 1667,
      "Ġunderstand": 1668,
      "uture": 1669,
      "ogn": 1670,
      "Ġeffective": 1671,
      "Ġnecessary": 1672,
      "isl": 1673,
      "Ġneeds": 1674,
      "Ġach": 1675,
      "ĠParliament": 1676,
      "Ġwr": 1677,
      "ĠNational": 1678,
      "Ġchange": 1679,
      "ward": 1680,
      "ĠAss": 1681,
      "ĠSc": 1682,
      "cember": 1683,
      "Ġsubject": 1684,
      "lection": 1685,
      "Ġfil": 1686,
      "Ġgiven": 1687,
      "ĠConvention": 1688,
      "Ġproper": 1689,
      "Ġspecific": 1690,
      "sembly": 1691,
      "ĠTe": 1692,
      "Ġbeh": 1693,
      "//": 1694,
      "Ġland": 1695,
      "ĠÂ°": 1696,
      "Ġinclude": 1697,
      "ron": 1698,
      "Yeah": 1699,
      "Ġbasis": 1700,
      "Ġaction": 1701,
      "Ġwee": 1702,
      "Ġaround": 1703,
      "Do": 1704,
      "ĠWhat": 1705,
      "Ġresolution": 1706,
      "use": 1707,
      "Ġprotection": 1708,
      "ĠDevelopment": 1709,
      "Ġkill": 1710,
      "Ġamong": 1711,
      "Ġlove": 1712,
      "els": 1713,
      "oura": 1714,
      "Ġbuild": 1715,
      "Ġsmall": 1716,
      "ready": 1717,
      "of": 1718,
      "Ġbest": 1719,
      "ense": 1720,
      "itive": 1721,
      "ĠPol": 1722,
      "Ġfamily": 1723,
      "Ġpass": 1724,
      "Ġold": 1725,
      "Ġdoing": 1726,
      "Ġschool": 1727,
      "://": 1728,
      "obal": 1729,
      "ergy": 1730,
      "Ġeducation": 1731,
      "ober": 1732,
      "fety": 1733,
      "ipl": 1734,
      "val": 1735,
      "Ġresults": 1736,
      "These": 1737,
      "________": 1738,
      "20": 1739,
      "sue": 1740,
      "IT": 1741,
      "Ġrecommend": 1742,
      "Ġfuture": 1743,
      "Ġprinc": 1744,
      "Ġmater": 1745,
      "nex": 1746,
      "alf": 1747,
      "ĠCo": 1748,
      "Ġexist": 1749,
      "Ġappropriate": 1750,
      "Ġdocument": 1751,
      "gress": 1752,
      "irl": 1753,
      "Ġanal": 1754,
      "Ġalready": 1755,
      "Ġunt": 1756,
      "ash": 1757,
      "ĠJune": 1758,
      "Ġrecord": 1759,
      "ĠAnd": 1760,
      "ĠAfric": 1761,
      "ently": 1762,
      "ĠâĢĵ": 1763,
      "Ġ2002": 1764,
      "ĠDecember": 1765,
      "Ġrequirements": 1766,
      "201": 1767,
      ".,": 1768,
      "Ġrisk": 1769,
      "ours": 1770,
      "Ġaccordance": 1771,
      "Ġthing": 1772,
      "ng": 1773,
      "ework": 1774,
      "At": 1775,
      "ramework": 1776,
      "Ġ2003": 1777,
      "ternal": 1778,
      "line": 1779,
      "ators": 1780,
      "Ġpolitical": 1781,
      "ulture": 1782,
      "ĠAmeric": 1783,
      "Ġve": 1784,
      "Ġkeep": 1785,
      "way": 1786,
      "Ġcr": 1787,
      "ĠCont": 1788,
      "Ġpriv": 1789,
      "Al": 1790,
      "ets": 1791,
      "ca": 1792,
      "Ġadminist": 1793,
      "ĠGod": 1794,
      "Ġsignific": 1795,
      "Ġdays": 1796,
      "Ġtoget": 1797,
      "Ġconsult": 1798,
      "Ġ,": 1799,
      "Ġtogether": 1800,
      "Ġlegal": 1801,
      "Ġviol": 1802,
      "bs": 1803,
      "osed": 1804,
      "Ġexample": 1805,
      "Ġrelated": 1806,
      "Ġincrease": 1807,
      "Ġpres": 1808,
      "ĠGroup": 1809,
      "13": 1810,
      "Ġpa": 1811,
      "Ġmight": 1812,
      "Ġcourse": 1813,
      "Ġwhether": 1814,
      "Ġsector": 1815,
      "Ġnext": 1816,
      "Ġpartners": 1817,
      "Ġfour": 1818,
      "not": 1819,
      "Ġvar": 1820,
      "Ġprogramm": 1821,
      "Ġfeel": 1822,
      "ĠMay": 1823,
      "Ġorganizations": 1824,
      "ivil": 1825,
      "Ġopport": 1826,
      "ĠAssembly": 1827,
      "utes": 1828,
      "iversity": 1829,
      "Ġsk": 1830,
      "Ch": 1831,
      "Ġca": 1832,
      "Ġsl": 1833,
      "Ġcooperation": 1834,
      "ructure": 1835,
      "Ġsituation": 1836,
      "airs": 1837,
      "Ġlegisl": 1838,
      "Ġimprove": 1839,
      "Ġalways": 1840,
      "Ġcommunic": 1841,
      "Ġrole": 1842,
      "Ġrelev": 1843,
      "Ġ25": 1844,
      "Ġtry": 1845,
      "ĠRepublic": 1846,
      "When": 1847,
      "isc": 1848,
      "outh": 1849,
      "ĠCl": 1850,
      "etwork": 1851,
      "Ġrefer": 1852,
      "ĠBoard": 1853,
      "Ġ2000": 1854,
      "Ġcommon": 1855,
      "Ġpost": 1856,
      "Ġfield": 1857,
      "Ġfriend": 1858,
      "Ġtotal": 1859,
      "Ġsession": 1860,
      "Ġneg": 1861,
      "30": 1862,
      "ĠBr": 1863,
      "ustom": 1864,
      "reng": 1865,
      "15": 1866,
      "ĠDec": 1867,
      "Ġrecogn": 1868,
      "esp": 1869,
      "ethod": 1870,
      "General": 1871,
      "Ġlab": 1872,
      "Ġkind": 1873,
      "Ġhappen": 1874,
      "Ġtrade": 1875,
      "Ġregional": 1876,
      "Mr": 1877,
      "Ġword": 1878,
      "ither": 1879,
      "Ġimpact": 1880,
      "Ġcases": 1881,
      "enc": 1882,
      "Ġmaterial": 1883,
      "AC": 1884,
      "Ġclaim": 1885,
      "Pro": 1886,
      "to": 1887,
      "Ġdr": 1888,
      "uly": 1889,
      "ĠJan": 1890,
      "Ġdone": 1891,
      "Ġproduction": 1892,
      "Ġdesc": 1893,
      "Ġpower": 1894,
      "Ġ2008": 1895,
      "arent": 1896,
      "Ġprojects": 1897,
      "Ġgroups": 1898,
      "Ġcrit": 1899,
      "Ġquality": 1900,
      "sh": 1901,
      "over": 1902,
      "Ġfood": 1903,
      "Ġjob": 1904,
      "Ġdate": 1905,
      "ĠCour": 1906,
      "que": 1907,
      "Source": 1908,
      "Ġprovisions": 1909,
      "Ġmove": 1910,
      "Ġissue": 1911,
      "by": 1912,
      "Ġthings": 1913,
      "hold": 1914,
      "ĠTH": 1915,
      "Ġeng": 1916,
      "ĠMarch": 1917,
      "Ġthought": 1918,
      "irc": 1919,
      "Ġstaff": 1920,
      "ffic": 1921,
      "Ġfree": 1922,
      "Ġtoday": 1923,
      "ising": 1924,
      "Ġhouse": 1925,
      "Ġide": 1926,
      "Ġet": 1927,
      "Ġdeal": 1928,
      "Ġlangu": 1929,
      "Ġheld": 1930,
      "Ġlarge": 1931,
      "irm": 1932,
      "ledge": 1933,
      "Ġhold": 1934,
      "ories": 1935,
      "akes": 1936,
      "Ġprogramme": 1937,
      "Ġbre": 1938,
      "iginal": 1939,
      "Ġexam": 1940,
      "pro": 1941,
      "Ġpeace": 1942,
      "Is": 1943,
      "ocus": 1944,
      "idered": 1945,
      "Ġestablished": 1946,
      "ĠAb": 1947,
      "Ġpot": 1948,
      "Ġsure": 1949,
      "Ġbelieve": 1950,
      "Ġconst": 1951,
      "Ġ2001": 1952,
      "ta": 1953,
      "Ġwar": 1954,
      "Ar": 1955,
      "Ġsol": 1956,
      "Ġsignificant": 1957,
      "eb": 1958,
      "Ġmar": 1959,
      "Ġaway": 1960,
      "Ġfew": 1961,
      "cent": 1962,
      "Where": 1963,
      "Ġassoci": 1964,
      "Ġgovern": 1965,
      "view": 1966,
      "atch": 1967,
      "new": 1968,
      "ĠApp": 1969,
      "Ġclass": 1970,
      "Ġread": 1971,
      "Ġparty": 1972,
      "Ġable": 1973,
      "With": 1974,
      "Ġconsidered": 1975,
      "My": 1976,
      "ees": 1977,
      "rug": 1978,
      "199": 1979,
      "Ġexpress": 1980,
      "Ġcontinue": 1981,
      "yl": 1982,
      "ison": 1983,
      "Ġleast": 1984,
      "Ġgirl": 1985,
      "ĠDepartment": 1986,
      "Ġsection": 1987,
      "However": 1988,
      "Why": 1989,
      "ox": 1990,
      "Ġdeb": 1991,
      "Ġrelevant": 1992,
      "Ġtar": 1993,
      "Ġkey": 1994,
      "Ġmen": 1995,
      "Ġsubst": 1996,
      "Ġbudget": 1997,
      "ror": 1998,
      "Ġofficial": 1999,
      "uary": 2000,
      "ctober": 2001,
      "Ġdraft": 2002,
      "ĩÃ": 2003,
      "ury": 2004,
      "Ġcontinu": 2005,
      "ĠOffice": 2006,
      "Ġconduct": 2007,
      "fact": 2008,
      "come": 2009,
      "Ġindustry": 2010,
      "Ġhaving": 2011,
      "Ġcontract": 2012,
      "ĠHuman": 2013,
      "Ġsoci": 2014,
      "Ġusing": 2015,
      "acity": 2016,
      "Ġtherefore": 2017,
      "Ġsuccess": 2018,
      "Ġstreng": 2019,
      "Ġabove": 2020,
      "14": 2021,
      "ĠPublic": 2022,
      "ably": 2023,
      "uck": 2024,
      "ED": 2025,
      "Ġenc": 2026,
      "Ġsystems": 2027,
      "ptember": 2028,
      "rench": 2029,
      "ension": 2030,
      "Ġaccept": 2031,
      "Ġnight": 2032,
      "Don": 2033,
      "Ġrelations": 2034,
      "Ġconsider": 2035,
      "imum": 2036,
      "ĠCourt": 2037,
      "Ġconcern": 2038,
      "Ġefforts": 2039,
      "ode": 2040,
      "Now": 2041,
      "ĠThis": 2042,
      "pect": 2043,
      "Ġadopted": 2044,
      "hing": 2045,
      "Ġmethod": 2046,
      "Ġuntil": 2047,
      "Let": 2048,
      "pose": 2049,
      "Ġmoney": 2050,
      "Ġreason": 2051,
      "II": 2052,
      "ior": 2053,
      "Ġposition": 2054,
      "Ġvarious": 2055,
      "ĠGu": 2056,
      "ST": 2057,
      "ients": 2058,
      "OM": 2059,
      "Ġauthorities": 2060,
      "lig": 2061,
      "sequ": 2062,
      "Ġmonths": 2063,
      "ĠRights": 2064,
      "earch": 2065,
      "Ġeval": 2066,
      "pril": 2067,
      "Ġproposed": 2068,
      "Ġlear": 2069,
      "Ġcosts": 2070,
      "Ġbroad": 2071,
      "ID": 2072,
      "Ġapproach": 2073,
      "Ad": 2074,
      "Ġapply": 2075,
      "Ġvalue": 2076,
      "Ġreceived": 2077,
      "Hey": 2078,
      "Ġrun": 2079,
      "ĠSh": 2080,
      "ĠWork": 2081,
      "Ġassistance": 2082,
      "rial": 2083,
      "Ġinform": 2084,
      "iation": 2085,
      "Ġbeg": 2086,
      "aring": 2087,
      "Ġlic": 2088,
      "Ġfocus": 2089,
      "imate": 2090,
      "ery": 2091,
      "Ġcomb": 2092,
      "Ġenvironmental": 2093,
      "Ġrate": 2094,
      "Ġleft": 2095,
      "Ġagreement": 2096,
      "Ġsever": 2097,
      "Ġmult": 2098,
      "ruction": 2099,
      "Ġfive": 2100,
      "ubl": 2101,
      "ĠCol": 2102,
      "ĠSecretary": 2103,
      "Ġstudy": 2104,
      "ief": 2105,
      "Ġvol": 2106,
      "ĠOctober": 2107,
      "Ġanything": 2108,
      "Ġ24": 2109,
      "Ġwhole": 2110,
      "ane": 2111,
      "Ġpersons": 2112,
      "50": 2113,
      "ĠJuly": 2114,
      "Ġeas": 2115,
      "Not": 2116,
      "Ġparties": 2117,
      "unt": 2118,
      "let": 2119,
      "Ġchar": 2120,
      "Ġinstitutions": 2121,
      "orn": 2122,
      "Ġjud": 2123,
      "ĠZ": 2124,
      "ological": 2125,
      "ovember": 2126,
      "Ex": 2127,
      "Ġprogress": 2128,
      "stain": 2129,
      "ĠAll": 2130,
      "verage": 2131,
      "Ġundert": 2132,
      "Ġrules": 2133,
      "asing": 2134,
      "Ġ21": 2135,
      "body": 2136,
      "Ġhist": 2137,
      "sw": 2138,
      "Ġlevels": 2139,
      "fic": 2140,
      "Ġsite": 2141,
      "Ġframework": 2142,
      "acy": 2143,
      "eal": 2144,
      "oman": 2145,
      "ĠSeptember": 2146,
      "Ġcompany": 2147,
      "Ġprovides": 2148,
      "oad": 2149,
      "Ġfederal": 2150,
      "Ġtaking": 2151,
      "Ġcalled": 2152,
      "Ġplease": 2153,
      "reen": 2154,
      "Ġroom": 2155,
      "Ġtrad": 2156,
      "Ġdeveloping": 2157,
      "ĠSu": 2158,
      "Ġyoung": 2159,
      "Ġsal": 2160,
      "Come": 2161,
      "ises": 2162,
      "urs": 2163,
      "Ġterms": 2164,
      "Ġcirc": 2165,
      "Ġpromot": 2166,
      "Ġhig": 2167,
      "Ġdeli": 2168,
      "ĠAgency": 2169,
      "app": 2170,
      "Ġbring": 2171,
      "Ġpopulation": 2172,
      "Ġmatter": 2173,
      "ĠJanuary": 2174,
      "ĠFin": 2175,
      "ĠApril": 2176,
      "Ġobs": 2177,
      "Ġsustain": 2178,
      "Ġtransport": 2179,
      "Ġbecome": 2180,
      "wards": 2181,
      "Ġforce": 2182,
      "ĠConference": 2183,
      "Ġthird": 2184,
      "Ġreturn": 2185,
      "ats": 2186,
      "Ġturn": 2187,
      "Ġ31": 2188,
      "Ġclose": 2189,
      "Ġstrong": 2190,
      "Ġcapacity": 2191,
      "Ġ22": 2192,
      "Ġprograms": 2193,
      "Ġdetail": 2194,
      "Ġdev": 2195,
      "Ġbig": 2196,
      "Ġlot": 2197,
      "AS": 2198,
      "isation": 2199,
      "Ġmaking": 2200,
      "side": 2201,
      "ograph": 2202,
      "Ġever": 2203,
      "Ġseveral": 2204,
      "Ġtold": 2205,
      "ĠEC": 2206,
      "osp": 2207,
      "Ġline": 2208,
      "Ġtre": 2209,
      "ask": 2210,
      "ĠSecurity": 2211,
      "ĠFrench": 2212,
      "Ġcommit": 2213,
      "Ġdom": 2214,
      "ĠProt": 2215,
      "Ġenergy": 2216,
      "Ġtook": 2217,
      "ream": 2218,
      "Ġlink": 2219,
      "Ġaud": 2220,
      "Ġitem": 2221,
      "Ġcal": 2222,
      "bers": 2223,
      "Ġmember": 2224,
      "OU": 2225,
      "Ġsent": 2226,
      "Ġconsum": 2227,
      "Ġcho": 2228,
      "cer": 2229,
      "rop": 2230,
      "Ġguid": 2231,
      "ysis": 2232,
      "Ġur": 2233,
      "Ġregion": 2234,
      "Ġfr": 2235,
      "Ġcannot": 2236,
      "Ġupon": 2237,
      ");": 2238,
      "ĠReport": 2239,
      "Ġinvestig": 2240,
      "ĠPr": 2241,
      "18": 2242,
      "Ġlight": 2243,
      "ĠWorld": 2244,
      "Ġsing": 2245,
      "Ġsafety": 2246,
      "ufact": 2247,
      "aced": 2248,
      "Ġdue": 2249,
      "Ġgoods": 2250,
      "Ġcivil": 2251,
      "Ġpolicies": 2252,
      "ĠNovember": 2253,
      "Ġknowledge": 2254,
      "Yes": 2255,
      "mp": 2256,
      "Ġleave": 2257,
      "Ġcame": 2258,
      "Ġappl": 2259,
      "ficult": 2260,
      "Ġ>": 2261,
      "Ġaim": 2262,
      "ĠâĢĶ": 2263,
      "Ġ23": 2264,
      "Ġadditional": 2265,
      "ĠOF": 2266,
      "Ġdeveloped": 2267,
      "Ġglobal": 2268,
      "ple": 2269,
      "16": 2270,
      "Ġconcerned": 2271,
      "issions": 2272,
      "Ġmonitor": 2273,
      "gl": 2274,
      "encies": 2275,
      "Ġchall": 2276,
      "Just": 2277,
      "co": 2278,
      "Ġlow": 2279,
      "Ġcomplete": 2280,
      "lu": 2281,
      "ĠTreat": 2282,
      "itional": 2283,
      "ender": 2284,
      "Ġreports": 2285,
      "Ġweek": 2286,
      "ĠGerm": 2287,
      "Ġtechnical": 2288,
      "Ġpotential": 2289,
      "Okay": 2290,
      "Ġkid": 2291,
      "ĠEnvironment": 2292,
      "Ġcontact": 2293,
      "hib": 2294,
      "Ġ&": 2295,
      "ario": 2296,
      "Ġdifficult": 2297,
      "Ġteam": 2298,
      "atural": 2299,
      "ipment": 2300,
      "Ġhard": 2301,
      "Look": 2302,
      "istics": 2303,
      "Ġintrodu": 2304,
      "Ġ--": 2305,
      "epend": 2306,
      "chan": 2307,
      "25": 2308,
      "ured": 2309,
      "Ġprivate": 2310,
      "Ġcustom": 2311,
      "Ġnetwork": 2312,
      "Thank": 2313,
      "IV": 2314,
      "ik": 2315,
      "Ġpress": 2316,
      "Ġfar": 2317,
      "elf": 2318,
      "Ġstep": 2319,
      "Ġtru": 2320,
      "ĠPlan": 2321,
      "Ġincluded": 2322,
      "ĠTrans": 2323,
      "Ġsorry": 2324,
      "Ġsy": 2325,
      "itiz": 2326,
      "ĠAgree": 2327,
      "Ġproblems": 2328,
      "cing": 2329,
      "Ġparticularly": 2330,
      "Ġshort": 2331,
      "Ġage": 2332,
      "Ġstay": 2333,
      "bec": 2334,
      "rist": 2335,
      "rict": 2336,
      "Ġassessment": 2337,
      "Ġtem": 2338,
      "Ġbody": 2339,
      "Ġfunding": 2340,
      "ilar": 2341,
      "Ġchanges": 2342,
      "Ġeconom": 2343,
      "Ġlive": 2344,
      "Ġoblig": 2345,
      "Ġincreased": 2346,
      "Ġwon": 2347,
      "though": 2348,
      "ĠMar": 2349,
      "uty": 2350,
      "Ġamend": 2351,
      "orpor": 2352,
      "Ġwait": 2353,
      "Ġokay": 2354,
      "ef": 2355,
      "nov": 2356,
      "onst": 2357,
      "raft": 2358,
      "Ġemployment": 2359,
      "hic": 2360,
      "Ġhowever": 2361,
      "SC": 2362,
      "ames": 2363,
      "onse": 2364,
      "ĠPh": 2365,
      "usion": 2366,
      "cast": 2367,
      "Ġenter": 2368,
      "ĠOrgan": 2369,
      "ences": 2370,
      "Ġexperience": 2371,
      "gu": 2372,
      "stitution": 2373,
      "Ġconcerning": 2374,
      "ÂŃ": 2375,
      "ĠFund": 2376,
      "acter": 2377,
      "Ġterrit": 2378,
      "ann": 2379,
      "Ġpast": 2380,
      "Ġ1999": 2381,
      "ND": 2382,
      "Ġresponsible": 2383,
      "Ġprep": 2384,
      "Ġgrowth": 2385,
      "Ġ%": 2386,
      "Ġtop": 2387,
      "ĠMe": 2388,
      "Ġdistrib": 2389,
      "Ġtreatment": 2390,
      "CT": 2391,
      "ule": 2392,
      "ton": 2393,
      "Ġnothing": 2394,
      "Ġmaintain": 2395,
      "Ġcollect": 2396,
      "ires": 2397,
      "à¤": 2398,
      "reg": 2399,
      "ancing": 2400,
      "Ġprovision": 2401,
      "Ġyet": 2402,
      "Ġregist": 2403,
      "Ġcred": 2404,
      "ring": 2405,
      "Ġsix": 2406,
      "see": 2407,
      "ĠService": 2408,
      "Ġlegislation": 2409,
      "Ġ/": 2410,
      "One": 2411,
      "ĠUS": 2412,
      "ung": 2413,
      "Ġsex": 2414,
      "Ġarticle": 2415,
      "Ġreferred": 2416,
      "aster": 2417,
      "17": 2418,
      "ert": 2419,
      "Ġoffice": 2420,
      "Ġart": 2421,
      "Ġseem": 2422,
      "vent": 2423,
      "Ġsw": 2424,
      "ively": 2425,
      "Ġsumm": 2426,
      "Ġstandards": 2427,
      "Ġprevious": 2428,
      "Ġrepl": 2429,
      "abor": 2430,
      "Ġconn": 2431,
      "sc": 2432,
      "Ġcapital": 2433,
      "vis": 2434,
      "Ġmanag": 2435,
      "ern": 2436,
      "rative": 2437,
      "Ġmov": 2438,
      "Ġencoura": 2439,
      "Un": 2440,
      "sec": 2441,
      "22": 2442,
      "OP": 2443,
      "Ġperformance": 2444,
      "iance": 2445,
      "Ġserious": 2446,
      "enda": 2447,
      "Ġ50": 2448,
      "Ġbank": 2449,
      "âĻ": 2450,
      "Ġcoming": 2451,
      "ĠTHE": 2452,
      "IP": 2453,
      "ordin": 2454,
      "text": 2455,
      "Ġtarget": 2456,
      "Ġaid": 2457,
      "Ġeither": 2458,
      "medi": 2459,
      "Ġaccording": 2460,
      "ĠEm": 2461,
      "uted": 2462,
      "Ġonce": 2463,
      "Ġwel": 2464,
      "aving": 2465,
      "ĠThat": 2466,
      "ĠComp": 2467,
      "ides": 2468,
      "anies": 2469,
      "Ġdead": 2470,
      "Ġprotect": 2471,
      "Ġcop": 2472,
      "iple": 2473,
      "Ġcommunities": 2474,
      "rast": 2475,
      "ged": 2476,
      "Ġsociety": 2477,
      "Ġseen": 2478,
      "ump": 2479,
      "Ġmor": 2480,
      "ĠSocial": 2481,
      "âĻª": 2482,
      "ctions": 2483,
      "ĠFirst": 2484,
      "Ġtext": 2485,
      "Ġi": 2486,
      "Ġtimes": 2487,
      "ruary": 2488,
      "ariat": 2489,
      "Ġce": 2490,
      "Ġproperty": 2491,
      "ills": 2492,
      "Ġinvolved": 2493,
      "ebruary": 2494,
      "Ġprogrammes": 2495,
      "ĠServices": 2496,
      "ĠAgreement": 2497,
      "AD": 2498,
      "eria": 2499,
      "ament": 2500,
      "Ġothers": 2501,
      "Ġdel": 2502,
      "Ġmom": 2503,
      "ges": 2504,
      "Ġpubl": 2505,
      "used": 2506,
      "Ġeverything": 2507,
      "Ġhours": 2508,
      "ĠEconomic": 2509,
      "Ġport": 2510,
      "Ġobtain": 2511,
      "ĠJust": 2512,
      "Ġ197": 2513,
      "ike": 2514,
      "Ġcheck": 2515,
      "Ġevidence": 2516,
      "ĠFrance": 2517,
      "Ġtechnology": 2518,
      "Ġprevent": 2519,
      "ĠDirector": 2520,
      "aren": 2521,
      "Ġexcept": 2522,
      "ĠManagement": 2523,
      "Ġgrant": 2524,
      "ĠDirective": 2525,
      "Ġtype": 2526,
      "Sh": 2527,
      "Ġfinal": 2528,
      "Ġoperations": 2529,
      "Ġmechan": 2530,
      "ĠInformation": 2531,
      "Ġbegin": 2532,
      "ggest": 2533,
      "ING": 2534,
      "Ġdest": 2535,
      "ecially": 2536,
      "Ġintegr": 2537,
      "Ġmind": 2538,
      "Ġsuggest": 2539,
      "Ġachieve": 2540,
      "Ġfail": 2541,
      "Ġopin": 2542,
      "Ġproposal": 2543,
      "Ġvisit": 2544,
      "ĠPe": 2545,
      "Ġoften": 2546,
      "mit": 2547,
      "Ġwanted": 2548,
      "Ġ27": 2549,
      "estic": 2550,
      "riminal": 2551,
      "ishing": 2552,
      "Who": 2553,
      "Ġvari": 2554,
      "Ġ26": 2555,
      "Ġproceed": 2556,
      "AP": 2557,
      "Are": 2558,
      "Ġshare": 2559,
      "Ġeffic": 2560,
      "ATION": 2561,
      "Ġground": 2562,
      "Ġequipment": 2563,
      "ntario": 2564,
      "Ġpercent": 2565,
      "ole": 2566,
      "ided": 2567,
      "Ġlanguage": 2568,
      "Ġenough": 2569,
      "ĠHow": 2570,
      "Ġpolice": 2571,
      "Ġpersonal": 2572,
      "ilitary": 2573,
      "apt": 2574,
      "Ġacross": 2575,
      "Ġforeign": 2576,
      "ands": 2577,
      "pped": 2578,
      "selves": 2579,
      "Ġactivity": 2580,
      "che": 2581,
      "aint": 2582,
      "Ġcoll": 2583,
      "Ġaut": 2584,
      "Ġbo": 2585,
      "Ġincome": 2586,
      "ĠTreaty": 2587,
      "ze": 2588,
      "Ġexisting": 2589,
      "just": 2590,
      "Ġtransfer": 2591,
      "Ġguy": 2592,
      "ĠIN": 2593,
      "Ġstop": 2594,
      "iver": 2595,
      "Ġarr": 2596,
      "Ġevent": 2597,
      "Ġpurpose": 2598,
      "arter": 2599,
      "Ġdeath": 2600,
      "Ġprocedures": 2601,
      "Some": 2602,
      "Ġpursu": 2603,
      "Ġ28": 2604,
      "Ġrad": 2605,
      "Ġlater": 2606,
      "ocol": 2607,
      "Ġmother": 2608,
      "ferences": 2609,
      "urance": 2610,
      "vey": 2611,
      "ĠSw": 2612,
      "anced": 2613,
      "isher": 2614,
      "ĠAff": 2615,
      "most": 2616,
      "Ġfall": 2617,
      "icy": 2618,
      "Ġfuck": 2619,
      "Ġboy": 2620,
      "Ġbook": 2621,
      "Ġdocuments": 2622,
      "Ġvict": 2623,
      "Comm": 2624,
      "Ġvehic": 2625,
      "Ġanalysis": 2626,
      "Ġbenefits": 2627,
      "ĠResearch": 2628,
      "ercial": 2629,
      "Ġsubmitted": 2630,
      "ĠAfrica": 2631,
      "Ġ29": 2632,
      "EL": 2633,
      "Ġinstru": 2634,
      "Ġnegot": 2635,
      "Ġexc": 2636,
      "Ġelse": 2637,
      "Ġdrug": 2638,
      "Ġabs": 2639,
      "Ġprim": 2640,
      "tp": 2641,
      "ĠCentre": 2642,
      "action": 2643,
      "Ġconsist": 2644,
      "Ġbad": 2645,
      "Ġexport": 2646,
      "aps": 2647,
      "Ġmanufact": 2648,
      "Ġreflect": 2649,
      "ban": 2650,
      "ployment": 2651,
      "Ġquestions": 2652,
      "Article": 2653,
      "tion": 2654,
      "rel": 2655,
      "org": 2656,
      "ude": 2657,
      "ĠFebruary": 2658,
      "ugust": 2659,
      "Ġnorm": 2660,
      "bia": 2661,
      "Ġhear": 2662,
      "Ġreported": 2663,
      "ling": 2664,
      "Ġmand": 2665,
      "Ġsingle": 2666,
      "ii": 2667,
      "Ġesp": 2668,
      "Ġmess": 2669,
      "Ġobjectives": 2670,
      "Ġorganization": 2671,
      "ĠNot": 2672,
      "Ġcompanies": 2673,
      "Ġess": 2674,
      "Ġdoesn": 2675,
      "Ġrange": 2676,
      "ĠMed": 2677,
      "ĠAt": 2678,
      "Ġdescrib": 2679,
      "Ġtool": 2680,
      "stitute": 2681,
      "force": 2682,
      "http": 2683,
      "eed": 2684,
      "ĠOntario": 2685,
      "Ġenh": 2686,
      "iter": 2687,
      "Ġdecl": 2688,
      "Ġ100": 2689,
      "05": 2690,
      "Ġdam": 2691,
      "Ġknown": 2692,
      "Ġauthority": 2693,
      "Ġappear": 2694,
      "Ġmus": 2695,
      "Ġwent": 2696,
      "Ġcitiz": 2697,
      "Ġheart": 2698,
      "May": 2699,
      "Ġfather": 2700,
      "Ġearly": 2701,
      "Ġhope": 2702,
      "Ġopt": 2703,
      "ÃŃ": 2704,
      "Ġgreater": 2705,
      "ones": 2706,
      "Ġexch": 2707,
      "ĠRec": 2708,
      "Ġimportance": 2709,
      "Ġrecommendations": 2710,
      "ĠII": 2711,
      "Ġprocedure": 2712,
      "Your": 2713,
      "Ġrates": 2714,
      "ique": 2715,
      "ET": 2716,
      "Ġnature": 2717,
      "Ġemerg": 2718,
      "Ġparticipation": 2719,
      "itation": 2720,
      "Ġsafe": 2721,
      "Go": 2722,
      "Ġnear": 2723,
      "igin": 2724,
      "Ġbuilding": 2725,
      "Ġphys": 2726,
      "ĠTo": 2727,
      "Ġresponse": 2728,
      "oid": 2729,
      "........": 2730,
      "erve": 2731,
      "Ġliving": 2732,
      "Ġoutside": 2733,
      "Ġconflic": 2734,
      "ĠAffairs": 2735,
      "atis": 2736,
      "Ġproviding": 2737,
      "de": 2738,
      "EP": 2739,
      "essional": 2740,
      "ription": 2741,
      "Ġneeded": 2742,
      "Ġstatus": 2743,
      "uge": 2744,
      "Ġer": 2745,
      "Ġface": 2746,
      "ternet": 2747,
      "Ġsimilar": 2748,
      "\".": 2749,
      "23": 2750,
      "ĠRuss": 2751,
      "ĠCons": 2752,
      "Ġeffects": 2753,
      "ĠBrit": 2754,
      "ĠLaw": 2755,
      "Ġespecially": 2756,
      "nal": 2757,
      "Ġdefin": 2758,
      "ĠX": 2759,
      "Ġarm": 2760,
      "Ġrespond": 2761,
      "Ġfav": 2762,
      "Ġqual": 2763,
      "iff": 2764,
      "ĠPar": 2765,
      "Ġtowards": 2766,
      "Ġannual": 2767,
      "istry": 2768,
      "elines": 2769,
      "Ġresponsibility": 2770,
      "tle": 2771,
      "Ġcontext": 2772,
      "reedom": 2773,
      "Ġregul": 2774,
      "idd": 2775,
      "ĠAnnex": 2776,
      "ENT": 2777,
      "iples": 2778,
      "Ġagric": 2779,
      "Ġhy": 2780,
      "iet": 2781,
      "Ġnoted": 2782,
      "IL": 2783,
      "40": 2784,
      "Ġalong": 2785,
      "term": 2786,
      "Ġanim": 2787,
      "rought": 2788,
      "men": 2789,
      "Ġindepend": 2790,
      "poses": 2791,
      "Ġfunction": 2792,
      "Ġemployees": 2793,
      "aut": 2794,
      "Ġdecisions": 2795,
      "dom": 2796,
      "Ġcharacter": 2797,
      "arant": 2798,
      "ĠPre": 2799,
      "Ġinvestment": 2800,
      "Ġparent": 2801,
      "bour": 2802,
      "inary": 2803,
      "ĠChrist": 2804,
      "Ġbelow": 2805,
      "Ġdeleg": 2806,
      "Ġoffic": 2807,
      "âĢľ": 2808,
      "Ġfile": 2809,
      "ĠSpecial": 2810,
      "Ġpaid": 2811,
      "Ġhigher": 2812,
      "Ġbenefit": 2813,
      "ival": 2814,
      "Ġcamp": 2815,
      "fficient": 2816,
      "Ġnatural": 2817,
      "Ġincreasing": 2818,
      "ĠNorth": 2819,
      "ohn": 2820,
      "Ġguys": 2821,
      "ĠKing": 2822,
      "¡Ã": 2823,
      "ĠOh": 2824,
      "ĠQu": 2825,
      "Ġprepar": 2826,
      "ocr": 2827,
      "ttp": 2828,
      "Ġmonitoring": 2829,
      "Ġappoint": 2830,
      "Ġhttp": 2831,
      "Ġplans": 2832,
      "Ġcity": 2833,
      "Ġbal": 2834,
      "hens": 2835,
      "Ġant": 2836,
      "oot": 2837,
      "Ġpromote": 2838,
      "):": 2839,
      "roll": 2840,
      "Ġregarding": 2841,
      "Ġlooking": 2842,
      "Ġhot": 2843,
      "spect": 2844,
      "Ġexpected": 2845,
      "ĠBank": 2846,
      "Ġtyp": 2847,
      "arian": 2848,
      "Ġsoon": 2849,
      "based": 2850,
      "Am": 2851,
      "oph": 2852,
      "Ġsuper": 2853,
      "Ġ1998": 2854,
      "Ġbreak": 2855,
      "incial": 2856,
      "equ": 2857,
      "Ġrecent": 2858,
      "Ġprice": 2859,
      "24": 2860,
      "hips": 2861,
      "Ġside": 2862,
      "Ġcarried": 2863,
      "Ġwrong": 2864,
      "ored": 2865,
      "60": 2866,
      "where": 2867,
      "odies": 2868,
      "UR": 2869,
      "Ġcoun": 2870,
      "Ġworkers": 2871,
      "Ġrelating": 2872,
      "Ġattention": 2873,
      "Ġpractices": 2874,
      "ĠAugust": 2875,
      "Ġcarry": 2876,
      "Ġasked": 2877,
      "Ġcover": 2878,
      "ray": 2879,
      "ronic": 2880,
      "utive": 2881,
      "enn": 2882,
      "Ġoffer": 2883,
      "ume": 2884,
      "Ġwind": 2885,
      "ecause": 2886,
      "Ġpurposes": 2887,
      "ĠQue": 2888,
      "Ġcurrently": 2889,
      "Ġbar": 2890,
      "Ġfight": 2891,
      "Ġmechanism": 2892,
      "Ġhappened": 2893,
      "original": 2894,
      "Ġforward": 2895,
      "Ġagencies": 2896,
      "Ġmiss": 2897,
      "ached": 2898,
      "Ġspeak": 2899,
      "Can": 2900,
      "Ġopinion": 2901,
      "Ġessential": 2902,
      "\",": 2903,
      "Ġpractice": 2904,
      "Ġmakes": 2905,
      "Ġnegoti": 2906,
      "Ġself": 2907,
      "raz": 2908,
      "Ġpack": 2909,
      "Ġmeasure": 2910,
      "Ġfunds": 2911,
      "Ġobserv": 2912,
      "iveness": 2913,
      "ched": 2914,
      "Ġopportunity": 2915,
      "Ġill": 2916,
      "ĠBe": 2917,
      "Ġreference": 2918,
      "Ġdise": 2919,
      "Ġviolence": 2920,
      "istic": 2921,
      "Ġfine": 2922,
      "rab": 2923,
      "Canad": 2924,
      "Ġimm": 2925,
      "ĠStr": 2926,
      "Ġidea": 2927,
      "OL": 2928,
      "vest": 2929,
      "Ġmot": 2930,
      "Ġlo": 2931,
      "Ġsepar": 2932,
      "Ġz": 2933,
      "Ġbit": 2934,
      "Ġplanning": 2935,
      "Ġrather": 2936,
      "Ġcross": 2937,
      "Ġfig": 2938,
      "Ġey": 2939,
      "endit": 2940,
      "Ġselect": 2941,
      "Ġdirectly": 2942,
      "Ġthreat": 2943,
      "Ġstrategy": 2944,
      "rain": 2945,
      "ĠSa": 2946,
      "Ġansw": 2947,
      "empt": 2948,
      "Did": 2949,
      "Ġroad": 2950,
      "Ġwish": 2951,
      "Ġtw": 2952,
      "Ġcultural": 2953,
      "Ġstandard": 2954,
      "uff": 2955,
      "rael": 2956,
      "EM": 2957,
      "esc": 2958,
      "ley": 2959,
      "Ġdou": 2960,
      "augh": 2961,
      "Ġ40": 2962,
      "29": 2963,
      "By": 2964,
      "27": 2965,
      "erous": 2966,
      "Ġreform": 2967,
      "Ġlack": 2968,
      "Ġsays": 2969,
      "Ġstudies": 2970,
      "Ġoccur": 2971,
      "Ġlonger": 2972,
      "Ġinitiatives": 2973,
      "Ġcle": 2974,
      "Ġidentified": 2975,
      "Ġachie": 2976,
      "Ġsaw": 2977,
      "Ġsomeone": 2978,
      "Ġtrying": 2979,
      "Please": 2980,
      "Ġregular": 2981,
      "Ġago": 2982,
      "more": 2983,
      "head": 2984,
      "ĠUniversity": 2985,
      "Ġterror": 2986,
      "Ġvictim": 2987,
      "Ġsustainable": 2988,
      "Ġapplicable": 2989,
      "Ġaverage": 2990,
      "Ġ2009": 2991,
      "ĠRegulations": 2992,
      "uclear": 2993,
      "ler": 2994,
      "lex": 2995,
      "Ġincludes": 2996,
      "Ġestim": 2997,
      "oke": 2998,
      "Ġtable": 2999,
      "Ġevaluation": 3000,
      "Ġhalf": 3001,
      "Ġreporting": 3002,
      "ctor": 3003,
      "wh": 3004,
      "Ġmilitary": 3005,
      "Ġidentify": 3006,
      "Ġ...": 3007,
      "Ġinstitution": 3008,
      "ĠCanadians": 3009,
      "Ġorigin": 3010,
      "RC": 3011,
      "Ġagreed": 3012,
      "Ġsecret": 3013,
      "rap": 3014,
      "ai": 3015,
      "aries": 3016,
      "ĠInt": 3017,
      "Ġste": 3018,
      "Ġassociated": 3019,
      "nel": 3020,
      "orrow": 3021,
      "oor": 3022,
      "ĠShe": 3023,
      "ĠItal": 3024,
      "Ġapproved": 3025,
      "rad": 3026,
      "Ġheard": 3027,
      "Ġentire": 3028,
      "hers": 3029,
      "Ġactions": 3030,
      "ables": 3031,
      "Ġcert": 3032,
      "Ġagreements": 3033,
      "Ġitself": 3034,
      "UN": 3035,
      "erson": 3036,
      "ĠInc": 3037,
      "ony": 3038,
      "cle": 3039,
      "Ġinnov": 3040,
      "Ġgetting": 3041,
      "ends": 3042,
      "04": 3043,
      "Ġdepartment": 3044,
      "Ġmodel": 3045,
      "Ġdemonst": 3046,
      "Be": 3047,
      "ulf": 3048,
      ",\"": 3049,
      "Ġexplain": 3050,
      "Ġvers": 3051,
      "ĠDecision": 3052,
      "Ġimmedi": 3053,
      "Ġcommercial": 3054,
      "Good": 3055,
      "cell": 3056,
      "ows": 3057,
      "Ġlimited": 3058,
      "ateral": 3059,
      "Ġson": 3060,
      "izing": 3061,
      "Con": 3062,
      "Ġwin": 3063,
      "Ġcommunication": 3064,
      "Ġfarm": 3065,
      "imately": 3066,
      "Ġcompon": 3067,
      "ording": 3068,
      "Ġminutes": 3069,
      "Ġwords": 3070,
      "Ġdomestic": 3071,
      "ĠGovern": 3072,
      "Ġchalleng": 3073,
      "Ġbrought": 3074,
      "Ġnote": 3075,
      "part": 3076,
      "Ġcand": 3077,
      "ivision": 3078,
      "ili": 3079,
      "Ġcorpor": 3080,
      "Ġcitizens": 3081,
      "Our": 3082,
      "Ġblood": 3083,
      "uild": 3084,
      "Ġpoints": 3085,
      "Ġaspect": 3086,
      "2004": 3087,
      "lands": 3088,
      "Add": 3089,
      "rate": 3090,
      "Ġcateg": 3091,
      "ĠAssoci": 3092,
      "Acc": 3093,
      "ivity": 3094,
      "Ġconsideration": 3095,
      "==": 3096,
      "apter": 3097,
      "ĠPolicy": 3098,
      "aces": 3099,
      "Ġloss": 3100,
      "Ġfully": 3101,
      "Ġcut": 3102,
      ")(": 3103,
      "Ġtalking": 3104,
      "Ġdepart": 3105,
      "Or": 3106,
      "Ġcourt": 3107,
      "Ġsound": 3108,
      "Ġjoint": 3109,
      "Ġrepresentatives": 3110,
      "bsite": 3111,
      "rect": 3112,
      "Ġfacilit": 3113,
      "Ġexerc": 3114,
      "ĠAmerica": 3115,
      "ux": 3116,
      "olid": 3117,
      "arth": 3118,
      "03": 3119,
      "Ġconclud": 3120,
      "CC": 3121,
      "aged": 3122,
      "Get": 3123,
      "Ġprob": 3124,
      "ĠTra": 3125,
      "ĠBel": 3126,
      "rastructure": 3127,
      "Ġbi": 3128,
      "Ġharm": 3129,
      "ĠSub": 3130,
      "Then": 3131,
      "Ġissued": 3132,
      "Ġagenda": 3133,
      "Ġsir": 3134,
      "arc": 3135,
      "section": 3136,
      "Ġ2010": 3137,
      "ĠSouth": 3138,
      "comm": 3139,
      "rehens": 3140,
      "Ġver": 3141,
      "Ġcontribution": 3142,
      "28": 3143,
      "aration": 3144,
      "Ġpresented": 3145,
      "Ġfix": 3146,
      "Ġspecies": 3147,
      "Ġguarant": 3148,
      "Ġbasic": 3149,
      "Ġleaders": 3150,
      "ĠYeah": 3151,
      "EEC": 3152,
      "Ġrat": 3153,
      "stances": 3154,
      "See": 3155,
      "ĠCommissioner": 3156,
      "oper": 3157,
      "Ġmeetings": 3158,
      "lim": 3159,
      "lements": 3160,
      "Ġfre": 3161,
      "Ġresol": 3162,
      "Ġalone": 3163,
      "Ġstatement": 3164,
      "26": 3165,
      "ĠEngl": 3166,
      "ĠMon": 3167,
      "ecutive": 3168,
      "ĠInter": 3169,
      "Ġevents": 3170,
      "Ġinflu": 3171,
      "ĠIf": 3172,
      "ĠEnglish": 3173,
      "Ġopp": 3174,
      "ĠBut": 3175,
      "reme": 3176,
      "put": 3177,
      "Ġfa": 3178,
      "ĠCom": 3179,
      "unch": 3180,
      "Ġeconomy": 3181,
      "ulated": 3182,
      "En": 3183,
      "year": 3184,
      "Ġwalk": 3185,
      "ĠPal": 3186,
      "Ġdecided": 3187,
      "Ġsatis": 3188,
      "Ġwoman": 3189,
      "ĠOn": 3190,
      "Ġtrust": 3191,
      "Ġton": 3192,
      "Ġfire": 3193,
      "Ġregions": 3194,
      "Ġdri": 3195,
      "ipal": 3196,
      "Ġopportunities": 3197,
      "21": 3198,
      "Ġcreate": 3199,
      "ĠAmerican": 3200,
      "ĠDo": 3201,
      "joy": 3202,
      "Ġfreedom": 3203,
      "ying": 3204,
      "Ġactually": 3205,
      "Ġcircum": 3206,
      "Ġhon": 3207,
      "ops": 3208,
      "Ġsupply": 3209,
      "After": 3210,
      "rimination": 3211,
      "ĠOrganization": 3212,
      "Ġexpect": 3213,
      "Ġlimit": 3214,
      "Ġprinciples": 3215,
      "Ġarrange": 3216,
      "ÃĩÃ": 3217,
      "Ġbodies": 3218,
      "Ġtri": 3219,
      "ĠIsrael": 3220,
      "Ġpublished": 3221,
      "Ġmention": 3222,
      "ogue": 3223,
      "Ġremember": 3224,
      "Ġreceive": 3225,
      "Ġadministrative": 3226,
      "itting": 3227,
      "Ġsche": 3228,
      "Ġthank": 3229,
      "Ġacqu": 3230,
      "order": 3231,
      "Ġlabour": 3232,
      "Ġ_": 3233,
      "ĠBritish": 3234,
      "Ġentit": 3235,
      "Ġoil": 3236,
      "Ġapplied": 3237,
      "Ġexpert": 3238,
      "rec": 3239,
      "ĠBl": 3240,
      "06": 3241,
      "Ġetc": 3242,
      ".âĢĿ": 3243,
      "ologies": 3244,
      "Ġpage": 3245,
      "Ġthus": 3246,
      "Ġaffect": 3247,
      "umber": 3248,
      "duc": 3249,
      "Ġfriends": 3250,
      "Ġbab": 3251,
      "Ġexchange": 3252,
      "Ġoperation": 3253,
      "RO": 3254,
      "mark": 3255,
      "government": 3256,
      "Ġtown": 3257,
      "ticles": 3258,
      "Ġindividuals": 3259,
      "Ġisn": 3260,
      "key": 3261,
      "Ġalmost": 3262,
      "arily": 3263,
      "Ġmedia": 3264,
      "then": 3265,
      "Ġworks": 3266,
      "AM": 3267,
      "Because": 3268,
      "De": 3269,
      "Ġrepresentative": 3270,
      "Ġregulations": 3271,
      "Ġcalc": 3272,
      "09": 3273,
      "Ġreduce": 3274,
      "BAR": 3275,
      "Ġmax": 3276,
      "ĠAboriginal": 3277,
      "Ġbehalf": 3278,
      "ift": 3279,
      "Every": 3280,
      "Here": 3281,
      "oon": 3282,
      "rew": 3283,
      "ott": 3284,
      "ribun": 3285,
      "ĠParty": 3286,
      "Ġwhose": 3287,
      "Ġyes": 3288,
      "Ġmaterials": 3289,
      "ournal": 3290,
      "Ġlikely": 3291,
      "Ġlate": 3292,
      "awa": 3293,
      "eur": 3294,
      "Ġpositive": 3295,
      "ware": 3296,
      "Ġtrue": 3297,
      "Ġstructure": 3298,
      "Ġcreated": 3299,
      "fort": 3300,
      "istan": 3301,
      "Ġstudents": 3302,
      "asons": 3303,
      "Ġhell": 3304,
      "ĠGl": 3305,
      "Ġhistory": 3306,
      "TH": 3307,
      "ĠDr": 3308,
      "Ġdesigned": 3309,
      "abit": 3310,
      "Ġlost": 3311,
      "Ġhost": 3312,
      "Ġcommitment": 3313,
      "ully": 3314,
      "rant": 3315,
      "ots": 3316,
      "ibilities": 3317,
      "Ġcontinued": 3318,
      "ĠProgramme": 3319,
      "read": 3320,
      "rown": 3321,
      "________________": 3322,
      "oll": 3323,
      "Ġphot": 3324,
      "itial": 3325,
      "Ġstates": 3326,
      "ĠStat": 3327,
      "ĠParties": 3328,
      "Ġple": 3329,
      "Ġreach": 3330,
      "ĠTechn": 3331,
      "Ġpriority": 3332,
      "Ġfair": 3333,
      "Ġexpendit": 3334,
      "hern": 3335,
      "Ġtele": 3336,
      "Ġfactors": 3337,
      "Ġpursuant": 3338,
      "reet": 3339,
      "ĠSte": 3340,
      "ĠWorking": 3341,
      "uk": 3342,
      "Ġcontent": 3343,
      "itten": 3344,
      "Ġ1997": 3345,
      "Any": 3346,
      "Ġmorning": 3347,
      "ĠAir": 3348,
      "Ġscient": 3349,
      "Ġeth": 3350,
      "ĠJohn": 3351,
      "Ġinternal": 3352,
      "Ġspace": 3353,
      "Ġprepared": 3354,
      "ĠâĢĺ": 3355,
      "ĠAfrican": 3356,
      "More": 3357,
      "Ġaltern": 3358,
      "Ġfacilities": 3359,
      "ĠDis": 3360,
      "Ġvalues": 3361,
      "Ġcreat": 3362,
      "eter": 3363,
      "ĠChair": 3364,
      "Ã¨": 3365,
      "Ġgave": 3366,
      "pping": 3367,
      "Ġord": 3368,
      "Ġtravel": 3369,
      "ensive": 3370,
      "Ġapplications": 3371,
      "Ġcriteria": 3372,
      "Ġforms": 3373,
      "Ġoccup": 3374,
      "uh": 3375,
      "ĠHer": 3376,
      "Ġthemselves": 3377,
      "Ġtour": 3378,
      "ples": 3379,
      "ĠPort": 3380,
      "Ġyourself": 3381,
      "2006": 3382,
      "Ġproposals": 3383,
      "Ġcollabor": 3384,
      "Ġminor": 3385,
      "ervation": 3386,
      "Ġrequested": 3387,
      "Ġannoun": 3388,
      "Ġprofessional": 3389,
      "gn": 3390,
      "ordination": 3391,
      "While": 3392,
      "Ġgener": 3393,
      "Ġnice": 3394,
      "Ġvot": 3395,
      "Ġformer": 3396,
      "2005": 3397,
      "sels": 3398,
      "Ġcandid": 3399,
      "Ġready": 3400,
      "ilateral": 3401,
      "apan": 3402,
      "Ġ1996": 3403,
      "iction": 3404,
      "Le": 3405,
      "uter": 3406,
      "abilities": 3407,
      "phas": 3408,
      "Ġnews": 3409,
      "Ġdemand": 3410,
      "Ġmedical": 3411,
      "Ġdrink": 3412,
      "mission": 3413,
      "Ġattack": 3414,
      "ana": 3415,
      "den": 3416,
      "Other": 3417,
      "Rec": 3418,
      "Ġlower": 3419,
      "ĠCar": 3420,
      "02": 3421,
      "Ġcredit": 3422,
      "Ġlat": 3423,
      "âĢĶ": 3424,
      "ĠThere": 3425,
      "Ġactive": 3426,
      "Ġoverall": 3427,
      "Ġsaying": 3428,
      "Ġfirm": 3429,
      "resp": 3430,
      "rehensive": 3431,
      "Ġconcent": 3432,
      "Ġthough": 3433,
      "Ġstated": 3434,
      "Ġconflict": 3435,
      "yn": 3436,
      "Ġprices": 3437,
      "af": 3438,
      "Ġcell": 3439,
      "ĠMont": 3440,
      "Ġpen": 3441,
      "orthern": 3442,
      "gen": 3443,
      "Ġmatters": 3444,
      "Ġcompetition": 3445,
      "Ġpaper": 3446,
      "Ġsubstant": 3447,
      "DP": 3448,
      "ĠAND": 3449,
      "aches": 3450,
      "aur": 3451,
      "Ġwide": 3452,
      "ush": 3453,
      "aken": 3454,
      "2007": 3455,
      "Ġconcerns": 3456,
      "ĠAction": 3457,
      "rid": 3458,
      "lling": 3459,
      "35": 3460,
      "uses": 3461,
      "leep": 3462,
      "ging": 3463,
      "pret": 3464,
      "iles": 3465,
      "Ġkilled": 3466,
      "Ġprinciple": 3467,
      "ĠFore": 3468,
      "Ġenjoy": 3469,
      "Ġ2012": 3470,
      "ĠTur": 3471,
      "Ġprec": 3472,
      "Ġcentral": 3473,
      "ĠHigh": 3474,
      "Ġunderstanding": 3475,
      "Ġconcl": 3476,
      "vered": 3477,
      "ribunal": 3478,
      "ĠSum": 3479,
      "Ġfront": 3480,
      "road": 3481,
      "gration": 3482,
      "ĠBar": 3483,
      "Ġcomes": 3484,
      "Ġseek": 3485,
      "Ġstrengthen": 3486,
      "ĠSo": 3487,
      "osition": 3488,
      "ocratic": 3489,
      "Ġmag": 3490,
      "Ġdraw": 3491,
      "uilding": 3492,
      "Ġgas": 3493,
      "Sp": 3494,
      "fect": 3495,
      "Ġknew": 3496,
      "mical": 3497,
      "ran": 3498,
      "rated": 3499,
      "Ġconducted": 3500,
      "oe": 3501,
      "ese": 3502,
      "ĠProv": 3503,
      "Ġthroughout": 3504,
      "son": 3505,
      "estern": 3506,
      "Ġmach": 3507,
      "ĠAcc": 3508,
      "Ġupd": 3509,
      "Ġexpressed": 3510,
      "IR": 3511,
      "ĠStrateg": 3512,
      "cont": 3513,
      "Ġcriminal": 3514,
      "Ġamended": 3515,
      "Ġtakes": 3516,
      "going": 3517,
      "ĠYes": 3518,
      "Ġprocesses": 3519,
      "Ġestablishment": 3520,
      "Ġsources": 3521,
      "Ġdistribution": 3522,
      "Ġbur": 3523,
      "Ġadjust": 3524,
      "Ġgender": 3525,
      "Ġpret": 3526,
      "Ġ2011": 3527,
      "Since": 3528,
      "otal": 3529,
      "Ġdial": 3530,
      "Ġinterests": 3531,
      "Ġcircumstances": 3532,
      "Ġinitiative": 3533,
      "time": 3534,
      "Ġchallenges": 3535,
      "Ġconsequ": 3536,
      "Ġboard": 3537,
      "ĠGermany": 3538,
      "ites": 3539,
      "Ġcou": 3540,
      "ger": 3541,
      "Ġmass": 3542,
      "ĠInternet": 3543,
      "ĠQuebec": 3544,
      "âĢ¦": 3545,
      "ney": 3546,
      "Ġcondition": 3547,
      "ĠEUR": 3548,
      "Ġbed": 3549,
      "lier": 3550,
      "ĠIndust": 3551,
      "SA": 3552,
      "fully": 3553,
      "Ġhur": 3554,
      "Ġcontained": 3555,
      "Ġletter": 3556,
      "Ġcause": 3557,
      "ĠAust": 3558,
      "Ġmoment": 3559,
      "Ġdefined": 3560,
      "light": 3561,
      "rary": 3562,
      "orse": 3563,
      "Ġlarg": 3564,
      "Ġwasn": 3565,
      "Ġvote": 3566,
      "Ġrelig": 3567,
      "ĠPer": 3568,
      "Ġcovered": 3569,
      "ports": 3570,
      "Ġjo": 3571,
      "Ġlisten": 3572,
      "Ġresident": 3573,
      "Ġparts": 3574,
      "ĠJustice": 3575,
      "Ġsource": 3576,
      "Ġsoft": 3577,
      "Ġcompleted": 3578,
      "Ġrule": 3579,
      "ĠTrade": 3580,
      "Ġdetermine": 3581,
      "Ġmob": 3582,
      "Ġpurch": 3583,
      "According": 3584,
      "iency": 3585,
      "lor": 3586,
      "ĠSecretariat": 3587,
      "Ġdu": 3588,
      "ĠPa": 3589,
      "Ġobjective": 3590,
      "iful": 3591,
      "face": 3592,
      "ĠSection": 3593,
      "ĠAre": 3594,
      "Ġindustrial": 3595,
      "Ġexperien": 3596,
      "Ġreduction": 3597,
      "CH": 3598,
      "Ġapprox": 3599,
      "urch": 3600,
      "Ġship": 3601,
      "Maybe": 3602,
      "vious": 3603,
      "Ġparticipants": 3604,
      "Ġdispl": 3605,
      "sid": 3606,
      "anna": 3607,
      "Ġreasons": 3608,
      "Ġge": 3609,
      "Ġminimum": 3610,
      "Ġconstruction": 3611,
      "Ġred": 3612,
      "omes": 3613,
      "ĠAssociation": 3614,
      "Ġsett": 3615,
      "Ġsatisf": 3616,
      "Ġjustice": 3617,
      "Ġclearly": 3618,
      "Ġdang": 3619,
      "ĠSystem": 3620,
      "ĠProject": 3621,
      "Ġsuff": 3622,
      "wise": 3623,
      "Ġuh": 3624,
      "Ġwife": 3625,
      "ĠKingdom": 3626,
      "Ġsens": 3627,
      "ĠHIV": 3628,
      "Ġstrategic": 3629,
      "Ġbrother": 3630,
      "itable": 3631,
      "Ġcontributions": 3632,
      "Ġquick": 3633,
      "Ġsearch": 3634,
      "Ġrelationship": 3635,
      "Ġculture": 3636,
      "Ġlaws": 3637,
      "nes": 3638,
      "45": 3639,
      "room": 3640,
      "Ġdelivery": 3641,
      "Ġlocated": 3642,
      "ĠMinistry": 3643,
      "ĠProtocol": 3644,
      "Ġmethods": 3645,
      "Ġgame": 3646,
      "Ġhosp": 3647,
      "etimes": 3648,
      "Ġgovernments": 3649,
      "Ġwrit": 3650,
      "Ġadded": 3651,
      "Ġdetermined": 3652,
      "pid": 3653,
      "holders": 3654,
      "OC": 3655,
      "TA": 3656,
      "Ġdiscussion": 3657,
      "Ġindicated": 3658,
      "ĠAuthor": 3659,
      "ĠPri": 3660,
      "igration": 3661,
      "Ġpriorities": 3662,
      "ilies": 3663,
      "Ġbillion": 3664,
      "Ġconv": 3665,
      "Ġprovincial": 3666,
      "anel": 3667,
      "Ġways": 3668,
      "Ġlay": 3669,
      "Ġcharg": 3670,
      "Ġeasy": 3671,
      "SP": 3672,
      "Ġinitial": 3673,
      "Ġextent": 3674,
      "ĠChina": 3675,
      "Ġstake": 3676,
      "Ġpain": 3677,
      "Ġnuclear": 3678,
      "irit": 3679,
      "Ġstruct": 3680,
      "amb": 3681,
      "icro": 3682,
      "Ġcomplain": 3683,
      "Ġanswer": 3684,
      "governmental": 3685,
      "Ġwatch": 3686,
      "irth": 3687,
      "ĠEd": 3688,
      "Ġpayment": 3689,
      "Ġbeginning": 3690,
      "Ġemphas": 3691,
      "Ġfollows": 3692,
      "Ind": 3693,
      "Ġinvolve": 3694,
      "Ġindependent": 3695,
      "Ġexpos": 3696,
      "Ġintended": 3697,
      "ilt": 3698,
      "Ġmarkets": 3699,
      "Fin": 3700,
      "Ġyouth": 3701,
      "Ġmajority": 3702,
      "craft": 3703,
      "Ġalloc": 3704,
      "ruit": 3705,
      "Ġcommitted": 3706,
      "Ġclean": 3707,
      "atures": 3708,
      "Ġwritten": 3709,
      "Ġdescribed": 3710,
      "verty": 3711,
      "Ġclos": 3712,
      "Ġwants": 3713,
      "ĠThey": 3714,
      "ĠAdminist": 3715,
      "Ġweeks": 3716,
      "uris": 3717,
      "Ġ60": 3718,
      "Of": 3719,
      "Ġ1995": 3720,
      "Ġpoverty": 3721,
      "From": 3722,
      "edu": 3723,
      "RE": 3724,
      "Ġsold": 3725,
      "sy": 3726,
      "Ġstress": 3727,
      "59": 3728,
      "ĠJapan": 3729,
      "Ġmanner": 3730,
      "autiful": 3731,
      "Ġaspects": 3732,
      "Ġwebsite": 3733,
      "Ġten": 3734,
      "Ġwond": 3735,
      "ĠCentral": 3736,
      "ĠGe": 3737,
      "Ġelements": 3738,
      "iddle": 3739,
      "mon": 3740,
      "Ġobligations": 3741,
      "itarian": 3742,
      "Ġdoll": 3743,
      "Ġadequ": 3744,
      "areness": 3745,
      "Ġwaste": 3746,
      "34": 3747,
      "anch": 3748,
      "Ġadministration": 3749,
      "Ġparents": 3750,
      "Ġtypes": 3751,
      "Ġoperating": 3752,
      "Ġavoid": 3753,
      "Ġequal": 3754,
      "Ġcomprehensive": 3755,
      "IM": 3756,
      "Ġrelative": 3757,
      "Ġsize": 3758,
      "Ġcoordin": 3759,
      "Ġfoot": 3760,
      "31": 3761,
      "Ġaf": 3762,
      "ulate": 3763,
      "Ġpatients": 3764,
      "IA": 3765,
      "Ġdisp": 3766,
      "Ġpoor": 3767,
      "tenance": 3768,
      "Ġengine": 3769,
      "Ġdi": 3770,
      "Ġcomplex": 3771,
      "forcement": 3772,
      "Ġmaximum": 3773,
      "Ġrenew": 3774,
      "Ġweap": 3775,
      "Ġoriginal": 3776,
      "Ġheav": 3777,
      "Ġapproval": 3778,
      "unications": 3779,
      "08": 3780,
      "App": 3781,
      "ĠTribunal": 3782,
      "Ġbaby": 3783,
      ".?": 3784,
      "Ġbase": 3785,
      "Ġsectors": 3786,
      "ttawa": 3787,
      "luding": 3788,
      "Ġhands": 3789,
      "Ġinfrastructure": 3790,
      "Ġadver": 3791,
      "Ġmedic": 3792,
      "Ġentitled": 3793,
      "Ġcompliance": 3794,
      "Ġphysical": 3795,
      "ĠChild": 3796,
      "eting": 3797,
      "othing": 3798,
      "zer": 3799,
      "illed": 3800,
      "Ġmandate": 3801,
      "Ġsufficient": 3802,
      "Ġcontribute": 3803,
      "Ġmyself": 3804,
      "Ġ2013": 3805,
      "Ġconcept": 3806,
      "ĠFederal": 3807,
      "ental": 3808,
      "ĠCode": 3809,
      "Ġvir": 3810,
      "Ġvolunt": 3811,
      "ground": 3812,
      "Ġrequires": 3813,
      "ales": 3814,
      "Ġstarted": 3815,
      "isis": 3816,
      "ĠÃĩÃ": 3817,
      "uations": 3818,
      "ĠDon": 3819,
      "ĠInstitute": 3820,
      "Ġaudit": 3821,
      "isheries": 3822,
      "Ġ)": 3823,
      "oul": 3824,
      "orial": 3825,
      "Ġdebate": 3826,
      "ma": 3827,
      "Ġmission": 3828,
      "ĠHouse": 3829,
      "Ġquite": 3830,
      "Ġprobably": 3831,
      "antic": 3832,
      "%)": 3833,
      "Ġfish": 3834,
      "ĠOther": 3835,
      "Ġquant": 3836,
      "bon": 3837,
      "off": 3838,
      "Ġsolution": 3839,
      "Ġlives": 3840,
      "overy": 3841,
      "Ġplant": 3842,
      "Ġcorrect": 3843,
      "Ġprimary": 3844,
      "ĠMrs": 3845,
      "Ġcy": 3846,
      "owers": 3847,
      "Ġseries": 3848,
      "Ġaddressed": 3849,
      "**": 3850,
      "OS": 3851,
      "ny": 3852,
      "Further": 3853,
      "my": 3854,
      "ties": 3855,
      "2003": 3856,
      "Ġamendments": 3857,
      "Ġlog": 3858,
      "Ġvac": 3859,
      "ether": 3860,
      "ĠWomen": 3861,
      ".)": 3862,
      "PP": 3863,
      "Ġprevention": 3864,
      "Ġexceed": 3865,
      "Ġmaybe": 3866,
      "Ġexact": 3867,
      "Ġnotice": 3868,
      "Ġthinking": 3869,
      "Ã¡": 3870,
      "ĠMal": 3871,
      "Ġstage": 3872,
      "Ġcommittee": 3873,
      "Ġinstall": 3874,
      "Ġagricultural": 3875,
      "Me": 3876,
      "Ġforces": 3877,
      "plic": 3878,
      "Ġappeal": 3879,
      "33": 3880,
      "Ġoffers": 3881,
      "gar": 3882,
      "Ġled": 3883,
      "Ġnotes": 3884,
      "ĠStand": 3885,
      "Ġsusp": 3886,
      "Ġsense": 3887,
      "amental": 3888,
      "2001": 3889,
      "Ġeveryone": 3890,
      "Ġsites": 3891,
      "Ġremains": 3892,
      "oved": 3893,
      "actions": 3894,
      "pporteur": 3895,
      "ches": 3896,
      "Ġinterpret": 3897,
      "Ġmanufacture": 3898,
      "Ġaffected": 3899,
      "dy": 3900,
      "enses": 3901,
      "Ġtrack": 3902,
      "Ġfamilies": 3903,
      "Ġguidelines": 3904,
      "Ġmusic": 3905,
      "Cl": 3906,
      "Ġder": 3907,
      "Ġcrime": 3908,
      "phone": 3909,
      "standing": 3910,
      "Ġrequests": 3911,
      "Ġdepartments": 3912,
      "Ġproduced": 3913,
      "Reg": 3914,
      "07": 3915,
      "ducation": 3916,
      "Ġrecommended": 3917,
      "ha": 3918,
      "gc": 3919,
      "enge": 3920,
      "Ġgone": 3921,
      "alls": 3922,
      "Ġund": 3923,
      "Ġlicence": 3924,
      "itage": 3925,
      "ĠWell": 3926,
      "Ġpred": 3927,
      "ĠMem": 3928,
      "Ġsubsection": 3929,
      "Ġchoice": 3930,
      "Ġgenerally": 3931,
      "comes": 3932,
      "Ġhistor": 3933,
      "ĠTransport": 3934,
      "TC": 3935,
      "aign": 3936,
      "Ġinstruments": 3937,
      "49": 3938,
      "ĠTer": 3939,
      "ĠLab": 3940,
      "Ġability": 3941,
      "right": 3942,
      "Ġcompar": 3943,
      "yond": 3944,
      "racy": 3945,
      "Ġoperational": 3946,
      "IF": 3947,
      "MP": 3948,
      "ĠGood": 3949,
      "respond": 3950,
      "EA": 3951,
      "rief": 3952,
      "Ġtom": 3953,
      "Ġpersonnel": 3954,
      "Ġcentre": 3955,
      "Ġpict": 3956,
      "Ġhar": 3957,
      "igned": 3958,
      "Ġwouldn": 3959,
      "Ġemb": 3960,
      "Ġ!": 3961,
      "ĠVal": 3962,
      "Ġallowed": 3963,
      "During": 3964,
      "ĠHar": 3965,
      "Ġskills": 3966,
      "Ġclaims": 3967,
      "ifications": 3968,
      "Ġnormal": 3969,
      "Ġimplemented": 3970,
      "Ġforest": 3971,
      "Ġwww": 3972,
      "Ġaircraft": 3973,
      "Ġbehind": 3974,
      "va": 3975,
      "Ġgain": 3976,
      "Ġapplicant": 3977,
      "urisd": 3978,
      "Ġcreation": 3979,
      "ĠCorpor": 3980,
      "pper": 3981,
      "related": 3982,
      "TR": 3983,
      "Ġhous": 3984,
      "uties": 3985,
      "Ġdoor": 3986,
      "Ġbeautiful": 3987,
      "Ġweight": 3988,
      "Ġelig": 3989,
      "vere": 3990,
      "Ġsupported": 3991,
      "Ġgirls": 3992,
      "Ġdeg": 3993,
      "Ġclimate": 3994,
      "Ġbalance": 3995,
      "Ag": 3996,
      "load": 3997,
      "Ġbecame": 3998,
      "ĠAud": 3999,
      "arks": 4000,
      "Ġ1990": 4001,
      "Ġbroadcast": 4002,
      "bit": 4003,
      "Ġprogramming": 4004,
      "inated": 4005,
      "Ġsurvey": 4006,
      "lam": 4007,
      "Ġanyone": 4008,
      "Ġstrategies": 4009,
      "Ġadoption": 4010,
      "Ġfollowed": 4011,
      "Ġmovement": 4012,
      "ply": 4013,
      "Ġshown": 4014,
      "Ġentry": 4015,
      "itness": 4016,
      "Ġrele": 4017,
      "Although": 4018,
      "Ġpil": 4019,
      "Ġcharge": 4020,
      "Ġtools": 4021,
      "enior": 4022,
      "Ġwanna": 4023,
      "Ġsteps": 4024,
      "Ġfrequ": 4025,
      "ĠPalest": 4026,
      "ĠSl": 4027,
      "ĠRel": 4028,
      "ĠMy": 4029,
      "Ġvehicle": 4030,
      "Ġdisease": 4031,
      "Ġprison": 4032,
      "Ġshows": 4033,
      "ĠSy": 4034,
      "Ġcopy": 4035,
      "Sec": 4036,
      "ĠEast": 4037,
      "âĢĵ": 4038,
      "ĠLet": 4039,
      "Ġawareness": 4040,
      "Ġalthough": 4041,
      "Ġfeed": 4042,
      "Ġpressure": 4043,
      "Ġcrisis": 4044,
      "IDS": 4045,
      "Ġsleep": 4046,
      "ster": 4047,
      "Ġinside": 4048,
      "55": 4049,
      "HR": 4050,
      "ares": 4051,
      "Ġbirth": 4052,
      "iding": 4053,
      "ults": 4054,
      "ape": 4055,
      "Ġtraditional": 4056,
      "atever": 4057,
      "Ġadapt": 4058,
      "Ġ1994": 4059,
      "Ġsend": 4060,
      "Ġunit": 4061,
      "Ġapproximately": 4062,
      "oly": 4063,
      "ĠGr": 4064,
      "Ġguess": 4065,
      "Ġemployee": 4066,
      "ead": 4067,
      "ps": 4068,
      "Ġterritory": 4069,
      "Ġcat": 4070,
      "Ġpick": 4071,
      "Ġgrad": 4072,
      "ĠEst": 4073,
      "Ġspecified": 4074,
      "US": 4075,
      "Ġusers": 4076,
      "Ġreject": 4077,
      "istance": 4078,
      "Ġspeed": 4079,
      "Ġdetailed": 4080,
      "CP": 4081,
      "Ġinvestigation": 4082,
      "mitted": 4083,
      "37": 4084,
      "ĠDem": 4085,
      "Ġphone": 4086,
      "Ġexercise": 4087,
      "36": 4088,
      "ĠâĻª": 4089,
      "ĠCR": 4090,
      "Ġpartnership": 4091,
      "Cont": 4092,
      "ĠSer": 4093,
      "Ġexcl": 4094,
      "Ġconnection": 4095,
      "Ġgra": 4096,
      "LE": 4097,
      "ques": 4098,
      "gment": 4099,
      "ĠWest": 4100,
      "ĠYork": 4101,
      "itude": 4102,
      "ĠOper": 4103,
      "Ġcompared": 4104,
      "Ġdiscrimination": 4105,
      "Ġbelie": 4106,
      "ureau": 4107,
      "Ġworked": 4108,
      "ĠColum": 4109,
      "38": 4110,
      "Ġhappy": 4111,
      "ĠContract": 4112,
      "hood": 4113,
      "Ġconsultation": 4114,
      "Ġintegrated": 4115,
      "Ġvictims": 4116,
      "Ġden": 4117,
      "Ġcomments": 4118,
      "âĢ¢": 4119,
      "Ġversion": 4120,
      "EF": 4121,
      "Ġsubsid": 4122,
      "Ġpresence": 4123,
      "Ġpretty": 4124,
      "Ġdie": 4125,
      "ĠLa": 4126,
      "Ġtechnologies": 4127,
      "band": 4128,
      "Ġelectronic": 4129,
      "ĠProtection": 4130,
      "lying": 4131,
      "iring": 4132,
      "iment": 4133,
      "Ġri": 4134,
      "Ġsuccessful": 4135,
      "Ġgranted": 4136,
      "ĠNe": 4137,
      "Ġdialogue": 4138,
      "His": 4139,
      "oice": 4140,
      "Ġparticipate": 4141,
      "39": 4142,
      "Ġsea": 4143,
      "âĢĿ.": 4144,
      "????": 4145,
      "AF": 4146,
      "atab": 4147,
      "Ġargu": 4148,
      "iscal": 4149,
      "47": 4150,
      "OT": 4151,
      "Ġstory": 4152,
      "ĠDivision": 4153,
      "ello": 4154,
      "Ġmodern": 4155,
      "net": 4156,
      "Ġachieved": 4157,
      "icit": 4158,
      "dule": 4159,
      "48": 4160,
      "Ġ35": 4161,
      "set": 4162,
      "Ġfell": 4163,
      "Ġrelation": 4164,
      "Ġsigned": 4165,
      "Ġap": 4166,
      "Ġinsp": 4167,
      "ico": 4168,
      "Ġyeah": 4169,
      "ĠIm": 4170,
      "raw": 4171,
      "Ġchance": 4172,
      "Ġtou": 4173,
      "Ġfulf": 4174,
      "Ġmur": 4175,
      "ests": 4176,
      "Ġut": 4177,
      "rep": 4178,
      "oples": 4179,
      "Ġinterested": 4180,
      "ĠExecutive": 4181,
      "Ġrisks": 4182,
      "Ġautom": 4183,
      "Ġregulatory": 4184,
      "Ġannex": 4185,
      "oven": 4186,
      "Ġradio": 4187,
      "Ġestablishing": 4188,
      "Ġimplementing": 4189,
      "Ġfilm": 4190,
      "Ġlearn": 4191,
      "2002": 4192,
      "ĠDef": 4193,
      "Ġenhance": 4194,
      "elt": 4195,
      "Ġleading": 4196,
      "Ġeyes": 4197,
      "anish": 4198,
      "Ġdebt": 4199,
      "aughter": 4200,
      "Sub": 4201,
      "Ġdig": 4202,
      "ĠRussian": 4203,
      "Ġcode": 4204,
      "Ġcompens": 4205,
      "Ġattempt": 4206,
      "Ġtrend": 4207,
      "iary": 4208,
      "itle": 4209,
      "Ġnumbers": 4210,
      "Ġproceedings": 4211,
      "gal": 4212,
      "aging": 4213,
      "Ġinformed": 4214,
      "Ġtransp": 4215,
      "Ġlanguages": 4216,
      "mail": 4217,
      "ĠCF": 4218,
      "Ġlearning": 4219,
      "New": 4220,
      "Ġcorrespond": 4221,
      "Ġnegotiations": 4222,
      "67": 4223,
      "Ġstri": 4224,
      "Ġaccident": 4225,
      "Ġcalls": 4226,
      "Ġextra": 4227,
      "Ġadvice": 4228,
      "----": 4229,
      "ĠImp": 4230,
      "ria": 4231,
      "Ġdecre": 4232,
      "ara": 4233,
      "Ġensuring": 4234,
      "Ġmaintenance": 4235,
      "Ġdefinition": 4236,
      "Ġstation": 4237,
      "Ġhaven": 4238,
      "Ġadvant": 4239,
      "Under": 4240,
      "iling": 4241,
      "porary": 4242,
      "Ġdated": 4243,
      "Ġrelease": 4244,
      "ĠCong": 4245,
      "Ġjurisd": 4246,
      "Ġreven": 4247,
      "Ġresponsibilities": 4248,
      "ama": 4249,
      "Ġmeaning": 4250,
      "Res": 4251,
      "Ġinj": 4252,
      "irection": 4253,
      "Ġfinancing": 4254,
      "Ġgotta": 4255,
      "Ġinsurance": 4256,
      "Ġmis": 4257,
      "ĠMc": 4258,
      "Ġfundamental": 4259,
      "Ġpoll": 4260,
      "Ab": 4261,
      "Ġpartner": 4262,
      "lick": 4263,
      "Ġenterpr": 4264,
      "Ġsubsequ": 4265,
      "Part": 4266,
      "Ġvill": 4267,
      "Ġmentioned": 4268,
      "Ġconference": 4269,
      "Ġpromotion": 4270,
      "Ġregistered": 4271,
      "wide": 4272,
      "onom": 4273,
      "ifying": 4274,
      "Ġduty": 4275,
      "ĠMs": 4276,
      "Ġseems": 4277,
      "Ġrural": 4278,
      "Ġtransl": 4279,
      "Canada": 4280,
      "Ġarrangements": 4281,
      "Ġcard": 4282,
      "ĠReview": 4283,
      "Ġ+": 4284,
      "Ġcritical": 4285,
      "ollow": 4286,
      "32": 4287,
      "ĠCount": 4288,
      "Ġexternal": 4289,
      "2000": 4290,
      "Ġfucking": 4291,
      "Ke": 4292,
      "Ġencourage": 4293,
      "Ġdeep": 4294,
      "endment": 4295,
      "Ġgoes": 4296,
      "Ġbuy": 4297,
      "Ġelim": 4298,
      "ille": 4299,
      "Uh": 4300,
      "back": 4301,
      "Ġswe": 4302,
      "ĠCal": 4303,
      "Ġserve": 4304,
      "Ġreduced": 4305,
      "Ġeight": 4306,
      "active": 4307,
      "Ġregulation": 4308,
      "Ġrecords": 4309,
      "DF": 4310,
      "Ġmut": 4311,
      "ĠLord": 4312,
      "fered": 4313,
      "Ġhimself": 4314,
      "198": 4315,
      "Ġextreme": 4316,
      "Ġdetails": 4317,
      "Ġimmediately": 4318,
      "raq": 4319,
      "Ġbeyond": 4320,
      "Ġgiving": 4321,
      "ĠEuro": 4322,
      "Ġscientific": 4323,
      "gent": 4324,
      "Ã¤": 4325,
      "OJ": 4326,
      "Ġtomorrow": 4327,
      "ĠWhere": 4328,
      "izes": 4329,
      "Ġcomputer": 4330,
      "levision": 4331,
      "Ġvide": 4332,
      "bur": 4333,
      "Ġscope": 4334,
      "Ġmessage": 4335,
      "ĠItaly": 4336,
      "Ġrecently": 4337,
      "Ġtemper": 4338,
      "Ġcounter": 4339,
      "Ġresource": 4340,
      "Ġapprec": 4341,
      "Ġir": 4342,
      "htm": 4343,
      "ĠGerman": 4344,
      "Ġobtained": 4345,
      "Ġmechanisms": 4346,
      "iable": 4347,
      "Ġves": 4348,
      "ĠJe": 4349,
      "Ġcoordination": 4350,
      "gy": 4351,
      "oom": 4352,
      "Ġwid": 4353,
      "ĠHead": 4354,
      "Ġdepend": 4355,
      "Se": 4356,
      "Ġbat": 4357,
      "Ġthous": 4358,
      "Ġarch": 4359,
      "Ġitems": 4360,
      "Ġarrest": 4361,
      "âĢĿ,": 4362,
      "ĠSur": 4363,
      "Ġsexual": 4364,
      "Ġintegration": 4365,
      "visory": 4366,
      "Ġassets": 4367,
      "Ġselection": 4368,
      "ĠEducation": 4369,
      "ĠRegional": 4370,
      "Ġsales": 4371,
      "Ġincorpor": 4372,
      "Ġrefuge": 4373,
      "Europe": 4374,
      "ris": 4375,
      "Ġworry": 4376,
      "Ġperfect": 4377,
      "Ġunits": 4378,
      "thening": 4379,
      "Ġfunctions": 4380,
      "Ġcampaign": 4381,
      "Ġneigh": 4382,
      "2008": 4383,
      "ĠThank": 4384,
      "Ġvalid": 4385,
      "Ġround": 4386,
      "Ġprohib": 4387,
      "Ġknows": 4388,
      "ĠResources": 4389,
      "Ġintroduced": 4390,
      "ancy": 4391,
      "adem": 4392,
      "Ġeat": 4393,
      "dro": 4394,
      "haps": 4395,
      "iers": 4396,
      "ĠEnvironmental": 4397,
      "ĠColumbia": 4398,
      "57": 4399,
      "Ġenable": 4400,
      "Ġschools": 4401,
      "Ġdoub": 4402,
      "aily": 4403,
      "rans": 4404,
      "igation": 4405,
      "Ġnor": 4406,
      "Ġfem": 4407,
      "Ġduties": 4408,
      "Ġalleg": 4409,
      "ĠChe": 4410,
      "sych": 4411,
      "Ġtruth": 4412,
      "Ġaward": 4413,
      "Ġeuro": 4414,
      "amed": 4415,
      "Ġspirit": 4416,
      "Ġofficials": 4417,
      "Ġadvance": 4418,
      "Ġdiscussed": 4419,
      "Ġlaid": 4420,
      "Ġevalu": 4421,
      "Ġstakeholders": 4422,
      "ederation": 4423,
      "ica": 4424,
      "Ġgun": 4425,
      "Like": 4426,
      "uting": 4427,
      "Ġdoctor": 4428,
      "rence": 4429,
      "Ġacts": 4430,
      "igen": 4431,
      "enty": 4432,
      "ĠGree": 4433,
      "Ġcollection": 4434,
      "ĠAlber": 4435,
      "with": 4436,
      "Ġunless": 4437,
      "Ġemissions": 4438,
      "Ġfacilitate": 4439,
      "Ġ000": 4440,
      "Ġtrou": 4441,
      "ĠEl": 4442,
      "Ġbehav": 4443,
      "ĠAnt": 4444,
      "Ġdelegation": 4445,
      "Ġestimated": 4446,
      "ĠOffic": 4447,
      "TS": 4448,
      "Ġarri": 4449,
      "Ġ2014": 4450,
      "Ġsem": 4451,
      "omb": 4452,
      "Ġsimple": 4453,
      "ĠWar": 4454,
      "Ġlisted": 4455,
      "aching": 4456,
      "Ġshit": 4457,
      "ffect": 4458,
      "Ġrequirement": 4459,
      "Ġwelcome": 4460,
      "CE": 4461,
      "Ġparl": 4462,
      "Ġexperts": 4463,
      "ength": 4464,
      "Te": 4465,
      "itch": 4466,
      "oral": 4467,
      "Ġdepos": 4468,
      "Ġemergency": 4469,
      "ĠParis": 4470,
      "Ġanti": 4471,
      "Ġtonight": 4472,
      "ĠÃĩÃ¡Ã": 4473,
      "ding": 4474,
      "Ãī": 4475,
      "Ġefficient": 4476,
      "58": 4477,
      "esus": 4478,
      "99": 4479,
      "ĠIraq": 4480,
      "ĠArab": 4481,
      "ifically": 4482,
      "ocks": 4483,
      "Ġblack": 4484,
      "!!": 4485,
      "Ġoffered": 4486,
      "place": 4487,
      "ĠAnn": 4488,
      "ĠCOM": 4489,
      "Ġcontains": 4490,
      "ishes": 4491,
      "Ġsurv": 4492,
      "Ġstatements": 4493,
      "hel": 4494,
      "Ġprovince": 4495,
      "ev": 4496,
      "laration": 4497,
      "Ġrail": 4498,
      "EU": 4499,
      "Ġhumanitarian": 4500,
      "rs": 4501,
      "Ġstuff": 4502,
      "Ġinterview": 4503,
      "rations": 4504,
      "enz": 4505,
      "ening": 4506,
      "ades": 4507,
      "hest": 4508,
      "Ġwhom": 4509,
      "Ġsav": 4510,
      "ĠMark": 4511,
      "Ġminute": 4512,
      "66": 4513,
      "Ġreached": 4514,
      "Ġgoals": 4515,
      "Ġunivers": 4516,
      "ĠChief": 4517,
      "uit": 4518,
      "ened": 4519,
      "Ġonline": 4520,
      "Ġmem": 4521,
      "ĠForm": 4522,
      "Ġgrowing": 4523,
      "Ġcru": 4524,
      "Ġworksh": 4525,
      "Ġtas": 4526,
      "Ġpun": 4527,
      "ĠTO": 4528,
      "Ġpromoting": 4529,
      "Ġconsistent": 4530,
      "ĠStud": 4531,
      "Ġrecognized": 4532,
      "Ġdispos": 4533,
      "Ġlocation": 4534,
      "Ġmine": 4535,
      "Ġsetting": 4536,
      "Ġfif": 4537,
      "Ġcouldn": 4538,
      "Ġviews": 4539,
      "Ġchanged": 4540,
      "stitutional": 4541,
      "Ġongoing": 4542,
      "ĠSm": 4543,
      "ĠOfficial": 4544,
      "Ġsimply": 4545,
      "Ġalternative": 4546,
      "lantic": 4547,
      "icated": 4548,
      "Ġscience": 4549,
      "ĠRepresent": 4550,
      "Ġdeliver": 4551,
      "ira": 4552,
      "entle": 4553,
      "Ġweapons": 4554,
      "Ġdatab": 4555,
      "Ġsoftware": 4556,
      "TER": 4557,
      "Have": 4558,
      "iting": 4559,
      "Ġpark": 4560,
      "ĠFinancial": 4561,
      "First": 4562,
      "lt": 4563,
      "Ġsan": 4564,
      "Ġprocessing": 4565,
      "Ġpayments": 4566,
      "ĠSafety": 4567,
      "CR": 4568,
      "arity": 4569,
      "Ġ2015": 4570,
      "Ġchemical": 4571,
      "ĠHa": 4572,
      "à¸": 4573,
      "Ġaccepted": 4574,
      "ault": 4575,
      "Ġfast": 4576,
      "Ġelection": 4577,
      "Man": 4578,
      "house": 4579,
      "nic": 4580,
      "Ġ#": 4581,
      "ĠIII": 4582,
      "ommod": 4583,
      "Ġunique": 4584,
      "Ġvehicles": 4585,
      "arters": 4586,
      "Ġregistration": 4587,
      "inate": 4588,
      "Ġfra": 4589,
      "Ġdifference": 4590,
      "Ġsubmit": 4591,
      "Ġvariety": 4592,
      "ĠLat": 4593,
      "Ġhighly": 4594,
      "Ġcommunications": 4595,
      "Ġuseful": 4596,
      "Ġpublication": 4597,
      "Ġamounts": 4598,
      "Ġproport": 4599,
      "ĠPat": 4600,
      "Ġreserv": 4601,
      "cial": 4602,
      "icking": 4603,
      "Ġexactly": 4604,
      "ĠMor": 4605,
      "osure": 4606,
      "Ġconsultations": 4607,
      "Ġfixed": 4608,
      "igr": 4609,
      "Ġkids": 4610,
      "Ġselected": 4611,
      "Ġdiscl": 4612,
      "Ġaimed": 4613,
      "Ġenforcement": 4614,
      "Ġimproving": 4615,
      "IG": 4616,
      "usions": 4617,
      "Ġdied": 4618,
      "Ġraised": 4619,
      "resh": 4620,
      "ae": 4621,
      "ova": 4622,
      "Ġweb": 4623,
      "Ġseven": 4624,
      "Ġperman": 4625,
      "Ġofficers": 4626,
      "Ġdad": 4627,
      "Ġmunic": 4628,
      "ĠTable": 4629,
      "Ġ1993": 4630,
      "Ġaware": 4631,
      "Ġhospital": 4632,
      "ĠAuthority": 4633,
      "Ġwhite": 4634,
      "Ġeffectiveness": 4635,
      "Ġpositions": 4636,
      "atur": 4637,
      "MR": 4638,
      "Ġworth": 4639,
      "ĠDate": 4640,
      "mes": 4641,
      "Ġfiscal": 4642,
      "Ġdirection": 4643,
      "Ġgives": 4644,
      "ript": 4645,
      "ocracy": 4646,
      "ĠWhy": 4647,
      "Ġimproved": 4648,
      "lin": 4649,
      "Ġbrief": 4650,
      "Ġteac": 4651,
      "Ġoptions": 4652,
      "Ġcarri": 4653,
      "Ġofficer": 4654,
      "à¸Ģ": 4655,
      "Ġgoal": 4656,
      "rolled": 4657,
      "Ġrestrict": 4658,
      "ĠPalestin": 4659,
      "oring": 4660,
      "essions": 4661,
      "Ġproduce": 4662,
      "Ġsupporting": 4663,
      "Ġearlier": 4664,
      "Ġsqu": 4665,
      "Ġmid": 4666,
      "Ġdream": 4667,
      "Ġcaused": 4668,
      "UL": 4669,
      "Pl": 4670,
      "Ġtried": 4671,
      "Ġhit": 4672,
      "Ġnegative": 4673,
      "Ġrein": 4674,
      "asc": 4675,
      "ĠCity": 4676,
      "useum": 4677,
      "ĠApplic": 4678,
      "ME": 4679,
      "Ġbegan": 4680,
      "Ġbelong": 4681,
      "44": 4682,
      "Ġcompetent": 4683,
      "Ġjobs": 4684,
      "Ġrepe": 4685,
      "ĠDeclaration": 4686,
      "Ġusually": 4687,
      "ĠForce": 4688,
      "Ġhus": 4689,
      "ĠCor": 4690,
      "Ġsolutions": 4691,
      "erman": 4692,
      "Ġadequate": 4693,
      "ĠCharter": 4694,
      "rian": 4695,
      "urement": 4696,
      "Ġsurve": 4697,
      "Ġefficiency": 4698,
      "bourg": 4699,
      "Ġec": 4700,
      "Ġdog": 4701,
      "Ġcapt": 4702,
      "building": 4703,
      "Ġdim": 4704,
      "ĠBusiness": 4705,
      "ountain": 4706,
      "Ġ1992": 4707,
      "Ġwat": 4708,
      "Ġpossibility": 4709,
      "Ġinstrument": 4710,
      "Ġanimals": 4711,
      "CO": 4712,
      "Ġahead": 4713,
      "Ġtrain": 4714,
      "Ġload": 4715,
      "olute": 4716,
      "Ġsubstantial": 4717,
      "isations": 4718,
      "Ġlooks": 4719,
      "Ġsolid": 4720,
      "Ġconcluded": 4721,
      "Ġflex": 4722,
      "Ġnut": 4723,
      "Ġprem": 4724,
      "aught": 4725,
      "Ġundertaken": 4726,
      "igenous": 4727,
      "inces": 4728,
      "ĠTor": 4729,
      "Ġdegree": 4730,
      "ya": 4731,
      "Ġassum": 4732,
      "ĠCan": 4733,
      "Ġactual": 4734,
      "Ġindicate": 4735,
      "Ġeligible": 4736,
      "Over": 4737,
      "ĠInvest": 4738,
      "Ġsometimes": 4739,
      "ĠSpain": 4740,
      "Ġtask": 4741,
      "ino": 4742,
      "ĠGreat": 4743,
      "Ġconfirm": 4744,
      "GO": 4745,
      "yle": 4746,
      "Ġbox": 4747,
      "Ġnet": 4748,
      "istical": 4749,
      "Ġchallenge": 4750,
      "leb": 4751,
      "irmed": 4752,
      "ĠTre": 4753,
      "eping": 4754,
      "ĠProf": 4755,
      "Ġsupposed": 4756,
      "ĠMinisters": 4757,
      "uration": 4758,
      "ĠMission": 4759,
      "ression": 4760,
      "Ġexpand": 4761,
      "ĠWeb": 4762,
      "ĠGlobal": 4763,
      "Ġexpenditure": 4764,
      "ĠFood": 4765,
      "Ġprint": 4766,
      "Ġpresc": 4767,
      "ĠForeign": 4768,
      "Ġplaced": 4769,
      "Ġterrorism": 4770,
      "ĠBelg": 4771,
      "ustain": 4772,
      "Ġoffices": 4773,
      "undred": 4774,
      "Ġseparate": 4775,
      "Ġcertific": 4776,
      "List": 4777,
      "etary": 4778,
      "anda": 4779,
      "68": 4780,
      "ingu": 4781,
      "Ġmer": 4782,
      "ĠOttawa": 4783,
      "Ġanimal": 4784,
      "roy": 4785,
      "osing": 4786,
      "Ġresulting": 4787,
      "Ġwonder": 4788,
      "Ġplanned": 4789,
      "Ġwaiting": 4790,
      "Ġcomponents": 4791,
      "Ġfavour": 4792,
      "essment": 4793,
      "ensus": 4794,
      "Ġrapid": 4795,
      "Ġdamage": 4796,
      "Ġorganized": 4797,
      "ĠAdd": 4798,
      "63": 4799,
      "ĠRa": 4800,
      "Ġ90": 4801,
      "ellect": 4802,
      "ĠAsia": 4803,
      "DC": 4804,
      "ĠLi": 4805,
      "Ġthanks": 4806,
      "Act": 4807,
      "Ġwitness": 4808,
      "Ġpath": 4809,
      "Ġhour": 4810,
      "Ġearth": 4811,
      "ĠCH": 4812,
      "Ġunem": 4813,
      "Ġfuel": 4814,
      "miss": 4815,
      "100": 4816,
      "endix": 4817,
      "Ġfelt": 4818,
      "ĠRiver": 4819,
      "Ġotherwise": 4820,
      "Ġbuilt": 4821,
      "roduction": 4822,
      "Ġlines": 4823,
      "unk": 4824,
      "Ġeffectively": 4825,
      "Ġcompletely": 4826,
      "Ġdrugs": 4827,
      "95": 4828,
      "Ġseason": 4829,
      "Ġconsumption": 4830,
      "Ġfishing": 4831,
      "ĠTele": 4832,
      "Ġ=": 4833,
      "Ġones": 4834,
      "making": 4835,
      "ĠCap": 4836,
      "Ġformal": 4837,
      "Ġannounced": 4838,
      "ĠMex": 4839,
      "Ġcommand": 4840,
      "Ġrecip": 4841,
      "wan": 4842,
      "Ġclients": 4843,
      "grad": 4844,
      "Ġpreparation": 4845,
      "Ġexcell": 4846,
      "Ġfiles": 4847,
      "Ġfiled": 4848,
      "PR": 4849,
      "Ġgreen": 4850,
      "ĠProduct": 4851,
      "Ġgets": 4852,
      "ĠAgric": 4853,
      "Ġrunning": 4854,
      "amer": 4855,
      "Ġcentury": 4856,
      "Ġwood": 4857,
      "ĠON": 4858,
      "Ġresearc": 4859,
      "Take": 4860,
      "ĠCome": 4861,
      "Ġplaces": 4862,
      "Even": 4863,
      "ously": 4864,
      "Ġcontinues": 4865,
      "cers": 4866,
      "Ġpension": 4867,
      "Ġfloor": 4868,
      "Ġelections": 4869,
      "Ġshared": 4870,
      "Ġcooper": 4871,
      "ĠWho": 4872,
      "oming": 4873,
      "Ġreasonable": 4874,
      "uel": 4875,
      "Ġclient": 4876,
      "Ġattract": 4877,
      "................": 4878,
      "umb": 4879,
      "Ġcool": 4880,
      "Ġexpenses": 4881,
      "Ġeducational": 4882,
      "Ġbus": 4883,
      "Ġlength": 4884,
      "ĠHey": 4885,
      "ses": 4886,
      "Ġcommitments": 4887,
      "Ġguarantee": 4888,
      "Ġpractical": 4889,
      "ventions": 4890,
      "Ġperspect": 4891,
      "Su": 4892,
      "Ġfear": 4893,
      "Ġagency": 4894,
      "Ġminister": 4895,
      "Ġdrive": 4896,
      "Ġcollaboration": 4897,
      "reland": 4898,
      "Ġhearing": 4899,
      "cknow": 4900,
      "book": 4901,
      "Ġstra": 4902,
      "ague": 4903,
      "Ġsurface": 4904,
      "ilk": 4905,
      "Ġwithd": 4906,
      "Ġcontaining": 4907,
      "Ġlegislative": 4908,
      "Ġlinks": 4909,
      "Ġmicro": 4910,
      "Ġcash": 4911,
      "Ġmist": 4912,
      "ghan": 4913,
      "Ġclin": 4914,
      "Ġallows": 4915,
      "ĠIndian": 4916,
      "oking": 4917,
      "Ġ45": 4918,
      "Ġhabit": 4919,
      "Ġforg": 4920,
      "Ġinfluence": 4921,
      "you": 4922,
      "ula": 4923,
      "Ġexplo": 4924,
      "ourable": 4925,
      "Ġhusband": 4926,
      "ĠFOR": 4927,
      "Ġinvited": 4928,
      "onto": 4929,
      "Ġlicense": 4930,
      "ĠStrategy": 4931,
      "Ġdaily": 4932,
      "ĠWith": 4933,
      "Ġmedium": 4934,
      "Commission": 4935,
      "ellectual": 4936,
      "Qu": 4937,
      "uled": 4938,
      "ĠElect": 4939,
      "Ġaccounts": 4940,
      "AG": 4941,
      "ador": 4942,
      "elling": 4943,
      "Ġil": 4944,
      "Ġsister": 4945,
      "Ġregards": 4946,
      "aves": 4947,
      "ocument": 4948,
      "Ġstrengthening": 4949,
      "Ġurban": 4950,
      "usive": 4951,
      "Ġdisapp": 4952,
      "oyal": 4953,
      "Ġsuppl": 4954,
      "Ġhighest": 4955,
      "Ġfigure": 4956,
      "Ġgentle": 4957,
      "Cons": 4958,
      "Ġwor": 4959,
      "ĠBureau": 4960,
      "Ġliber": 4961,
      "Ġinvent": 4962,
      "Ġ*": 4963,
      "Ġbra": 4964,
      "ĠCB": 4965,
      "Ġreplaced": 4966,
      "etherlands": 4967,
      "ussels": 4968,
      "Ġsurpr": 4969,
      "Ġreleased": 4970,
      "AB": 4971,
      "Ġdevelopments": 4972,
      "water": 4973,
      "Ġrecommendation": 4974,
      "Â°": 4975,
      "real": 4976,
      "Ġtelevision": 4977,
      "ĠOfficer": 4978,
      "TO": 4979,
      "Ġshot": 4980,
      "Ġsave": 4981,
      "abled": 4982,
      "Ġphase": 4983,
      "ĠRoman": 4984,
      "Ġ37": 4985,
      "Ġwriting": 4986,
      "ĠPR": 4987,
      "Ġadopt": 4988,
      "Ġguidance": 4989,
      "Ġpilot": 4990,
      "Ġ80": 4991,
      "Ġtesting": 4992,
      "Ġoccas": 4993,
      "ĠNorthern": 4994,
      "Ġcolle": 4995,
      "98": 4996,
      "Ph": 4997,
      "Ġdiv": 4998,
      "Gu": 4999,
      "Ġforget": 5000,
      "ulner": 5001,
      "like": 5002,
      "Having": 5003,
      "UM": 5004,
      "Ġdifferences": 5005,
      "friend": 5006,
      "Ġluck": 5007,
      "Ġapplies": 5008,
      "97": 5009,
      "ĠSal": 5010,
      "ĠAc": 5011,
      "ĠRE": 5012,
      "ĠNetwork": 5013,
      "Ġoutl": 5014,
      "Ġquickly": 5015,
      "Ġhundred": 5016,
      "Ġhotel": 5017,
      "Ġoption": 5018,
      "ĠIT": 5019,
      "Ġexpertise": 5020,
      "Ġdollars": 5021,
      "illing": 5022,
      "Ġequival": 5023,
      "Table": 5024,
      "Ġsto": 5025,
      "Ġexec": 5026,
      "Ġgovernance": 5027,
      "razy": 5028,
      "ensions": 5029,
      "rem": 5030,
      "acific": 5031,
      "Ġscreen": 5032,
      "Ġinvolving": 5033,
      "Ġcouple": 5034,
      "Two": 5035,
      "att": 5036,
      "Ġsam": 5037,
      "Ġsun": 5038,
      "Ġrecovery": 5039,
      "Ġpeoples": 5040,
      "Ġinstead": 5041,
      "Ġleadership": 5042,
      "56": 5043,
      "SS": 5044,
      "Ġdaughter": 5045,
      "Ġconsumer": 5046,
      "ĠIndustry": 5047,
      "ĠEqu": 5048,
      "Ġkept": 5049,
      "ĠMembers": 5050,
      "Ġincl": 5051,
      "inding": 5052,
      "Ġsituations": 5053,
      "Ġpasseng": 5054,
      "Ġchoose": 5055,
      "Ġconstit": 5056,
      "avid": 5057,
      "Ġstatistics": 5058,
      "Ġsubstances": 5059,
      "Ġaccomp": 5060,
      "Ġindicators": 5061,
      "Ne": 5062,
      "Ġnames": 5063,
      "007": 5064,
      "ĠTotal": 5065,
      "Ġ38": 5066,
      "Ġspecifically": 5067,
      "Ġrecognition": 5068,
      "Ġjudge": 5069,
      "Ġinnovation": 5070,
      "eline": 5071,
      "Ġtraffic": 5072,
      "ĠSwed": 5073,
      "Ġexhib": 5074,
      "ĠSupport": 5075,
      "Ġamendment": 5076,
      "PC": 5077,
      "orage": 5078,
      "ĠTax": 5079,
      "ĠNumber": 5080,
      "Ġvia": 5081,
      "ĠOkay": 5082,
      "Ġcomponent": 5083,
      "Ġarticles": 5084,
      "90": 5085,
      "Right": 5086,
      "Ġpresident": 5087,
      "ĠIniti": 5088,
      "Many": 5089,
      "Ġtur": 5090,
      "41": 5091,
      "Wait": 5092,
      "ĠWestern": 5093,
      "ographic": 5094,
      "onia": 5095,
      "Ġuses": 5096,
      "Ġaccommod": 5097,
      "Ġelectric": 5098,
      "Ġnetworks": 5099,
      "Ġhuh": 5100,
      "Ġdiscussions": 5101,
      "Ã³": 5102,
      "Ġreplace": 5103,
      "ĠAlberta": 5104,
      "46": 5105,
      "ij": 5106,
      "Ġflow": 5107,
      "Ġcustomers": 5108,
      "Ġobserved": 5109,
      "Tell": 5110,
      "2009": 5111,
      "Ġâ": 5112,
      "inner": 5113,
      "ĠMad": 5114,
      "ĠFederation": 5115,
      "Only": 5116,
      "Ġpercentage": 5117,
      "ĠAtlantic": 5118,
      "Int": 5119,
      "mer": 5120,
      "level": 5121,
      "Ġlif": 5122,
      "Ġuser": 5123,
      "Ġaccur": 5124,
      "Ġmoving": 5125,
      "Ġcategory": 5126,
      "Ġpermanent": 5127,
      "Ġstock": 5128,
      "Ġcomment": 5129,
      "Ġslow": 5130,
      "Ġfailure": 5131,
      "Ġresolutions": 5132,
      "EX": 5133,
      "Ġtim": 5134,
      "etic": 5135,
      "fr": 5136,
      "ĠResp": 5137,
      "Ġcrim": 5138,
      "olic": 5139,
      "Ġconver": 5140,
      "Ġadvis": 5141,
      "ĠExp": 5142,
      "Ġstarting": 5143,
      "ĠPrime": 5144,
      "Ġparliament": 5145,
      "ĠST": 5146,
      "ittees": 5147,
      "Ġowners": 5148,
      "Ġpattern": 5149,
      "Ġprofession": 5150,
      "Ġarms": 5151,
      "IB": 5152,
      "Ġsort": 5153,
      "Ġsale": 5154,
      "ĠEng": 5155,
      "Ġdescription": 5156,
      "Ġfaith": 5157,
      "Sorry": 5158,
      "ĠFl": 5159,
      "ĠCommunities": 5160,
      "Ġlimits": 5161,
      "Ġsignificantly": 5162,
      "Ġmarried": 5163,
      "Ġpenal": 5164,
      "Ġcompensation": 5165,
      "42": 5166,
      "ĠWill": 5167,
      "Ġhum": 5168,
      "77": 5169,
      "Pr": 5170,
      "Such": 5171,
      "iam": 5172,
      "Ġshoot": 5173,
      "AIDS": 5174,
      "Ġquarter": 5175,
      "Ġinstruct": 5176,
      "ĠTerrit": 5177,
      "aled": 5178,
      "alled": 5179,
      "Ġarmed": 5180,
      "Ġfactor": 5181,
      "Ġbusinesses": 5182,
      "Ġhurt": 5183,
      "ĠPortug": 5184,
      "Off": 5185,
      "ocal": 5186,
      "Ġpsych": 5187,
      "Ġball": 5188,
      "Ġrock": 5189,
      "ĠRussia": 5190,
      "ĠFramework": 5191,
      "Ġ1991": 5192,
      "Ġinstitutional": 5193,
      "Ġvideo": 5194,
      "icip": 5195,
      "Ġdesp": 5196,
      "ĠAfghan": 5197,
      "ĠIreland": 5198,
      "ĠMod": 5199,
      "ĠHome": 5200,
      "Ġcentres": 5201,
      "ĠForum": 5202,
      "Ġholding": 5203,
      "Ġsubstance": 5204,
      "Ġfat": 5205,
      "Ġplants": 5206,
      "ĠVer": 5207,
      "lementary": 5208,
      "Comp": 5209,
      "Ġvulner": 5210,
      "Ġprovinces": 5211,
      "ishment": 5212,
      "Ġvolume": 5213,
      "Ġspent": 5214,
      "anging": 5215,
      "Ġscale": 5216,
      "ĠMeeting": 5217,
      "ĠPark": 5218,
      "Ġtouch": 5219,
      "Ġrevised": 5220,
      "Ġreligious": 5221,
      "itors": 5222,
      "raid": 5223,
      "ĠBur": 5224,
      "astic": 5225,
      "venue": 5226,
      "omin": 5227,
      "ĠNetherlands": 5228,
      "Ġimprovement": 5229,
      "Ġcoast": 5230,
      "Ġflight": 5231,
      "pa": 5232,
      "pen": 5233,
      "Ġwhatever": 5234,
      "Ġregime": 5235,
      "Ġ36": 5236,
      "Ġtests": 5237,
      "valuation": 5238,
      "Ġcategories": 5239,
      "Sc": 5240,
      "Ġsil": 5241,
      "Ġsick": 5242,
      "rupt": 5243,
      "Ġfields": 5244,
      "lementation": 5245,
      "coming": 5246,
      "Ġpatent": 5247,
      "Ġstrength": 5248,
      "Ġwild": 5249,
      "Ġcold": 5250,
      "odes": 5251,
      "oday": 5252,
      "Ġfinally": 5253,
      "Those": 5254,
      "ĠCy": 5255,
      "ĠMus": 5256,
      "Ġappears": 5257,
      "outher": 5258,
      "Ġprosec": 5259,
      "Ġrise": 5260,
      "Ġplaying": 5261,
      "anguage": 5262,
      "escription": 5263,
      "ĠGuid": 5264,
      "ĠNor": 5265,
      "Ġguide": 5266,
      "inese": 5267,
      "IPO": 5268,
      "enders": 5269,
      "Ġbehavi": 5270,
      "Most": 5271,
      "Ġvoice": 5272,
      "ipe": 5273,
      "Ġapproaches": 5274,
      "rete": 5275,
      "Ġborn": 5276,
      "emed": 5277,
      "fficking": 5278,
      "Ġdealing": 5279,
      "tical": 5280,
      "Ġmeant": 5281,
      "ĠPalestinian": 5282,
      "Each": 5283,
      "Ġpowers": 5284,
      "unction": 5285,
      "iece": 5286,
      "Ġdecide": 5287,
      "ĠYour": 5288,
      "Ġconsequences": 5289,
      "Ġcrazy": 5290,
      "ĠJournal": 5291,
      "ĠJesus": 5292,
      "Ġfeatures": 5293,
      "Ġconsiders": 5294,
      "Ġexamination": 5295,
      "Ġabsence": 5296,
      "Ġacknow": 5297,
      "88": 5298,
      "Ġ<": 5299,
      "Ġsenior": 5300,
      "oration": 5301,
      "ĠAD": 5302,
      "Ġsell": 5303,
      "Ġmanage": 5304,
      "Ġcreating": 5305,
      "Ġhop": 5306,
      "ils": 5307,
      "ĠDay": 5308,
      "Ġcalling": 5309,
      "Ġmainly": 5310,
      "Ġcontracts": 5311,
      "ani": 5312,
      "idency": 5313,
      "quarters": 5314,
      "orders": 5315,
      "Ġattend": 5316,
      "Ġdangerous": 5317,
      "Ġleaving": 5318,
      "ĠWH": 5319,
      "Ġpatient": 5320,
      "Ġ]": 5321,
      "Ġstability": 5322,
      "ĠJud": 5323,
      "Ġauthorized": 5324,
      "£Ã": 5325,
      "ĠSchool": 5326,
      "Ġorganisations": 5327,
      "Ġ70": 5328,
      "pd": 5329,
      "keeping": 5330,
      "Ġdemocratic": 5331,
      "Ġideas": 5332,
      "Ġprepare": 5333,
      "Ġsummer": 5334,
      "life": 5335,
      "oud": 5336,
      "Ġoutcome": 5337,
      "ounds": 5338,
      "ĠAdvisory": 5339,
      "Ġreducing": 5340,
      "Ġdisplay": 5341,
      "iate": 5342,
      "Ġsecure": 5343,
      "ĠBranch": 5344,
      "Ġmill": 5345,
      "ids": 5346,
      "ĠInf": 5347,
      "Ġthereof": 5348,
      "Ġplayed": 5349,
      "Ġtariff": 5350,
      "ĠTurkey": 5351,
      "Ġpet": 5352,
      "Ġbul": 5353,
      "ompl": 5354,
      "Ġgod": 5355,
      "Ġequality": 5356,
      "ĠEmployment": 5357,
      "Ġborder": 5358,
      "Ġquot": 5359,
      "Ġjurisdiction": 5360,
      "ais": 5361,
      "atically": 5362,
      "ĠNon": 5363,
      "Ġsched": 5364,
      "Ġopening": 5365,
      "Ġconclusion": 5366,
      "96": 5367,
      "orge": 5368,
      "Ġproducers": 5369,
      "Ġtransition": 5370,
      "Ġparticipating": 5371,
      "Ġharmon": 5372,
      "ms": 5373,
      "ĠNation": 5374,
      "Ġclosed": 5375,
      "Ġmarketing": 5376,
      "NA": 5377,
      "Ġsouth": 5378,
      "Ġimports": 5379,
      "Ġrecorded": 5380,
      "Therefore": 5381,
      "Ġcontinuing": 5382,
      "ĠSoci": 5383,
      "uls": 5384,
      "ÃŃÃ": 5385,
      "Ġexposure": 5386,
      "Ġrejected": 5387,
      "Ġdatabase": 5388,
      "rÃ©": 5389,
      "Ġmix": 5390,
      "Ġdesignated": 5391,
      "Ġobligation": 5392,
      "ĠPeace": 5393,
      ",âĢĿ": 5394,
      "OD": 5395,
      "curement": 5396,
      "ĠClass": 5397,
      "ĠTechnology": 5398,
      "Ġinvolvement": 5399,
      "European": 5400,
      "Ġweak": 5401,
      "Ġimage": 5402,
      "ĠKore": 5403,
      "Ġdemocracy": 5404,
      "Ġlaun": 5405,
      "iplom": 5406,
      "Ġlargest": 5407,
      "itzer": 5408,
      "Ġcore": 5409,
      "Ġpregn": 5410,
      "Ġcurren": 5411,
      "ĠBrussels": 5412,
      "Ġlabor": 5413,
      "UT": 5414,
      "jud": 5415,
      "la": 5416,
      "ĠIS": 5417,
      "urrent": 5418,
      "ĠLand": 5419,
      "Ġspread": 5420,
      "ribed": 5421,
      "Ġceleb": 5422,
      "outhern": 5423,
      "Ġdrop": 5424,
      "adies": 5425,
      "ĠSk": 5426,
      "Ġacting": 5427,
      "oba": 5428,
      "Ġcandidates": 5429,
      "Ġsweet": 5430,
      "oo": 5431,
      "ployed": 5432,
      "ĠOb": 5433,
      "Ġdouble": 5434,
      "Finally": 5435,
      "Ġafraid": 5436,
      "ĠIP": 5437,
      "ĠTV": 5438,
      "Ġsupports": 5439,
      "Ġadvantage": 5440,
      "Pe": 5441,
      "Ġfresh": 5442,
      "ania": 5443,
      "ett": 5444,
      "Ġimplic": 5445,
      "Ġabuse": 5446,
      "Ġpopulations": 5447,
      "United": 5448,
      "Ġx": 5449,
      "astern": 5450,
      "Ġ33": 5451,
      "Ġundertaking": 5452,
      "Im": 5453,
      "Ġnorth": 5454,
      "ruption": 5455,
      "hab": 5456,
      "Ġ00": 5457,
      "Ġreve": 5458,
      "ĠHon": 5459,
      "Ġtreaty": 5460,
      "isk": 5461,
      "asure": 5462,
      "quir": 5463,
      "ĠSupp": 5464,
      "Ġagriculture": 5465,
      "ĠInte": 5466,
      "43": 5467,
      "Per": 5468,
      "rance": 5469,
      "cel": 5470,
      "ception": 5471,
      "paragraph": 5472,
      "ĠIsland": 5473,
      "bal": 5474,
      "Ġpull": 5475,
      "Ġstru": 5476,
      "Ġdistin": 5477,
      "Ġabsolute": 5478,
      "Ġsecretariat": 5479,
      "61": 5480,
      "Ġ01": 5481,
      "oles": 5482,
      "ĠEnergy": 5483,
      "Ġinvestments": 5484,
      "Ġcompetitive": 5485,
      "Ġdestroy": 5486,
      "Hello": 5487,
      "Ġtrial": 5488,
      "omet": 5489,
      "ondon": 5490,
      "down": 5491,
      "Ġcomply": 5492,
      "apers": 5493,
      "Ġanaly": 5494,
      "oes": 5495,
      "Ã§": 5496,
      "ĠCI": 5497,
      "ĠMill": 5498,
      "Ġhousehold": 5499,
      "ĠCivil": 5500,
      "Ġfacility": 5501,
      "Ġparagraphs": 5502,
      "Ġain": 5503,
      "ĠSch": 5504,
      "ivered": 5505,
      "ĠConstitution": 5506,
      "Ġraise": 5507,
      "Ġmodels": 5508,
      "Ġappointed": 5509,
      "Ġappointment": 5510,
      "ĠSam": 5511,
      "Ġcustoms": 5512,
      "ns": 5513,
      "ĠAssessment": 5514,
      "Ġresearchers": 5515,
      "80": 5516,
      "ĠSpanish": 5517,
      "Ġilleg": 5518,
      "rane": 5519,
      "ĠDen": 5520,
      "Ġentered": 5521,
      "Ġidentification": 5522,
      "ĠChairman": 5523,
      "Furthermore": 5524,
      "Ġpicture": 5525,
      "Follow": 5526,
      "Ġlose": 5527,
      "ĠKe": 5528,
      "Ġlawy": 5529,
      "Ġconfidence": 5530,
      "ĠIndia": 5531,
      "Ġstructures": 5532,
      "ustainable": 5533,
      "Ġà¤": 5534,
      "igence": 5535,
      "Ġdevices": 5536,
      "Ġethnic": 5537,
      "Ġbound": 5538,
      "Ġkn": 5539,
      "ĠOne": 5540,
      "vision": 5541,
      "ĠOut": 5542,
      "anges": 5543,
      "Ġmoved": 5544,
      "razil": 5545,
      "Ġproportion": 5546,
      "Ġequivalent": 5547,
      "elp": 5548,
      "Ġfindings": 5549,
      "Ġrepresented": 5550,
      "ĠScot": 5551,
      "Ġsuggested": 5552,
      "ĠAustral": 5553,
      "Ġhousing": 5554,
      "Ġgold": 5555,
      "ĠDad": 5556,
      "iences": 5557,
      "1999": 5558,
      "Ġincident": 5559,
      "Ġobvious": 5560,
      "ball": 5561,
      "Ġhor": 5562,
      "ocation": 5563,
      "Ġclar": 5564,
      "ĠPeople": 5565,
      "ĠSummit": 5566,
      "Ġinput": 5567,
      "itzerland": 5568,
      "eck": 5569,
      "Ġpara": 5570,
      "Ġoperate": 5571,
      "iques": 5572,
      "ming": 5573,
      "ĠCriminal": 5574,
      "Ġreviewed": 5575,
      "igrants": 5576,
      "Som": 5577,
      "law": 5578,
      "cape": 5579,
      "arency": 5580,
      "Ġstorage": 5581,
      "roat": 5582,
      "ĠCT": 5583,
      "ĠTR": 5584,
      "ĠMexico": 5585,
      "75": 5586,
      "ken": 5587,
      "ĠDes": 5588,
      "ĠWater": 5589,
      "ords": 5590,
      "Ġ32": 5591,
      "Ġliqu": 5592,
      "Ġlands": 5593,
      "ĠChapter": 5594,
      "Ġserved": 5595,
      "Ġcombat": 5596,
      "Ġcorporate": 5597,
      "Dec": 5598,
      "otion": 5599,
      "Ġconvention": 5600,
      "ĠFranc": 5601,
      "ĠOrder": 5602,
      "Ġdevice": 5603,
      "ĠToronto": 5604,
      "amily": 5605,
      "ibly": 5606,
      "Ġsole": 5607,
      "Dr": 5608,
      "Ġclosely": 5609,
      "ĠGovernments": 5610,
      "imb": 5611,
      "ĠBul": 5612,
      "Ġdefence": 5613,
      "Ġreading": 5614,
      "Ġtelephone": 5615,
      "ael": 5616,
      "ka": 5617,
      "Ġrent": 5618,
      "ĠMart": 5619,
      "eneva": 5620,
      "Ġprotected": 5621,
      "Ġfeeling": 5622,
      "PA": 5623,
      "Ġice": 5624,
      "Ġsample": 5625,
      "itoba": 5626,
      "orture": 5627,
      "Ġimag": 5628,
      "askat": 5629,
      "bor": 5630,
      "ipped": 5631,
      "mary": 5632,
      "Ġhighlight": 5633,
      "ĠPartners": 5634,
      "Em": 5635,
      "ued": 5636,
      "Ġbag": 5637,
      "Ġconsolid": 5638,
      "Ġconnect": 5639,
      "ĠRepresentative": 5640,
      "ech": 5641,
      "ĠBas": 5642,
      "ĠJoint": 5643,
      "ĠCorporation": 5644,
      "lete": 5645,
      "stream": 5646,
      "Ġprop": 5647,
      "ĠSaint": 5648,
      "igure": 5649,
      "ĠUnder": 5650,
      "Ġincreases": 5651,
      "Ġassociation": 5652,
      "Ġdelivered": 5653,
      "uxem": 5654,
      "Ġgrounds": 5655,
      "Listen": 5656,
      "Never": 5657,
      "ĠHis": 5658,
      "Ġalive": 5659,
      "ography": 5660,
      "Ġcandidate": 5661,
      "Hi": 5662,
      "imal": 5663,
      "Ġobst": 5664,
      "Ġorganisation": 5665,
      "Ġgrand": 5666,
      "Ġcontrols": 5667,
      "Ġjoin": 5668,
      "pet": 5669,
      "Ġmiddle": 5670,
      "ĠLake": 5671,
      "ĠYear": 5672,
      "ĠNews": 5673,
      "Ġboys": 5674,
      "ĠPriv": 5675,
      "gov": 5676,
      "Ġmort": 5677,
      "Ġconfident": 5678,
      "Ġconsumers": 5679,
      "OW": 5680,
      "cuse": 5681,
      "inter": 5682,
      "itect": 5683,
      "ĠPanel": 5684,
      "Ġpermit": 5685,
      "ressed": 5686,
      "Ġlinked": 5687,
      "Ġliter": 5688,
      "ĠPacific": 5689,
      "akers": 5690,
      "Ġintroduction": 5691,
      "ĠBudget": 5692,
      "ĠYOU": 5693,
      "idge": 5694,
      "iform": 5695,
      "ĠPaul": 5696,
      "Ġban": 5697,
      "Ġmg": 5698,
      "Ġdia": 5699,
      "ĠCost": 5700,
      "Ġlie": 5701,
      "ĠControl": 5702,
      "Ġjudicial": 5703,
      "greg": 5704,
      "ette": 5705,
      "Ġcompr": 5706,
      "Ġmarine": 5707,
      "Ġcharacteristics": 5708,
      "Ġtrouble": 5709,
      "bl": 5710,
      "enth": 5711,
      "Ġextended": 5712,
      "Ġbanks": 5713,
      "Ġult": 5714,
      "Ġsharing": 5715,
      "Ġjournal": 5716,
      "ĠVol": 5717,
      "54": 5718,
      "Ġdark": 5719,
      "oses": 5720,
      "Ġprimarily": 5721,
      "Canadian": 5722,
      "Ġlaunched": 5723,
      "ĠChinese": 5724,
      "Once": 5725,
      "gypt": 5726,
      "Ġmunicipal": 5727,
      "Ġband": 5728,
      "Ġrich": 5729,
      "osis": 5730,
      "Ġhair": 5731,
      "Ã©bec": 5732,
      "Ġreceiving": 5733,
      "Ġconstruct": 5734,
      "500": 5735,
      "antly": 5736,
      "alling": 5737,
      "Ġfocused": 5738,
      "Ġeasily": 5739,
      "Ġdelay": 5740,
      "ermanent": 5741,
      "point": 5742,
      "Ġconform": 5743,
      "ilization": 5744,
      "ĠArch": 5745,
      "Also": 5746,
      "Thanks": 5747,
      "Ġtemperature": 5748,
      "Ġstraight": 5749,
      "ager": 5750,
      "ĠCompany": 5751,
      "hy": 5752,
      "illance": 5753,
      "ĠRed": 5754,
      "Ġshut": 5755,
      "Ġremind": 5756,
      "CN": 5757,
      "Ġcult": 5758,
      "Ġfees": 5759,
      "Ġflu": 5760,
      "ĠAccount": 5761,
      "ois": 5762,
      "Ġded": 5763,
      "Ġforth": 5764,
      "Ġconvers": 5765,
      "ĠDrug": 5766,
      "including": 5767,
      "Ġcertainly": 5768,
      "Ġdocumentation": 5769,
      "à¥": 5770,
      "orter": 5771,
      "Ġisland": 5772,
      "Ġexcess": 5773,
      "Ġappe": 5774,
      "Ġfailed": 5775,
      "Ġbird": 5776,
      "asury": 5777,
      "utor": 5778,
      "amber": 5779,
      "ĠDel": 5780,
      "ommend": 5781,
      "Ġformat": 5782,
      "70": 5783,
      "Ġcomfort": 5784,
      "Ġtelling": 5785,
      "Ġdiseases": 5786,
      "ĠApplication": 5787,
      "SE": 5788,
      "coh": 5789,
      "ĠPRO": 5790,
      "riage": 5791,
      "osen": 5792,
      "Ġremaining": 5793,
      "Ġtreated": 5794,
      "Ġmurder": 5795,
      "?\"": 5796,
      "ked": 5797,
      "ips": 5798,
      "ĠIslam": 5799,
      "Ġsettlement": 5800,
      "ĠMain": 5801,
      "ĠWhen": 5802,
      "Ġperhaps": 5803,
      "Ġhelping": 5804,
      "Ġdrawn": 5805,
      "Ġwarm": 5806,
      "Ġpray": 5807,
      "Ġturned": 5808,
      "Ġpreviously": 5809,
      "Ġsubsequent": 5810,
      "Ġdoubt": 5811,
      "Will": 5812,
      "Ãĳ": 5813,
      "istant": 5814,
      "Ġindigenous": 5815,
      "Ġcollective": 5816,
      "Ġmanagers": 5817,
      "Ġmissing": 5818,
      "Ġimmediate": 5819,
      "itical": 5820,
      "ĠSan": 5821,
      "ĠList": 5822,
      "Ġidentity": 5823,
      "Ġmanaged": 5824,
      "Ġinnovative": 5825,
      "62": 5826,
      "LL": 5827,
      "Ġtitle": 5828,
      "rack": 5829,
      "ĠDet": 5830,
      "Ġchann": 5831,
      "Ġprefer": 5832,
      "taining": 5833,
      "Ġintervention": 5834,
      "Ġexamined": 5835,
      "Ġvillage": 5836,
      "ĠPet": 5837,
      "ĠRight": 5838,
      "Ġ48": 5839,
      "Ġfinding": 5840,
      "Ġopened": 5841,
      "Ġcarrying": 5842,
      "Ġadvert": 5843,
      "ĠDefence": 5844,
      "ĠRapporteur": 5845,
      "Nothing": 5846,
      "ĠRegion": 5847,
      "Ġfigures": 5848,
      "Ġfemale": 5849,
      ")?": 5850,
      "Ġelement": 5851,
      "armament": 5852,
      "Ġoccurred": 5853,
      "Ġcharges": 5854,
      "uxembourg": 5855,
      "Ġcommission": 5856,
      "Ġtransactions": 5857,
      "ĠLabour": 5858,
      "Ġextremely": 5859,
      "Ã¼": 5860,
      "Ġhate": 5861,
      "irty": 5862,
      "Ġwrite": 5863,
      "CB": 5864,
      "fl": 5865,
      "ĠNotice": 5866,
      "no": 5867,
      "ĠCustom": 5868,
      "ider": 5869,
      "ĠMiss": 5870,
      "amn": 5871,
      "Ġspending": 5872,
      "Ġdisse": 5873,
      "Ġcancer": 5874,
      "Ġconsent": 5875,
      "Ġlooked": 5876,
      "Ġasking": 5877,
      "ĠAdministration": 5878,
      "ĠChildren": 5879,
      "Give": 5880,
      "ibrary": 5881,
      "uality": 5882,
      "Ġsomebody": 5883,
      "ĠArticles": 5884,
      "Ġconfirmed": 5885,
      "Ġdirective": 5886,
      "Ġexception": 5887,
      "ĠPay": 5888,
      "ĠCommon": 5889,
      "theless": 5890,
      "Ġterritorial": 5891,
      "Ġcollected": 5892,
      "xic": 5893,
      "Ġwine": 5894,
      "Ġamb": 5895,
      "Ġpurchase": 5896,
      "Her": 5897,
      "rey": 5898,
      "Ġemployer": 5899,
      "Ġperformed": 5900,
      "ĠDirectorate": 5901,
      "Ġlarger": 5902,
      "Last": 5903,
      "Ms": 5904,
      "Ġbott": 5905,
      "Ġmal": 5906,
      "asters": 5907,
      "Ġconclusions": 5908,
      "Ġrelatively": 5909,
      "know": 5910,
      "oz": 5911,
      "Ġaren": 5912,
      "Ġ75": 5913,
      "Ġtransportation": 5914,
      "Ġlatter": 5915,
      "Ġwaters": 5916,
      "Ġhaz": 5917,
      "Ġrespectively": 5918,
      "Ġskin": 5919,
      "Ġtransparency": 5920,
      "ĠBelgium": 5921,
      "note": 5922,
      "ĠPres": 5923,
      "ifies": 5924,
      "ĠIns": 5925,
      "AND": 5926,
      "ĠCooperation": 5927,
      "Ġimpacts": 5928,
      "ynam": 5929,
      "Ġdigital": 5930,
      "65": 5931,
      "ĠCr": 5932,
      "Ġoutcomes": 5933,
      "Ġpassed": 5934,
      "Ġcry": 5935,
      "Ġcatch": 5936,
      "ĠFound": 5937,
      "Ġterritories": 5938,
      "Ġyours": 5939,
      "Ġanymore": 5940,
      "Ġlearned": 5941,
      "Ġglass": 5942,
      "Ġtasks": 5943,
      "Ġperspective": 5944,
      "Ġdespite": 5945,
      "Ġsessions": 5946,
      "oto": 5947,
      "ĠSee": 5948,
      "iest": 5949,
      "ĠBen": 5950,
      "Ġsurround": 5951,
      "Ġcourts": 5952,
      "rees": 5953,
      "Ġ34": 5954,
      "Ġshowed": 5955,
      "Us": 5956,
      "ĠSen": 5957,
      "overed": 5958,
      "Ġeverybody": 5959,
      "ĠExper": 5960,
      "certain": 5961,
      "ĠLondon": 5962,
      "Ġfinance": 5963,
      "Ġevening": 5964,
      "Ġpartnerships": 5965,
      "Ġenterprises": 5966,
      "iot": 5967,
      "sk": 5968,
      "ĠCO": 5969,
      "ĠPM": 5970,
      "ecific": 5971,
      "Ġremov": 5972,
      "Ġbarri": 5973,
      "Ġgentlemen": 5974,
      "Ġrout": 5975,
      "Ġincreasingly": 5976,
      "Ġpackage": 5977,
      "Ġexperienced": 5978,
      "Par": 5979,
      "Work": 5980,
      "Ġheat": 5981,
      "Ġpreced": 5982,
      "Ġbehaviour": 5983,
      "Ġtro": 5984,
      "Ġhom": 5985,
      "rie": 5986,
      "Ġhealthy": 5987,
      "Ġcomplaint": 5988,
      "Ġtemporary": 5989,
      "found": 5990,
      "Ġdro": 5991,
      "Ġreb": 5992,
      "Ġstations": 5993,
      "ĠGet": 5994,
      "upid": 5995,
      "Ġperiods": 5996,
      "Ġsections": 5997,
      "Ġengaged": 5998,
      "Ġexpression": 5999,
      "Ġdivid": 6000,
      "Ġdiversity": 6001,
      "essor": 6002,
      "Ġcustomer": 6003,
      "Ġcrimes": 6004,
      "td": 6005,
      "ĠIV": 6006,
      "Ġstreet": 6007,
      "Ġdeemed": 6008,
      "Ġextension": 6009,
      "Ġaims": 6010,
      "atform": 6011,
      "Ġmarg": 6012,
      "ĠPermanent": 6013,
      "Ġindeed": 6014,
      "Ġremed": 6015,
      "Ġblock": 6016,
      "Ġpresentation": 6017,
      "pay": 6018,
      "ĠRules": 6019,
      "Ġconcrete": 6020,
      "Ġexclud": 6021,
      "enced": 6022,
      "Ġsn": 6023,
      "Ġbath": 6024,
      "Ġvision": 6025,
      "ĠArt": 6026,
      "ossible": 6027,
      "Moreover": 6028,
      "94": 6029,
      "Ãł": 6030,
      "Ġpiece": 6031,
      "Ġrepresents": 6032,
      "Ġpopular": 6033,
      "person": 6034,
      "ĠBrazil": 6035,
      "Ġpromise": 6036,
      "inn": 6037,
      "ĠNGO": 6038,
      "Ġnumerous": 6039,
      "Ġeye": 6040,
      "ĠItalian": 6041,
      "Ġexpenditures": 6042,
      "ector": 6043,
      "ĠDavid": 6044,
      "Ġappell": 6045,
      "ĠManitoba": 6046,
      "ĠSwitzerland": 6047,
      "ĠTraining": 6048,
      "Ġinterpretation": 6049,
      "Ġreality": 6050,
      "ĠBy": 6051,
      "Ġspons": 6052,
      "Ġinstance": 6053,
      "Ġattrib": 6054,
      "Ġhelped": 6055,
      "Does": 6056,
      "Ġmental": 6057,
      "ĠIran": 6058,
      "ander": 6059,
      "ĠOK": 6060,
      "Ġcareer": 6061,
      "Second": 6062,
      "rely": 6063,
      "ĠBill": 6064,
      "ĠJew": 6065,
      "Ġbecomes": 6066,
      "Ġavailability": 6067,
      "Ġindustries": 6068,
      "Ġremained": 6069,
      "Ġsummary": 6070,
      "Ġcomplaints": 6071,
      "ĠAgriculture": 6072,
      "Ġpool": 6073,
      "Ġachieving": 6074,
      "Ġwithdraw": 6075,
      "reak": 6076,
      "ĠDist": 6077,
      "using": 6078,
      "Ġresidence": 6079,
      "Ġtrafficking": 6080,
      "Ġbackground": 6081,
      "Ġrace": 6082,
      "Ġexcellent": 6083,
      "Ġang": 6084,
      "Ġrespective": 6085,
      "Ġfavor": 6086,
      "Ġking": 6087,
      "Ġchapter": 6088,
      "ails": 6089,
      "Ġolder": 6090,
      "Ġcombination": 6091,
      "ĠAfghanistan": 6092,
      "Ġdinner": 6093,
      "Ġregister": 6094,
      "Ġ55": 6095,
      "Ġmap": 6096,
      "ivities": 6097,
      "unication": 6098,
      "Ġsubmission": 6099,
      "Ġmultiple": 6100,
      "chewan": 6101,
      "Ġestimates": 6102,
      "Ġunemployment": 6103,
      "ĠGreen": 6104,
      "Ġcourses": 6105,
      "Ġorders": 6106,
      "zz": 6107,
      "Ġwall": 6108,
      "oms": 6109,
      "ĠSaskat": 6110,
      "ĠDeputy": 6111,
      "communications": 6112,
      "Ġlatest": 6113,
      "ĠInitiative": 6114,
      "85": 6115,
      "west": 6116,
      "econom": 6117,
      "Ġlegit": 6118,
      "Ġstudent": 6119,
      "ĠContracting": 6120,
      "'.": 6121,
      "ĠCD": 6122,
      "Ġwilling": 6123,
      "ĠStreet": 6124,
      "Note": 6125,
      "rote": 6126,
      "ĠCON": 6127,
      "Ġ500": 6128,
      "Ġminority": 6129,
      "Ġtend": 6130,
      "ĠUk": 6131,
      "Ġmatch": 6132,
      "Ġcombined": 6133,
      "Ġcorporation": 6134,
      "kes": 6135,
      "Ġbear": 6136,
      "Ġchair": 6137,
      "fers": 6138,
      "ĠUnit": 6139,
      "Ġadverse": 6140,
      "Today": 6141,
      "WG": 6142,
      "rust": 6143,
      "Ġdose": 6144,
      "Ġoutput": 6145,
      "Ġacadem": 6146,
      "2011": 6147,
      "ĠFinance": 6148,
      "ĠCare": 6149,
      "ĠInst": 6150,
      "Ġinteresting": 6151,
      "Ġmotor": 6152,
      "Ġmachine": 6153,
      "html": 6154,
      "CA": 6155,
      "atell": 6156,
      "ĠRoom": 6157,
      "Ġcities": 6158,
      "Ġmissions": 6159,
      "Ġles": 6160,
      "Ġconven": 6161,
      "Ġneither": 6162,
      "Ġunion": 6163,
      "Ġmembership": 6164,
      "Ġdeclaration": 6165,
      "PS": 6166,
      "Ġcrop": 6167,
      "ĠMa": 6168,
      "Ġacid": 6169,
      "CF": 6170,
      "Ã¶": 6171,
      "ication": 6172,
      "onds": 6173,
      "ĠHowever": 6174,
      "Ġqualified": 6175,
      "Ġtrends": 6176,
      "king": 6177,
      "ĠEgypt": 6178,
      "ĠSuper": 6179,
      "ĠRad": 6180,
      "Ġaccompl": 6181,
      "Ġhappens": 6182,
      "Ġbringing": 6183,
      "ĠHeritage": 6184,
      "ĠHaiti": 6185,
      "God": 6186,
      "free": 6187,
      "ald": 6188,
      "Ġdifficulties": 6189,
      "umping": 6190,
      "Ġcertificate": 6191,
      "ores": 6192,
      "Ã¦": 6193,
      "ĠFisheries": 6194,
      "Ġentities": 6195,
      "Ġstanding": 6196,
      "Ġconsiderable": 6197,
      "Ġmulti": 6198,
      "Ġhydro": 6199,
      "fortun": 6200,
      "Ġheavy": 6201,
      "Public": 6202,
      "abin": 6203,
      "ĠTar": 6204,
      "Ġimposed": 6205,
      "Ġrestaur": 6206,
      "2010": 6207,
      "GR": 6208,
      "Ġdry": 6209,
      "asp": 6210,
      "oster": 6211,
      "Ġfee": 6212,
      "Ġdetermination": 6213,
      "Ġwindow": 6214,
      "fin": 6215,
      "Ġlit": 6216,
      "ichael": 6217,
      "Ġsets": 6218,
      "Ġkeeping": 6219,
      "orters": 6220,
      "ĠData": 6221,
      "Annex": 6222,
      "bed": 6223,
      "Ġrecruit": 6224,
      "ECT": 6225,
      "Ġspeaking": 6226,
      "78": 6227,
      "Ġmountain": 6228,
      "Ġcurrency": 6229,
      "organ": 6230,
      "raine": 6231,
      "amm": 6232,
      "usal": 6233,
      "ĠAmendment": 6234,
      "Ġlaunch": 6235,
      "Ġrecognize": 6236,
      "Ġhistorical": 6237,
      "icians": 6238,
      "Ġdiplom": 6239,
      "ĠBay": 6240,
      "Ġdistance": 6241,
      "Ġinspection": 6242,
      "ype": 6243,
      "Ġenl": 6244,
      "Ġelected": 6245,
      "Ġchanging": 6246,
      "ĠStatistics": 6247,
      "Ġvirt": 6248,
      "69": 6249,
      "rates": 6250,
      "Ġteaching": 6251,
      "ĠForces": 6252,
      "Ġmaintained": 6253,
      "Ġsteel": 6254,
      "Trans": 6255,
      "Ġnamed": 6256,
      "ĠPop": 6257,
      "gel": 6258,
      "ĠWIPO": 6259,
      "roud": 6260,
      "Ġsecondary": 6261,
      "Ġmultilateral": 6262,
      "Ġreturned": 6263,
      "Ġvoluntary": 6264,
      "lation": 6265,
      "Ġbreat": 6266,
      "International": 6267,
      "Ġemployed": 6268,
      "Ġtrip": 6269,
      "ĠDemocratic": 6270,
      "oute": 6271,
      "Ġfle": 6272,
      "ĠDisc": 6273,
      "Ġcontam": 6274,
      "Ġresulted": 6275,
      "ictions": 6276,
      "Ġprovisional": 6277,
      "Ġfirms": 6278,
      "Ġvacc": 6279,
      "Ġrefugees": 6280,
      "IES": 6281,
      "lav": 6282,
      "ĠAccess": 6283,
      "ĠCommunications": 6284,
      "formance": 6285,
      "ĠTeam": 6286,
      "ennium": 6287,
      "Ġschedule": 6288,
      "AY": 6289,
      "mat": 6290,
      "Ġseat": 6291,
      "Ġfourth": 6292,
      "Ġforum": 6293,
      "ĠSim": 6294,
      "ĠRoyal": 6295,
      "Ġfarmers": 6296,
      "Ġmutual": 6297,
      "yp": 6298,
      "Ġfisheries": 6299,
      "ola": 6300,
      "ĠUs": 6301,
      "Ġagents": 6302,
      "Ġintellectual": 6303,
      "ĠChurch": 6304,
      "Ġdetermining": 6305,
      "Ġveget": 6306,
      "anged": 6307,
      "Ġproviders": 6308,
      "âĢ¦âĢ¦": 6309,
      "%.": 6310,
      "Min": 6311,
      "Ġagent": 6312,
      "Ġstatistical": 6313,
      "ĠBrun": 6314,
      "Ġmanager": 6315,
      "ĠTreasury": 6316,
      "51": 6317,
      "Ġign": 6318,
      "cean": 6319,
      "ĠLim": 6320,
      "Ġsevere": 6321,
      "Ġleader": 6322,
      "Co": 6323,
      "Ġbill": 6324,
      "terday": 6325,
      "Ġcoff": 6326,
      "Ġreceip": 6327,
      "ĠScience": 6328,
      "estion": 6329,
      "Ġspend": 6330,
      "Ġcoverage": 6331,
      "Another": 6332,
      "under": 6333,
      "lled": 6334,
      "Its": 6335,
      "ĠJean": 6336,
      "ĠGreece": 6337,
      "ona": 6338,
      "opy": 6339,
      "Ġintention": 6340,
      "Ġbuildings": 6341,
      "what": 6342,
      "Would": 6343,
      "XX": 6344,
      "ios": 6345,
      "Ġsong": 6346,
      "aly": 6347,
      "ĠMac": 6348,
      "Ġstream": 6349,
      "ĠEN": 6350,
      "Ġprelim": 6351,
      "Ġadvanced": 6352,
      "Ġaccounting": 6353,
      "Ġtargets": 6354,
      "ukon": 6355,
      "93": 6356,
      "uated": 6357,
      "ulating": 6358,
      "ĠNow": 6359,
      "Ġheading": 6360,
      "ĠConsult": 6361,
      "Ġloans": 6362,
      "ius": 6363,
      "ĠBer": 6364,
      "ĠHung": 6365,
      "Thus": 6366,
      "Ġsubparagraph": 6367,
      "ĠFoundation": 6368,
      "OK": 6369,
      "Ġmail": 6370,
      "Ã©t": 6371,
      "Ġfeet": 6372,
      "Ġextensive": 6373,
      "Ġcrew": 6374,
      "ĠAppendix": 6375,
      "Ġinformal": 6376,
      "zech": 6377,
      "Ġfurn": 6378,
      "irt": 6379,
      "ĠGeneva": 6380,
      "Ġchosen": 6381,
      "onday": 6382,
      "Ġencouraged": 6383,
      "Ġexplained": 6384,
      "Ġcycle": 6385,
      "Ġimplications": 6386,
      "ĠJer": 6387,
      "ethyl": 6388,
      "ĠLegal": 6389,
      "Ġcauses": 6390,
      "Ġsym": 6391,
      "ART": 6392,
      "Ġslight": 6393,
      "lines": 6394,
      "well": 6395,
      "inations": 6396,
      "Ġsport": 6397,
      "arb": 6398,
      "Ġrid": 6399,
      "Ġ47": 6400,
      "ĠPolice": 6401,
      "Ġsymb": 6402,
      "ĠSweden": 6403,
      "xy": 6404,
      "iny": 6405,
      "ĠCAN": 6406,
      "add": 6407,
      "ĠAv": 6408,
      "Ġconstitute": 6409,
      "Ġseed": 6410,
      "Ġexamples": 6411,
      "ographical": 6412,
      "Pre": 6413,
      "Ġpan": 6414,
      "Ġpanel": 6415,
      "Ġsoil": 6416,
      "Ġtransmission": 6417,
      "Ġoperators": 6418,
      "ursday": 6419,
      "iverse": 6420,
      "Ġpreliminary": 6421,
      "52": 6422,
      "can": 6423,
      "Ġinh": 6424,
      "Ġstupid": 6425,
      "ĠSea": 6426,
      "Ġassessed": 6427,
      "Ġexistence": 6428,
      "Ġacquis": 6429,
      "Ġmaster": 6430,
      "aste": 6431,
      "Ġnine": 6432,
      "Ġexamine": 6433,
      "Ġexports": 6434,
      "Ġillegal": 6435,
      "Ġaqu": 6436,
      "arr": 6437,
      "Ġmilk": 6438,
      "ĠCN": 6439,
      "Ġrob": 6440,
      "Ġaccountability": 6441,
      "Report": 6442,
      "Ġviolations": 6443,
      "Ġinspect": 6444,
      "ĠAM": 6445,
      "rible": 6446,
      "Ġthousands": 6447,
      "Ġscheme": 6448,
      "ixt": 6449,
      "Ġconservation": 6450,
      "ĠSche": 6451,
      "64": 6452,
      "Bl": 6453,
      "Ġshares": 6454,
      "Ġheritage": 6455,
      "comp": 6456,
      "cohol": 6457,
      "92": 6458,
      "ington": 6459,
      "stood": 6460,
      "Ġemp": 6461,
      "Ġpharm": 6462,
      "Ġcontributed": 6463,
      "Ġstructural": 6464,
      "Ġrevenue": 6465,
      "Ass": 6466,
      "Member": 6467,
      "mosp": 6468,
      "Ġmouth": 6469,
      "Ġchain": 6470,
      "Ġvisits": 6471,
      "Ġcells": 6472,
      "Ġseeking": 6473,
      "eties": 6474,
      "ĠIM": 6475,
      "ĠLuxembourg": 6476,
      "arden": 6477,
      "Ġrecon": 6478,
      "Ġparam": 6479,
      "ĠSecond": 6480,
      "Ġrooms": 6481,
      "Ġtwenty": 6482,
      "Ġupdated": 6483,
      "ĠSociety": 6484,
      "Dep": 6485,
      "nings": 6486,
      "ĠJack": 6487,
      "Ġassign": 6488,
      "Ġcharged": 6489,
      "MENT": 6490,
      "Ã¢": 6491,
      "Ġdedu": 6492,
      "acco": 6493,
      "Ġtaxation": 6494,
      "ĠSustainable": 6495,
      "ĠOver": 6496,
      "ĠLic": 6497,
      "Ġbecoming": 6498,
      "Ġconcentration": 6499,
      "Ġvulnerable": 6500,
      "73": 6501,
      "atal": 6502,
      "Ġma": 6503,
      "Ġnorthern": 6504,
      "Ġ300": 6505,
      "Ġcompletion": 6506,
      "Ġerror": 6507,
      "Ġbilateral": 6508,
      "Ġretain": 6509,
      "Ġcenter": 6510,
      "91": 6511,
      "Ġapart": 6512,
      "esty": 6513,
      "akings": 6514,
      "Ġcapable": 6515,
      "Ġpleased": 6516,
      "ffective": 6517,
      "Ġpages": 6518,
      "Ġgreatest": 6519,
      "ena": 6520,
      "Ġproud": 6521,
      "Ġmit": 6522,
      "ste": 6523,
      "Ġweather": 6524,
      "Ġassigned": 6525,
      "Ġmanufacturing": 6526,
      "Ġterrorist": 6527,
      "Ġdriving": 6528,
      "Ġresidents": 6529,
      "Ĥ¬": 6530,
      "ĠRequ": 6531,
      "Ġrelationships": 6532,
      "Ġenhanced": 6533,
      "Ġexperiences": 6534,
      "Ġclinical": 6535,
      "mar": 6536,
      "Ġforced": 6537,
      "acing": 6538,
      "Ġdisabilities": 6539,
      "Ġ;": 6540,
      "umn": 6541,
      "rick": 6542,
      "Ġportion": 6543,
      "ĠSaskatchewan": 6544,
      "Direct": 6545,
      "ĠCub": 6546,
      "Ġentity": 6547,
      "ĠÃł": 6548,
      "Ġmarriage": 6549,
      "Ġworkshop": 6550,
      "53": 6551,
      "Ġtank": 6552,
      "Ġtick": 6553,
      "ros": 6554,
      "Ġisol": 6555,
      "ensity": 6556,
      "Ġprescribed": 6557,
      "CI": 6558,
      "Ġcast": 6559,
      "raint": 6560,
      "ĠTim": 6561,
      "ĠOf": 6562,
      "ĠVice": 6563,
      "aptain": 6564,
      "Ġbooks": 6565,
      "race": 6566,
      "Ġsuitable": 6567,
      "Ġcontrolled": 6568,
      "Ġremoved": 6569,
      "Ġ1989": 6570,
      "Ġvessels": 6571,
      "Ġliquid": 6572,
      "known": 6573,
      "Sim": 6574,
      "Ġprocurement": 6575,
      "ĠGen": 6576,
      "ansion": 6577,
      "aker": 6578,
      "Ġwhereas": 6579,
      "Ġintell": 6580,
      "Ġattached": 6581,
      "rog": 6582,
      "ĠSud": 6583,
      "ocational": 6584,
      "Ġ41": 6585,
      "ĠÂ»": 6586,
      "Ġtaxes": 6587,
      "Ġcorresponding": 6588,
      "economic": 6589,
      "President": 6590,
      "Ġthrow": 6591,
      "ĠSME": 6592,
      "Ġrepresentation": 6593,
      "Ġprincipal": 6594,
      "],": 6595,
      "ĠCoven": 6596,
      "Ġdirected": 6597,
      "Ġprecise": 6598,
      "Ġstrugg": 6599,
      "eurs": 6600,
      "othes": 6601,
      "Ġsigns": 6602,
      "iterrane": 6603,
      "ĠEvaluation": 6604,
      "Ġchurch": 6605,
      "ĠQuÃ©bec": 6606,
      "Ġillust": 6607,
      "ĠProducts": 6608,
      "Pol": 6609,
      "cies": 6610,
      "Ġfruit": 6611,
      "Ġantic": 6612,
      "Ġfeature": 6613,
      "Ġimprovements": 6614,
      "\"?": 6615,
      "wing": 6616,
      "Ġsac": 6617,
      "ovo": 6618,
      "Ġfacts": 6619,
      "Ġgeneration": 6620,
      "Ġanalys": 6621,
      "ĠLiber": 6622,
      "Che": 6623,
      "ĠMiddle": 6624,
      "Ġstore": 6625,
      "Ġdear": 6626,
      "National": 6627,
      "Ġcance": 6628,
      "ĠMet": 6629,
      "Ġmeat": 6630,
      "Ġvital": 6631,
      "Ġapplying": 6632,
      "Ġintegrity": 6633,
      "Ġarchitect": 6634,
      "iterranean": 6635,
      "DE": 6636,
      "Ġwrote": 6637,
      "ednes": 6638,
      "ĠEth": 6639,
      "Ġreserve": 6640,
      "Ġenem": 6641,
      "Ġoffering": 6642,
      "ĠImplementation": 6643,
      "Ġdynam": 6644,
      "oma": 6645,
      "acc": 6646,
      "Ġdistrict": 6647,
      "Ġspecialized": 6648,
      "ĠCRTC": 6649,
      "Ġscheduled": 6650,
      "Ġes": 6651,
      "Excuse": 6652,
      "Ġopposition": 6653,
      "Information": 6654,
      "Ġdetention": 6655,
      "Ġprotocol": 6656,
      "Ġfunny": 6657,
      "Ġassociations": 6658,
      "Ġundertakings": 6659,
      "Ġdemonstrated": 6660,
      "ĠAnnual": 6661,
      "ĠKorea": 6662,
      "Rem": 6663,
      "mas": 6664,
      "Ġfinished": 6665,
      "Ã©s": 6666,
      "Ġtourism": 6667,
      "Ġvolunte": 6668,
      "Ġbroadcasting": 6669,
      "ĠLatin": 6670,
      "how": 6671,
      "iant": 6672,
      "ero": 6673,
      "ĠHot": 6674,
      "Stop": 6675,
      "ua": 6676,
      "Ġtorture": 6677,
      "Ġtoxic": 6678,
      "Ġnation": 6679,
      "Ġstable": 6680,
      "Ġimpossible": 6681,
      "Ġpoly": 6682,
      "Ġglad": 6683,
      "Ġnearly": 6684,
      "].": 6685,
      "Ġnav": 6686,
      "ĠBro": 6687,
      "Ġvary": 6688,
      "ĠLtd": 6689,
      "Ġextend": 6690,
      "Ġdirector": 6691,
      "Ġnamely": 6692,
      "ĠContact": 6693,
      "Mar": 6694,
      "uable": 6695,
      "Ġinject": 6696,
      "ĠMat": 6697,
      "ĠYukon": 6698,
      "Ġresponses": 6699,
      "Ġletters": 6700,
      "Ġexplan": 6701,
      "rapy": 6702,
      "Ġobstac": 6703,
      "Ġsought": 6704,
      "Ġgather": 6705,
      "akistan": 6706,
      "Ġallowing": 6707,
      "ĠPrevention": 6708,
      "Ġcalculated": 6709,
      "ĠDid": 6710,
      "Ġuniversity": 6711,
      "ESS": 6712,
      "Ġafford": 6713,
      "ĠGuidelines": 6714,
      "iated": 6715,
      "iday": 6716,
      "Ġ42": 6717,
      "Ġaddressing": 6718,
      "III": 6719,
      "Ġarmy": 6720,
      "Ġzone": 6721,
      "Ġsemin": 6722,
      "ĠAustralia": 6723,
      "Bet": 6724,
      "Ġhuge": 6725,
      "ĠBi": 6726,
      "Ġcrucial": 6727,
      "habilit": 6728,
      "rical": 6729,
      "ĠUse": 6730,
      "uesday": 6731,
      "Ġindicates": 6732,
      "Ġeconomies": 6733,
      "Ġfighting": 6734,
      "Ġhabitat": 6735,
      "board": 6736,
      "alle": 6737,
      "ĠSant": 6738,
      "ĠProced": 6739,
      "Ġtechniques": 6740,
      "Ġfunded": 6741,
      "Ġclassification": 6742,
      "itc": 6743,
      "ouver": 6744,
      "casting": 6745,
      "Ġsafegu": 6746,
      "Ġalleged": 6747,
      "87": 6748,
      "PL": 6749,
      "ĠCzech": 6750,
      "Ġsugar": 6751,
      "ĠBroad": 6752,
      "ĠFac": 6753,
      "Inc": 6754,
      "ĠKos": 6755,
      "Ġaccessible": 6756,
      "Ġproperly": 6757,
      "Ġupdate": 6758,
      "FR": 6759,
      "Ġcamer": 6760,
      "Ġladies": 6761,
      "Ġseeing": 6762,
      "Ġ85": 6763,
      "Ġpollution": 6764,
      "Ġoccasion": 6765,
      "bo": 6766,
      "Ġnone": 6767,
      "Ġquiet": 6768,
      "Ġ44": 6769,
      "ERS": 6770,
      "Ġtransferred": 6771,
      "Ġallocated": 6772,
      "nia": 6773,
      "Ġtill": 6774,
      "Ġsoul": 6775,
      "Ġep": 6776,
      "ĠMuseum": 6777,
      "ĠRC": 6778,
      "ĠUK": 6779,
      "Ġtrave": 6780,
      "Ġassessments": 6781,
      "Ġmad": 6782,
      "Ġbeat": 6783,
      "ĠPost": 6784,
      "Ġoutstanding": 6785,
      "Ġclub": 6786,
      "Ġrelief": 6787,
      "Ġdedicated": 6788,
      "ĠCovenant": 6789,
      "ednesday": 6790,
      "AV": 6791,
      "Ġexists": 6792,
      "ĠFR": 6793,
      "Ġunable": 6794,
      "Ġaffairs": 6795,
      "Ġburden": 6796,
      "COM": 6797,
      "Ġclick": 6798,
      "ĠEastern": 6799,
      "ĠGDP": 6800,
      "ĠWhite": 6801,
      "2013": 6802,
      "ĠScotia": 6803,
      "Ġpi": 6804,
      "Ġtoward": 6805,
      "ĠSom": 6806,
      "urities": 6807,
      "osystem": 6808,
      "ĠBell": 6809,
      "Ġapparent": 6810,
      "Ġhandle": 6811,
      "Ġregularly": 6812,
      "BS": 6813,
      "mal": 6814,
      "Ġing": 6815,
      "ĠPlease": 6816,
      "ĠLook": 6817,
      "Ġtimely": 6818,
      "Ġourselves": 6819,
      "ERE": 6820,
      "Ġairport": 6821,
      "Ġsupplies": 6822,
      "Ġstar": 6823,
      "ĠGaz": 6824,
      "Ġkil": 6825,
      "ĠStaff": 6826,
      "Ġ39": 6827,
      "Ġ43": 6828,
      "Before": 6829,
      "Ġbinding": 6830,
      "Ġnom": 6831,
      "ĠAT": 6832,
      "ĠAdv": 6833,
      "ĠFrank": 6834,
      "ienn": 6835,
      "ĠMontreal": 6836,
      "Ġapartment": 6837,
      "ĠPortugal": 6838,
      "FF": 6839,
      "ga": 6840,
      "uries": 6841,
      "wood": 6842,
      "ĠLeban": 6843,
      "Ġrevenues": 6844,
      "Ġexploitation": 6845,
      "Ġinstructions": 6846,
      "fast": 6847,
      "rig": 6848,
      "Ġcommittees": 6849,
      "ancouver": 6850,
      "Ġloan": 6851,
      "ĠRelations": 6852,
      "Ġdiagn": 6853,
      "Ġworse": 6854,
      "ĠOJ": 6855,
      "ĠLou": 6856,
      "Ġspring": 6857,
      "Ġconsc": 6858,
      "abling": 6859,
      "Ġ1988": 6860,
      "ĠMedia": 6861,
      "Ġobservations": 6862,
      "________________________________": 6863,
      "ĠAudit": 6864,
      "Following": 6865,
      "Ġcoffee": 6866,
      "MS": 6867,
      "ham": 6868,
      "Ġ($": 6869,
      "ĠThese": 6870,
      "mbass": 6871,
      "Ġmaintaining": 6872,
      "Ġemerging": 6873,
      "ĠCIHR": 6874,
      "ĠDenmark": 6875,
      "EUR": 6876,
      "gin": 6877,
      "anied": 6878,
      "Ġhoney": 6879,
      "Ġhung": 6880,
      "ested": 6881,
      "Ġthreats": 6882,
      "Ste": 6883,
      "ville": 6884,
      "Ġspl": 6885,
      "Ġsitting": 6886,
      "ctic": 6887,
      "Ġdiscipl": 6888,
      "ĠArea": 6889,
      "Ġsensitive": 6890,
      "Ġdisposal": 6891,
      "Ġsports": 6892,
      "oted": 6893,
      "Ġju": 6894,
      "Ġplus": 6895,
      "Ġarbit": 6896,
      "Ġplayers": 6897,
      "Ġtargeted": 6898,
      "Date": 6899,
      "Ã£": 6900,
      "roduct": 6901,
      "ropri": 6902,
      "Ġ1987": 6903,
      "Ġfault": 6904,
      "Ġattacks": 6905,
      "Ġpal": 6906,
      "ĠNova": 6907,
      "ĠFree": 6908,
      "Through": 6909,
      "Ġtechnological": 6910,
      "ĠFriday": 6911,
      "Ġmessages": 6912,
      "ĠAdministrative": 6913,
      "EW": 6914,
      "met": 6915,
      "oslav": 6916,
      "Ġ1980": 6917,
      "ĠECU": 6918,
      "Ġboat": 6919,
      "Ġquantity": 6920,
      "ĠInuit": 6921,
      "Ġteachers": 6922,
      "DS": 6923,
      "Ġegg": 6924,
      "Ġlady": 6925,
      "Ġmeasured": 6926,
      "Ġmodified": 6927,
      "Ġconsidering": 6928,
      "Ġpeacekeeping": 6929,
      "Ġintroduce": 6930,
      "Ġdistributed": 6931,
      "Ġconnected": 6932,
      "Ġdestruction": 6933,
      "rd": 6934,
      "ĠCamp": 6935,
      "Ġum": 6936,
      "Ġadvoc": 6937,
      "Ġtruck": 6938,
      "Ġownership": 6939,
      "Ġprofessionals": 6940,
      "Number": 6941,
      "Ġfab": 6942,
      "ĠImm": 6943,
      "ĠFamily": 6944,
      "Ġdisch": 6945,
      "Ġrevolution": 6946,
      "ĠYouth": 6947,
      "Ġprivacy": 6948,
      "Ġposts": 6949,
      "Ġpreparing": 6950,
      "%,": 6951,
      ".'": 6952,
      "Ġgames": 6953,
      "Ġstim": 6954,
      "ĠHist": 6955,
      "plain": 6956,
      "Ġchief": 6957,
      "Ġsatisfaction": 6958,
      "ĠEarth": 6959,
      "Ġoffence": 6960,
      "Ġ57": 6961,
      "azing": 6962,
      "Ġteams": 6963,
      "Ġnormally": 6964,
      "fortunately": 6965,
      "Ġmm": 6966,
      "ĠMag": 6967,
      "Ġscen": 6968,
      "swick": 6969,
      "Ġdrinking": 6970,
      "Ġsatisfied": 6971,
      "repren": 6972,
      "ĠCustoms": 6973,
      "care": 6974,
      "rection": 6975,
      "ĠAtt": 6976,
      "ersons": 6977,
      "ĠRober": 6978,
      "Ġring": 6979,
      "Ġcontrary": 6980,
      "Ġputting": 6981,
      "Ġsentence": 6982,
      "ogen": 6983,
      "ĠRevenue": 6984,
      "ĠVict": 6985,
      "Ġcareful": 6986,
      "Ġshowing": 6987,
      "Ġacceptable": 6988,
      "Ġdemonstrate": 6989,
      "Ġbelieved": 6990,
      "foundland": 6991,
      "atellite": 6992,
      "UB": 6993,
      "Ġburn": 6994,
      "asures": 6995,
      "Ġmarked": 6996,
      "Ġdownload": 6997,
      "Ġcovering": 6998,
      "Ah": 6999,
      "dent": 7000,
      "ĠProm": 7001,
      "ĠPerson": 7002,
      "Ġperm": 7003,
      "Ġconsists": 7004,
      "ĠChar": 7005,
      "Ġhyp": 7006,
      "Ġdelegations": 7007,
      "ĠMillennium": 7008,
      "Both": 7009,
      "enary": 7010,
      "Ġmale": 7011,
      "iced": 7012,
      "ĠBull": 7013,
      "ĠLis": 7014,
      "Ġ58": 7015,
      "Ġelectoral": 7016,
      "ĠPoland": 7017,
      "Ġstrongly": 7018,
      "Ġmanufacturer": 7019,
      "pre": 7020,
      "Ġbrain": 7021,
      "Ġfort": 7022,
      "ĠDeleg": 7023,
      "Ġretail": 7024,
      "Ġpowerful": 7025,
      "Ġreflected": 7026,
      "Ġdeclared": 7027,
      "Ġdecrease": 7028,
      "Ġelectricity": 7029,
      "from": 7030,
      "Ã´": 7031,
      "iciary": 7032,
      "Ġaccession": 7033,
      "Ġprofit": 7034,
      "ĠFinland": 7035,
      "Ġcloser": 7036,
      "Ġsurveillance": 7037,
      "People": 7038,
      "Ġanticip": 7039,
      "erce": 7040,
      "ita": 7041,
      "ada": 7042,
      "ems": 7043,
      "irement": 7044,
      "ugoslav": 7045,
      "Ġrecommends": 7046,
      "Ġobser": 7047,
      "Ã¥": 7048,
      "ĠID": 7049,
      "Ġpartial": 7050,
      "Ġplatform": 7051,
      "Ġliability": 7052,
      "itely": 7053,
      "Ġdetect": 7054,
      "Ġholid": 7055,
      "Ġloved": 7056,
      "Ġconsensus": 7057,
      "Ġtransaction": 7058,
      "contin": 7059,
      "fare": 7060,
      "Ġrank": 7061,
      "Ġatmosp": 7062,
      "ĠThen": 7063,
      "ribution": 7064,
      "Ġtotally": 7065,
      "Ġwinter": 7066,
      "--------": 7067,
      "Ġacknowled": 7068,
      "Ġappellant": 7069,
      "alysis": 7070,
      "inger": 7071,
      "Ġspect": 7072,
      "Which": 7073,
      "Ġremote": 7074,
      "Ġneighbour": 7075,
      "Ġwonderful": 7076,
      "vo": 7077,
      "Ġdiss": 7078,
      "ceans": 7079,
      "Ġprospect": 7080,
      "ĠRome": 7081,
      "ĠBos": 7082,
      "perty": 7083,
      "Ġformed": 7084,
      "Ġmarks": 7085,
      "Ġyesterday": 7086,
      "Ġsuffering": 7087,
      "Ġemphasis": 7088,
      "Ġrestrictions": 7089,
      "fit": 7090,
      "ĠDE": 7091,
      "Ġunderstood": 7092,
      "ĠProcess": 7093,
      "Ġcarbon": 7094,
      "Ġurgent": 7095,
      "Keep": 7096,
      "Ġuniversal": 7097,
      "Com": 7098,
      "itime": 7099,
      "aling": 7100,
      "Ġpointed": 7101,
      "ĠCongo": 7102,
      "Ġvessel": 7103,
      "Ġhelps": 7104,
      "Ġ1985": 7105,
      "Ġmetal": 7106,
      "Ġjudgment": 7107,
      "Ġinjury": 7108,
      "About": 7109,
      "ĠBrunswick": 7110,
      "Tra": 7111,
      "ipping": 7112,
      "rition": 7113,
      "ading": 7114,
      "Ġconferences": 7115,
      "Ġtheme": 7116,
      "Ġ1986": 7117,
      "Ġthousand": 7118,
      "FA": 7119,
      "Very": 7120,
      "ĠSite": 7121,
      "iat": 7122,
      "that": 7123,
      "Ġinvolves": 7124,
      "Ġtwice": 7125,
      "zen": 7126,
      "Ġproof": 7127,
      "Ġsuc": 7128,
      "Ġroute": 7129,
      "andon": 7130,
      "ĠFather": 7131,
      "ĠRegist": 7132,
      "Ġcolour": 7133,
      "itoring": 7134,
      "Ġconflicts": 7135,
      "Ġindependence": 7136,
      "Ġphen": 7137,
      "Ġprove": 7138,
      "ĠYugoslav": 7139,
      "Ġinitiated": 7140,
      "Ġundertake": 7141,
      "Ġjoined": 7142,
      "FM": 7143,
      "she": 7144,
      "icide": 7145,
      "Ġlived": 7146,
      "olf": 7147,
      "Ġabroad": 7148,
      "Ġdefend": 7149,
      "ĠGovernor": 7150,
      "ĠIsraeli": 7151,
      "rend": 7152,
      "Ġserving": 7153,
      "Ġowner": 7154,
      "Ġbroken": 7155,
      "Ġcomparison": 7156,
      "ini": 7157,
      "itative": 7158,
      "Ġbought": 7159,
      "ĠCS": 7160,
      "ĠChristian": 7161,
      "Ġvoting": 7162,
      "Dad": 7163,
      "Ġid": 7164,
      "ĠTel": 7165,
      "ĠConf": 7166,
      "ovak": 7167,
      "Ġdemands": 7168,
      "ANS": 7169,
      "ĠRef": 7170,
      "Ġlicensee": 7171,
      "do": 7172,
      "Ġfit": 7173,
      "Ġstrict": 7174,
      "ĠRet": 7175,
      "Ġanyway": 7176,
      "Ġhappening": 7177,
      "Ġreforms": 7178,
      "Ġriver": 7179,
      "Ġincorporated": 7180,
      "',": 7181,
      "ĠCrown": 7182,
      "utory": 7183,
      "Ġ(\"": 7184,
      "ĠEv": 7185,
      "Ġremove": 7186,
      "ĠAppeal": 7187,
      "Ġseriously": 7188,
      "ĠGrand": 7189,
      ")*": 7190,
      "cher": 7191,
      "national": 7192,
      "Ġlies": 7193,
      "Ġanc": 7194,
      "Ġ65": 7195,
      "Ġreviews": 7196,
      "Ġprofile": 7197,
      "Ġtradition": 7198,
      "Ġlosses": 7199,
      "Ġfulfil": 7200,
      "Ġforgot": 7201,
      "Ġconfidential": 7202,
      "Ġdepends": 7203,
      "Ġfamous": 7204,
      "Ġrestric": 7205,
      "Ġrealize": 7206,
      "emption": 7207,
      "Ġalcohol": 7208,
      "Ġindex": 7209,
      "Ã©e": 7210,
      "Ġcivilian": 7211,
      "Ġdanger": 7212,
      "ĠOperations": 7213,
      "ĠSurvey": 7214,
      "Ġbarriers": 7215,
      "Ġsymbol": 7216,
      "aper": 7217,
      "Ġfram": 7218,
      "Ġroles": 7219,
      "Ġreligion": 7220,
      "Ġallocation": 7221,
      "Ġdispute": 7222,
      "Ġwa": 7223,
      "ĠMore": 7224,
      "Ġdecline": 7225,
      "Ġdesire": 7226,
      "Ġshel": 7227,
      "Ġcars": 7228,
      "Ġworldwide": 7229,
      "closure": 7230,
      "Ġflexibility": 7231,
      "La": 7232,
      "ford": 7233,
      "ias": 7234,
      "itiveness": 7235,
      "Ġwed": 7236,
      "Ġgrants": 7237,
      "Ġproperties": 7238,
      "Ġachievement": 7239,
      "iii": 7240,
      "Ġbitch": 7241,
      "OV": 7242,
      "cause": 7243,
      "ĠSpe": 7244,
      "Ġexempt": 7245,
      "ourth": 7246,
      "ĠLu": 7247,
      "Ġguard": 7248,
      "Ġblue": 7249,
      "Prov": 7250,
      "Ġmanaging": 7251,
      "ĠStrategic": 7252,
      "ĠUkraine": 7253,
      "Med": 7254,
      "za": 7255,
      "umer": 7256,
      "Ġshape": 7257,
      "Ġvent": 7258,
      "Ġincent": 7259,
      "Ġspeech": 7260,
      "Ġminorities": 7261,
      "burg": 7262,
      "Ġdisclosure": 7263,
      "ĠInsurance": 7264,
      "atus": 7265,
      "uds": 7266,
      "Ġactively": 7267,
      "comed": 7268,
      "Ġbudgetary": 7269,
      "Ġdamn": 7270,
      "ĠPage": 7271,
      "Ġresistance": 7272,
      "Ġsmaller": 7273,
      "ĠECB": 7274,
      "Ġfifty": 7275,
      "Ġbottom": 7276,
      "pol": 7277,
      "Ġduration": 7278,
      "Ġthereby": 7279,
      "Ġrespondents": 7280,
      "Ġmobile": 7281,
      "Ġawarded": 7282,
      "Could": 7283,
      "ki": 7284,
      "Ġsand": 7285,
      "Ġwishes": 7286,
      "Ġbienn": 7287,
      "Ġnations": 7288,
      "Ġstyle": 7289,
      "Ġuniform": 7290,
      "Ġfacing": 7291,
      "Amendment": 7292,
      "ĠTechnical": 7293,
      "Ġannounce": 7294,
      "Ġinclusion": 7295,
      "UST": 7296,
      "atible": 7297,
      "Ġdance": 7298,
      "Ġdram": 7299,
      "ĠBal": 7300,
      "ĠWind": 7301,
      "ĠKen": 7302,
      "Ġimported": 7303,
      "Ġmonetary": 7304,
      "Ġdiscover": 7305,
      "bean": 7306,
      "Ġsimpl": 7307,
      "Ġeasier": 7308,
      "ĠAustria": 7309,
      "eterm": 7310,
      "urb": 7311,
      "eces": 7312,
      "Ġanybody": 7313,
      "Ġexpansion": 7314,
      "Ġproductivity": 7315,
      "Ġdepending": 7316,
      "espite": 7317,
      "Council": 7318,
      "Um": 7319,
      "WH": 7320,
      "jan": 7321,
      "rum": 7322,
      "Ġcust": 7323,
      "Ġhomes": 7324,
      "ceived": 7325,
      "Ġrapporteur": 7326,
      "Ġcounsel": 7327,
      "ĠTurk": 7328,
      "Ġdeposit": 7329,
      "Ġpassengers": 7330,
      "disc": 7331,
      "ĠSing": 7332,
      "Ġstages": 7333,
      "Ġleaves": 7334,
      "ĠWTO": 7335,
      "Ġadult": 7336,
      "Ġgoverning": 7337,
      "Ġreceipt": 7338,
      "Up": 7339,
      "but": 7340,
      "fol": 7341,
      "Ġgross": 7342,
      "istent": 7343,
      "Ġjour": 7344,
      "Ġpublications": 7345,
      "Ġ95": 7346,
      "lege": 7347,
      "ĠCultural": 7348,
      "uten": 7349,
      "Ġstick": 7350,
      "osh": 7351,
      "Ġwidely": 7352,
      "DR": 7353,
      "Pri": 7354,
      "Ġmigration": 7355,
      "imize": 7356,
      "Ġalia": 7357,
      "Ġcovers": 7358,
      "Ġunc": 7359,
      "ĠChange": 7360,
      "Ġ54": 7361,
      "Ġvaluable": 7362,
      "Ġrepresenting": 7363,
      "unday": 7364,
      "Av": 7365,
      "FOR": 7366,
      "Ġdivision": 7367,
      "Ġnar": 7368,
      "ĠPeter": 7369,
      "ĠPakistan": 7370,
      "ĠMary": 7371,
      "lder": 7372,
      "ĠNewfoundland": 7373,
      "Ġviolation": 7374,
      "Ġhazard": 7375,
      "ĠCrime": 7376,
      "language": 7377,
      "oices": 7378,
      "ĠâĢ¦": 7379,
      "Ġcopies": 7380,
      "Back": 7381,
      "ek": 7382,
      "ican": 7383,
      "Ġindirect": 7384,
      "Ġroll": 7385,
      "ientific": 7386,
      "ĠÂ«": 7387,
      "2012": 7388,
      "ĠGuide": 7389,
      "Ġlicens": 7390,
      "Everything": 7391,
      "ĠRomania": 7392,
      "Ġadvertising": 7393,
      "Col": 7394,
      "Great": 7395,
      "Ġoral": 7396,
      "Ġsud": 7397,
      "emic": 7398,
      "Ġcoal": 7399,
      "Ġprejud": 7400,
      "Ġfinish": 7401,
      "ATE": 7402,
      "Ġpeaceful": 7403,
      "Should": 7404,
      "bi": 7405,
      "eters": 7406,
      "emporary": 7407,
      "Ġpermitted": 7408,
      "ellow": 7409,
      "Ġ51": 7410,
      "Ġprotecting": 7411,
      "ĠGeorge": 7412,
      "Ġpapers": 7413,
      "ĠRev": 7414,
      "Ġnewsp": 7415,
      "Ġestate": 7416,
      "bye": 7417,
      "ĠPartnership": 7418,
      "Ġ46": 7419,
      "Ġ56": 7420,
      "Ġflat": 7421,
      "Ġengage": 7422,
      "ĠPrinc": 7423,
      "habilitation": 7424,
      "Ġpure": 7425,
      "aria": 7426,
      "ĠâĢ¢": 7427,
      "Ġ49": 7428,
      "ĠPolitical": 7429,
      "EMENT": 7430,
      "Ġaccompanied": 7431,
      "quiry": 7432,
      "Ġlawyer": 7433,
      "ĠSchedule": 7434,
      "Â»": 7435,
      "Ġfisher": 7436,
      "Ġ88": 7437,
      "hesion": 7438,
      "ICEF": 7439,
      "arsh": 7440,
      "Ġclaimed": 7441,
      "Ġcontinuous": 7442,
      "Ġwelcomed": 7443,
      "Ġdriver": 7444,
      "Ġpleasure": 7445,
      "ĠCarib": 7446,
      "rating": 7447,
      "ĬÃ": 7448,
      "inf": 7449,
      "ĠSup": 7450,
      "Ġadults": 7451,
      "izations": 7452,
      "Ġincur": 7453,
      "ternoon": 7454,
      "Ġdefine": 7455,
      "Ġvisitors": 7456,
      "Ġaccommodation": 7457,
      "ĠKosovo": 7458,
      "rat": 7459,
      "yan": 7460,
      "Their": 7461,
      "ĠBack": 7462,
      "oked": 7463,
      "Ġunf": 7464,
      "Ġrefers": 7465,
      "Ġpresents": 7466,
      "Ġlists": 7467,
      "Ġtested": 7468,
      "novation": 7469,
      "haust": 7470,
      "ĠNGOs": 7471,
      "ras": 7472,
      "itud": 7473,
      "alent": 7474,
      "ailed": 7475,
      "Ġexperiment": 7476,
      "Ġclasses": 7477,
      "Ġdepartmental": 7478,
      "DA": 7479,
      "ym": 7480,
      "Ġou": 7481,
      "Ġcaught": 7482,
      "Ġdates": 7483,
      "Health": 7484,
      "Ġemployers": 7485,
      "Ġforecast": 7486,
      "2015": 7487,
      "Ġdistinct": 7488,
      "DG": 7489,
      "dep": 7490,
      "herent": 7491,
      "earing": 7492,
      "Ġended": 7493,
      "Ġtaxpay": 7494,
      "Ġinvestigations": 7495,
      "Ġhonour": 7496,
      "Ġmachines": 7497,
      "Ġsudden": 7498,
      "Â´": 7499,
      "Ġtalked": 7500,
      "Ġadjustment": 7501,
      "Ġmedicine": 7502,
      "Ġsympt": 7503,
      "84": 7504,
      "ician": 7505,
      "Ġdress": 7506,
      "lymp": 7507,
      "ĠTour": 7508,
      "Ġflag": 7509,
      "Ġgeographical": 7510,
      "Ġworkshops": 7511,
      "aud": 7512,
      "Ġsouthern": 7513,
      "esides": 7514,
      "isp": 7515,
      "change": 7516,
      "Ġorient": 7517,
      "ĠRen": 7518,
      "Ġspot": 7519,
      "Ġfool": 7520,
      "Ġsignal": 7521,
      "Ġfrequency": 7522,
      "Ġbelieves": 7523,
      "ilingual": 7524,
      "Ġweird": 7525,
      "endar": 7526,
      "Ġanywhere": 7527,
      "ĠMediterranean": 7528,
      "Ġsoldiers": 7529,
      "TE": 7530,
      "Wel": 7531,
      "Ġtree": 7532,
      "ĠBo": 7533,
      "ache": 7534,
      "Ġaccused": 7535,
      "Ġdisaster": 7536,
      "Ġactors": 7537,
      "Ġtransform": 7538,
      "Whereas": 7539,
      "garia": 7540,
      "Ġtranslation": 7541,
      "Bel": 7542,
      "ĠSector": 7543,
      "ĠAN": 7544,
      "Ġwear": 7545,
      "ĠInstit": 7546,
      "ĠVe": 7547,
      "Ġobjects": 7548,
      "Ġconformity": 7549,
      "Ġsucceed": 7550,
      "Tel": 7551,
      "{\\": 7552,
      "Ġinn": 7553,
      "ĠNatural": 7554,
      "Ġcorruption": 7555,
      "ĠReports": 7556,
      "ĠPlanning": 7557,
      "ĠPresidency": 7558,
      "Sure": 7559,
      "Ġcouncil": 7560,
      "ĠAP": 7561,
      "Ġcomprom": 7562,
      "Ġsubsc": 7563,
      "Ġfinds": 7564,
      "Ġlargely": 7565,
      "Ġcoordinated": 7566,
      "Ġenterprise": 7567,
      "ĠâĤ¬": 7568,
      "79": 7569,
      "Ġhang": 7570,
      "lla": 7571,
      "iled": 7572,
      "ĠDocument": 7573,
      "Ġoffences": 7574,
      "ĠAssistance": 7575,
      "2014": 7576,
      "Ġfunctioning": 7577,
      "Ġdiam": 7578,
      "Ġsurveys": 7579,
      "Ġsamples": 7580,
      "71": 7581,
      "Home": 7582,
      "ĠHi": 7583,
      "Ġestimate": 7584,
      "Ġpayable": 7585,
      "Ġmobility": 7586,
      "ĠMarket": 7587,
      "ĠNorway": 7588,
      "serv": 7589,
      "oured": 7590,
      "Ġapplicants": 7591,
      "Ġ02": 7592,
      "ĠPrince": 7593,
      "onstruction": 7594,
      "Ġexpectations": 7595,
      "Ġteacher": 7596,
      "ench": 7597,
      "Ġtoler": 7598,
      "stan": 7599,
      "Ġdoct": 7600,
      "Ġmonthly": 7601,
      "Ġwarning": 7602,
      "Ġstressed": 7603,
      "ĠCongress": 7604,
      "Ġfabric": 7605,
      "76": 7606,
      "Sm": 7607,
      "Ġscared": 7608,
      "Ġqualifications": 7609,
      "ĠCOMM": 7610,
      "Ġrig": 7611,
      "âĢĺ": 7612,
      "agues": 7613,
      "Ġdisarmament": 7614,
      "ĠKy": 7615,
      "ĠLeg": 7616,
      "ylum": 7617,
      "Ġerr": 7618,
      "ĠBlack": 7619,
      "Ġmemory": 7620,
      "Ġmillions": 7621,
      "Based": 7622,
      "Ġcards": 7623,
      "icted": 7624,
      "Ġstab": 7625,
      "Ġvocational": 7626,
      "Ġrelax": 7627,
      "ĠVancouver": 7628,
      "Ġtruly": 7629,
      "Ġratio": 7630,
      "Ġacquired": 7631,
      "Ġarrested": 7632,
      "ĠCapital": 7633,
      "Ġacquisition": 7634,
      "ĠSudan": 7635,
      "via": 7636,
      "itro": 7637,
      "Ġhunt": 7638,
      "ĠPress": 7639,
      "Ġarising": 7640,
      "ĠProperty": 7641,
      "Ġscene": 7642,
      "Ġrefund": 7643,
      "ECD": 7644,
      "Ġideal": 7645,
      "sequently": 7646,
      "Ġmeasurement": 7647,
      "Ġidentifying": 7648,
      "Ġinstallation": 7649,
      "ĠIslamic": 7650,
      "born": 7651,
      "spe": 7652,
      "Ġesc": 7653,
      "hetic": 7654,
      "requ": 7655,
      "Ġble": 7656,
      "celer": 7657,
      "Ġrul": 7658,
      "obby": 7659,
      "Ġfalling": 7660,
      "Ġderived": 7661,
      "Given": 7662,
      "Ġnurs": 7663,
      "Ġhero": 7664,
      "Ġnotification": 7665,
      "ĠTask": 7666,
      "Ġspoke": 7667,
      "ĠChamber": 7668,
      "prus": 7669,
      "Ġharvest": 7670,
      "Ġstopped": 7671,
      "ĠSMEs": 7672,
      "Ġsch": 7673,
      "Ġsides": 7674,
      "Ġboss": 7675,
      "ĠCroat": 7676,
      "ĠHam": 7677,
      "Ġimages": 7678,
      "Ġflights": 7679,
      "Ġfaced": 7680,
      "Ġsyn": 7681,
      "ĠChristmas": 7682,
      "Ġpictures": 7683,
      "ĠInvestment": 7684,
      "iferation": 7685,
      "ĠInternal": 7686,
      "Ġproducer": 7687,
      "Ġpursue": 7688,
      "Ġ04": 7689,
      "ashion": 7690,
      "CS": 7691,
      "mination": 7692,
      "Ġau": 7693,
      "inery": 7694,
      "Ġcas": 7695,
      "ĠMom": 7696,
      "umin": 7697,
      "Ġaged": 7698,
      "ribe": 7699,
      "Ġreliable": 7700,
      "Ġparticipated": 7701,
      "Section": 7702,
      "alt": 7703,
      "urning": 7704,
      "ĠExt": 7705,
      "tered": 7706,
      "Ġworker": 7707,
      "ailing": 7708,
      "ĠEmploy": 7709,
      "Ġevaluate": 7710,
      "Ġsanctions": 7711,
      "aturday": 7712,
      "Ã±": 7713,
      "Ġsnow": 7714,
      "ĠSome": 7715,
      "ĠMichael": 7716,
      "ĠMonday": 7717,
      "Ġexecutive": 7718,
      "Ġvan": 7719,
      "Ġ53": 7720,
      "Ġdeter": 7721,
      "ECE": 7722,
      "ashington": 7723,
      "Ġkinds": 7724,
      "Ġecosystem": 7725,
      "Ġmistake": 7726,
      "Ġparliamentary": 7727,
      "Ġsuit": 7728,
      "Ġuncertain": 7729,
      "Ġshouldn": 7730,
      "Ġsettle": 7731,
      "Ġoperator": 7732,
      "iversary": 7733,
      "Ġbroke": 7734,
      "Ġlessons": 7735,
      "ĠCountries": 7736,
      "Ġappreciate": 7737,
      "ĠHonourable": 7738,
      "ommendation": 7739,
      "Put": 7740,
      "Ġhorse": 7741,
      "Ġimpl": 7742,
      "Ġdistingu": 7743,
      "Ġbrand": 7744,
      "Ġheads": 7745,
      "Ġschemes": 7746,
      "Ġintelligence": 7747,
      "BC": 7748,
      "Ġwire": 7749,
      "Ġshift": 7750,
      "Ġregret": 7751,
      "affirm": 7752,
      "Ġdealt": 7753,
      "second": 7754,
      "Ġbiological": 7755,
      "ĠSummary": 7756,
      "LO": 7757,
      "Ġreaction": 7758,
      "ida": 7759,
      "Ġassume": 7760,
      "Ġorganic": 7761,
      "Ġequity": 7762,
      "Ġafternoon": 7763,
      "lets": 7764,
      "Ġyield": 7765,
      "urt": 7766,
      "ĠRoad": 7767,
      "ĠOur": 7768,
      "ĠOlymp": 7769,
      "Three": 7770,
      "oves": 7771,
      "everal": 7772,
      "minister": 7773,
      "Ġequipped": 7774,
      "grat": 7775,
      "Ġsquare": 7776,
      "83": 7777,
      "aire": 7778,
      "Ġfill": 7779,
      "ĠEX": 7780,
      "ĠNav": 7781,
      "Inter": 7782,
      "Ġ52": 7783,
      "Ġjudges": 7784,
      "Ġships": 7785,
      "Ġoutlined": 7786,
      "ĠSupreme": 7787,
      "ye": 7788,
      "Ġaer": 7789,
      "Ġsad": 7790,
      "ĠCOU": 7791,
      "igrant": 7792,
      "Ġfoundation": 7793,
      "1998": 7794,
      "Ġtrading": 7795,
      "89": 7796,
      "Rel": 7797,
      "cles": 7798,
      "eu": 7799,
      "ĠRich": 7800,
      "Ġevil": 7801,
      "ĠCharl": 7802,
      "Ġtransfers": 7803,
      "Ġinfect": 7804,
      "IONS": 7805,
      "Ġcritic": 7806,
      "Ġwarrant": 7807,
      "Ġmovie": 7808,
      "Ġvotes": 7809,
      "ĠTransportation": 7810,
      "ĠDelegation": 7811,
      "DU": 7812,
      "col": 7813,
      "Ġsatellite": 7814,
      "Ġkg": 7815,
      "Ġresid": 7816,
      "orship": 7817,
      "Ġ150": 7818,
      "ĠCaribbean": 7819,
      "uate": 7820,
      "Ġrequiring": 7821,
      "ĠStatement": 7822,
      "EST": 7823,
      "Ġsubsequently": 7824,
      "Ġeliminate": 7825,
      "ĠTerritories": 7826,
      "::": 7827,
      "het": 7828,
      "ĠEvery": 7829,
      "ĠRisk": 7830,
      "ountry": 7831,
      "ĠUnivers": 7832,
      "Ġemail": 7833,
      "posal": 7834,
      "ĠThursday": 7835,
      "Ġcompetitiveness": 7836,
      "Ġsubjects": 7837,
      "Ġfiling": 7838,
      "Special": 7839,
      "82": 7840,
      "hered": 7841,
      "Ġtheory": 7842,
      "oria": 7843,
      "Ġheight": 7844,
      "Ġkiss": 7845,
      "anguages": 7846,
      "rorism": 7847,
      "iliar": 7848,
      "ĠPerformance": 7849,
      "MA": 7850,
      "tes": 7851,
      "Ġtow": 7852,
      "Ġment": 7853,
      "Ġgap": 7854,
      "Ġweren": 7855,
      "ĠRem": 7856,
      "ĠHere": 7857,
      "Ġbull": 7858,
      "Ġprompt": 7859,
      "Ġconsiderations": 7860,
      "Ġmotion": 7861,
      "Ġexposed": 7862,
      "Ġhouses": 7863,
      "Ġtransparent": 7864,
      "Ġpregnant": 7865,
      "Ġcongrat": 7866,
      "ĠOR": 7867,
      "Ġintermedi": 7868,
      "Ġinternationally": 7869,
      "Ġhistoric": 7870,
      "))": 7871,
      "zone": 7872,
      "itÃ©": 7873,
      "illa": 7874,
      "Ġcomposition": 7875,
      "Ġcertification": 7876,
      "Ġsaved": 7877,
      "Ġgift": 7878,
      "Ġpaying": 7879,
      "Ġorganizational": 7880,
      "Ġclassified": 7881,
      "Ġartists": 7882,
      "Indeed": 7883,
      "Ġappeared": 7884,
      "Despite": 7885,
      "Ġwest": 7886,
      "ĠSol": 7887,
      "plan": 7888,
      "ago": 7889,
      "Ġplane": 7890,
      "ĠQuality": 7891,
      "Ġexplore": 7892,
      "ĠAssistant": 7893,
      "THE": 7894,
      "ĠCase": 7895,
      "Ġstories": 7896,
      "holder": 7897,
      "ilipp": 7898,
      "Ġsavings": 7899,
      "ĠREG": 7900,
      "Gl": 7901,
      "field": 7902,
      "pin": 7903,
      "Ġast": 7904,
      "stat": 7905,
      "verse": 7906,
      "ifth": 7907,
      "Ġride": 7908,
      "ĠLie": 7909,
      "Ġsovere": 7910,
      "Ġreply": 7911,
      "Ġgenerated": 7912,
      "ĠCyprus": 7913,
      "orough": 7914,
      "Ġelev": 7915,
      "ĠSearch": 7916,
      "ĠMer": 7917,
      "abet": 7918,
      "illy": 7919,
      "Ġ59": 7920,
      "Ġreflects": 7921,
      "Ġargued": 7922,
      "Ġscreening": 7923,
      "Ġadvisory": 7924,
      "Ġexhaust": 7925,
      "estival": 7926,
      "ĠTop": 7927,
      "ĠTun": 7928,
      "Ġincomp": 7929,
      "Ġinterim": 7930,
      "Ġlocations": 7931,
      "Ġcondem": 7932,
      "Ġleads": 7933,
      "Ġseconds": 7934,
      "ĠStanding": 7935,
      "Ġutil": 7936,
      "Ġrailway": 7937,
      "Ġtub": 7938,
      "inating": 7939,
      "Ġlying": 7940,
      "Ġblow": 7941,
      "ITY": 7942,
      "Ġsubstantive": 7943,
      "ĠForest": 7944,
      "Ġaccurate": 7945,
      "Ġlaboratory": 7946,
      "Ġcart": 7947,
      "Ġhoc": 7948,
      "utch": 7949,
      "ilty": 7950,
      "ĠRule": 7951,
      "Ġseats": 7952,
      "Ġcontrast": 7953,
      "Ġentrepren": 7954,
      "Ġtrees": 7955,
      "anny": 7956,
      "Ġanswers": 7957,
      "Ġresolve": 7958,
      "Ġaffecting": 7959,
      "ĠPaper": 7960,
      "Ġwatching": 7961,
      "ĠJapanese": 7962,
      "Ġarrived": 7963,
      "Ġcarrier": 7964,
      ".).": 7965,
      "inced": 7966,
      "Ġpip": 7967,
      "Ġtob": 7968,
      "osc": 7969,
      "Ġsomewhere": 7970,
      "rows": 7971,
      "Ġ03": 7972,
      "Ġkilling": 7973,
      "Ġconcentrations": 7974,
      "DI": 7975,
      "Description": 7976,
      "iments": 7977,
      "look": 7978,
      "itals": 7979,
      "orand": 7980,
      "ĠEc": 7981,
      "ĠNig": 7982,
      "ĠCenter": 7983,
      "ourage": 7984,
      "Ġproceeding": 7985,
      "Ġsounds": 7986,
      "Develop": 7987,
      "Ġdrawing": 7988,
      "LY": 7989,
      "ds": 7990,
      "ĠCP": 7991,
      "Ġabandon": 7992,
      "Ġbelief": 7993,
      "ORD": 7994,
      "Ġcommunicate": 7995,
      "Ġhonest": 7996,
      "ĠGeorg": 7997,
      "ĠObject": 7998,
      "Ġhoriz": 7999,
      "Ġacademic": 8000,
      "Total": 8001,
      "hand": 8002,
      "Ġpp": 8003,
      "utical": 8004,
      "ĠSir": 8005,
      "ĠPract": 8006,
      "Ġstip": 8007,
      "ĠOcc": 8008,
      "ipality": 8009,
      "Ġdisability": 8010,
      "liers": 8011,
      "Ġsmell": 8012,
      "ICE": 8013,
      "Ġguarantees": 8014,
      "Ġenlarge": 8015,
      "utenant": 8016,
      "orandum": 8017,
      "613": 8018,
      "Got": 8019,
      "Ġhey": 8020,
      "Ġnobody": 8021,
      "Ġ09": 8022,
      "Ġsmart": 8023,
      "ĠAny": 8024,
      "Ġconstant": 8025,
      "Ġstronger": 8026,
      "Ãĥ": 8027,
      "Ġque": 8028,
      "chnology": 8029,
      "ĠCollege": 8030,
      "Ġentirely": 8031,
      "iner": 8032,
      "Ġorganised": 8033,
      "ategory": 8034,
      "ĠLead": 8035,
      "Ġunto": 8036,
      "ĠAllah": 8037,
      "Ġdestination": 8038,
      "Ġimmigration": 8039,
      "ĠStandard": 8040,
      "Key": 8041,
      "Rep": 8042,
      "SR": 8043,
      "Time": 8044,
      "ls": 8045,
      "Ġtun": 8046,
      "utors": 8047,
      "Ġsum": 8048,
      "pling": 8049,
      "Ġsequ": 8050,
      "Ġcolon": 8051,
      "Ġtreaties": 8052,
      "Ġarrangement": 8053,
      "72": 8054,
      "rison": 8055,
      "Ġpour": 8056,
      "Ġprol": 8057,
      "Ġpropose": 8058,
      "ilos": 8059,
      "Ġamazing": 8060,
      "Ġinfection": 8061,
      "ĠTrust": 8062,
      "ĠProvince": 8063,
      "ĠPrior": 8064,
      "ĠGreek": 8065,
      "Ġworried": 8066,
      "itchen": 8067,
      "ĠBosnia": 8068,
      "Out": 8069,
      "gest": 8070,
      "alse": 8071,
      "arry": 8072,
      "ourse": 8073,
      "Ġresc": 8074,
      "berg": 8075,
      "sufficient": 8076,
      "Requ": 8077,
      "Ġencouraging": 8078,
      "OPE": 8079,
      "Ġpatterns": 8080,
      "Ġdestroyed": 8081,
      "86": 8082,
      "NC": 8083,
      "ĠOpt": 8084,
      "Americ": 8085,
      "Ġexcluded": 8086,
      "aked": 8087,
      "Ġcomplement": 8088,
      "Ġperpet": 8089,
      "ĠVis": 8090,
      "ĠArgent": 8091,
      "ĠAbout": 8092,
      "Ġcontacts": 8093,
      "Ġtonnes": 8094,
      "ĠStandards": 8095,
      "ĠMoroc": 8096,
      "Figure": 8097,
      "Ġbomb": 8098,
      "Ġran": 8099,
      "Ġworkplace": 8100,
      "Ġteach": 8101,
      "Ġcarefully": 8102,
      "Ġsustainability": 8103,
      "Ġmandatory": 8104,
      "Ġphoto": 8105,
      "Ġuniversities": 8106,
      "Ġmortality": 8107,
      ")-": 8108,
      "Make": 8109,
      "ichel": 8110,
      "Ġhat": 8111,
      "Ġru": 8112,
      "Ġhandling": 8113,
      "ĠExcell": 8114,
      "ĠIslands": 8115,
      "Ġplayer": 8116,
      "atories": 8117,
      "Ġbusy": 8118,
      "Fuck": 8119,
      "Ob": 8120,
      "Ġtail": 8121,
      "ato": 8122,
      "itis": 8123,
      "Ġpill": 8124,
      "Ġamending": 8125,
      "Ġdetain": 8126,
      "isms": 8127,
      "Ġsupplement": 8128,
      "Ġillness": 8129,
      "ĠStatus": 8130,
      "Ġcomplainant": 8131,
      "Ġbattle": 8132,
      "Ġliberal": 8133,
      "ora": 8134,
      "Ġfib": 8135,
      "Ġbud": 8136,
      "Ġeast": 8137,
      "ĠCond": 8138,
      "ĠTime": 8139,
      "Ġpossibly": 8140,
      "ienna": 8141,
      "Ġsuccessfully": 8142,
      "regional": 8143,
      "Ġdescribe": 8144,
      "ĠProcedure": 8145,
      "QU": 8146,
      "uine": 8147,
      "Ġtight": 8148,
      "ĠCulture": 8149,
      "Ġsuspect": 8150,
      "plus": 8151,
      "pliance": 8152,
      "ĠJim": 8153,
      "Ġuns": 8154,
      "Ġgenetic": 8155,
      "ĠSlovak": 8156,
      "Ġrapidly": 8157,
      "Ġtobacco": 8158,
      "Ġcodes": 8159,
      "aser": 8160,
      "ĠParks": 8161,
      "inea": 8162,
      "ĠAsian": 8163,
      "Ġindication": 8164,
      "ĠPrograms": 8165,
      "Ġelsewhere": 8166,
      "Ġfrequently": 8167,
      "ĠSloven": 8168,
      "Ġexclus": 8169,
      "Ġflexible": 8170,
      "Ġinventory": 8171,
      "Ġbirds": 8172,
      "onic": 8173,
      "Ġbeach": 8174,
      "Ġwheel": 8175,
      "Ġcommod": 8176,
      "Ġrot": 8177,
      "Ġformation": 8178,
      "Ġterrible": 8179,
      "Ġvisible": 8180,
      "exp": 8181,
      "ĠScientific": 8182,
      "Ġdomain": 8183,
      "Ġwelfare": 8184,
      "which": 8185,
      "Ġwalking": 8186,
      "Ġordered": 8187,
      "ĠThanks": 8188,
      "och": 8189,
      "Ġfoster": 8190,
      "Ġborrow": 8191,
      "Ġreiter": 8192,
      "ĠHy": 8193,
      "Ġchick": 8194,
      "ounter": 8195,
      "Ġrac": 8196,
      "Ġ?????": 8197,
      "Ġbridge": 8198,
      "State": 8199,
      "Ġnecessarily": 8200,
      "Ġcalendar": 8201,
      "Ġmotiv": 8202,
      "Ġrenewal": 8203,
      "Ġreserves": 8204,
      "ĠTariff": 8205,
      "ĠHungary": 8206,
      "74": 8207,
      "vol": 8208,
      "Â·": 8209,
      "ano": 8210,
      "Ġinternet": 8211,
      "Ġlunch": 8212,
      "teen": 8213,
      "Ġclothes": 8214,
      "Ġstudied": 8215,
      "Ġvirus": 8216,
      "Ġpieces": 8217,
      "ĠAlex": 8218,
      "ĠName": 8219,
      "Ġmanual": 8220,
      "Ġattended": 8221,
      "Ġexplos": 8222,
      "Ġvisual": 8223,
      "ĠAppro": 8224,
      "Ġpenalty": 8225,
      "roc": 8226,
      "omas": 8227,
      "Ġchamp": 8228,
      "Ġemission": 8229,
      "Ġblog": 8230,
      "Ġsupervision": 8231,
      "Ġappreciation": 8232,
      "Ġabsolutely": 8233,
      "Ġrestaurant": 8234,
      "Mon": 8235,
      "arp": 8236,
      "elle": 8237,
      "Ġ64": 8238,
      "enza": 8239,
      "800": 8240,
      "first": 8241,
      "Ġconstitutional": 8242,
      "ams": 8243,
      "Ġshop": 8244,
      "obody": 8245,
      "Ġcontributing": 8246,
      "venth": 8247,
      "ĠCompet": 8248,
      "ĠSwiss": 8249,
      "Ġengineering": 8250,
      "ĠMuslim": 8251,
      "ĠRCMP": 8252,
      ".:": 8253,
      "word": 8254,
      "Ġtired": 8255,
      "arf": 8256,
      "asy": 8257,
      "reshold": 8258,
      "ĠFrom": 8259,
      "Ġplays": 8260,
      "Ġ400": 8261,
      "uthors": 8262,
      "Ġintergovernmental": 8263,
      "Ġdefic": 8264,
      "Ġveter": 8265,
      "Ġtopics": 8266,
      "rador": 8267,
      "ĠIndustrial": 8268,
      "Ġlucky": 8269,
      "Ġdivided": 8270,
      "Ġrecruitment": 8271,
      "Ġbiennium": 8272,
      "Ottawa": 8273,
      "vant": 8274,
      "Ġiron": 8275,
      "iture": 8276,
      "eding": 8277,
      "ĠNun": 8278,
      "ĠLife": 8279,
      "ĠWashington": 8280,
      "Ġtransit": 8281,
      "Ġcapabilities": 8282,
      "Ġratification": 8283,
      "Environment": 8284,
      "Ġoccupied": 8285,
      "Ġphenomen": 8286,
      "Was": 8287,
      "Ġwealth": 8288,
      "Ġrational": 8289,
      "duction": 8290,
      "Ġmanif": 8291,
      "anger": 8292,
      "Ġfunctional": 8293,
      "Ġphotos": 8294,
      "Ġarrival": 8295,
      "Ġfraud": 8296,
      "ĠCTMR": 8297,
      "Ġslightly": 8298,
      "ĠBroadcasting": 8299,
      "Ġtables": 8300,
      "Ġwestern": 8301,
      "Ġdeals": 8302,
      "ĠTerm": 8303,
      "ommy": 8304,
      "Ġbrings": 8305,
      "Ġaddresses": 8306,
      "Ġheadquarters": 8307,
      "Ġmethodology": 8308,
      "Ġkidding": 8309,
      "ĠEngland": 8310,
      "Ġstruggle": 8311,
      "Pur": 8312,
      "iaries": 8313,
      "entral": 8314,
      "embers": 8315,
      "ĠBenef": 8316,
      "Ġintent": 8317,
      "aceutical": 8318,
      "Ġsignature": 8319,
      "Ġequally": 8320,
      "Ġadministered": 8321,
      "ĠPublications": 8322,
      "Ġlaying": 8323,
      "Help": 8324,
      "Imp": 8325,
      "WA": 8326,
      "WP": 8327,
      "sper": 8328,
      "anÃ§": 8329,
      "ĠAR": 8330,
      "ocuments": 8331,
      "Program": 8332,
      "idden": 8333,
      "Ġstrengthened": 8334,
      "Ġautomatically": 8335,
      "Ġdependent": 8336,
      "Ġcolleagues": 8337,
      "Ġfly": 8338,
      "Ġfol": 8339,
      "Ġattain": 8340,
      "sues": 8341,
      "ĠParticip": 8342,
      "Ġanniversary": 8343,
      "Ġdeliber": 8344,
      "Ġmissed": 8345,
      "Ġmagn": 8346,
      "Ġworst": 8347,
      "inth": 8348,
      "erate": 8349,
      "Ġcable": 8350,
      "Ġbreed": 8351,
      "Ġreact": 8352,
      "Ġasylum": 8353,
      "ĠFA": 8354,
      "ĠJames": 8355,
      "Ġsecurities": 8356,
      "ĠEnter": 8357,
      "Ġperiodic": 8358,
      "ĠQueen": 8359,
      "rÃ©al": 8360,
      "Ġlegitimate": 8361,
      "ĠLisbon": 8362,
      "rators": 8363,
      "Ġwet": 8364,
      "ĠAG": 8365,
      "tery": 8366,
      "Ġimper": 8367,
      "Ġproducing": 8368,
      "Ġacceler": 8369,
      "Without": 8370,
      "ĠRobert": 8371,
      "ker": 8372,
      "Ġsight": 8373,
      "Ġwake": 8374,
      "rag": 8375,
      "ulous": 8376,
      "ersion": 8377,
      "ciliation": 8378,
      "Ġinterventions": 8379,
      "arling": 8380,
      "Ġsummar": 8381,
      "Ġopinions": 8382,
      "Among": 8383,
      "IGH": 8384,
      "Ã³n": 8385,
      "Ġrestricted": 8386,
      "arn": 8387,
      "Ġprote": 8388,
      "Ġrub": 8389,
      "arding": 8390,
      "iously": 8391,
      "Ġcorner": 8392,
      "enny": 8393,
      "ĠDesign": 8394,
      "ĠPrivacy": 8395,
      "CL": 8396,
      "iability": 8397,
      "Ġstocks": 8398,
      "Ġcontroll": 8399,
      "Ġrecover": 8400,
      "Ġrepair": 8401,
      "Ġsuggests": 8402,
      "Ġstrike": 8403,
      "Ġpassenger": 8404,
      "ement": 8405,
      "Ġcod": 8406,
      "ĠCall": 8407,
      "ĠSunday": 8408,
      "Ġflood": 8409,
      "inafter": 8410,
      "ĠCoordin": 8411,
      "ADA": 8412,
      "ĠLabrador": 8413,
      "Something": 8414,
      "ĠBulgaria": 8415,
      "list": 8416,
      "ooth": 8417,
      "Ġmiles": 8418,
      "amin": 8419,
      "ĠRail": 8420,
      "ocked": 8421,
      "Ġquestionna": 8422,
      "Ġtrials": 8423,
      "Ã¨re": 8424,
      "Ġwedding": 8425,
      "def": 8426,
      "anz": 8427,
      "Ġlaugh": 8428,
      "ĠFort": 8429,
      "bert": 8430,
      "Ġguilty": 8431,
      "Ġbless": 8432,
      "Ġcolor": 8433,
      "IVE": 8434,
      "Ġsynt": 8435,
      "Ġhonor": 8436,
      "Ġprohibited": 8437,
      "Ġpig": 8438,
      "Ġenabling": 8439,
      "Ġcommun": 8440,
      "adequ": 8441,
      "Ã©l": 8442,
      "Ġacceptance": 8443,
      "ĠBritain": 8444,
      "Ġdimension": 8445,
      "Ġobstacles": 8446,
      "FO": 8447,
      "rator": 8448,
      "zy": 8449,
      "Ġsen": 8450,
      "Ġdign": 8451,
      "Ġrough": 8452,
      "umes": 8453,
      "Ġkick": 8454,
      "Ġdonors": 8455,
      "Ġracial": 8456,
      "being": 8457,
      "IST": 8458,
      "Ġaccordingly": 8459,
      "ĠDisclosure": 8460,
      "Ġfifth": 8461,
      "Ġliterature": 8462,
      "Ġintern": 8463,
      "icate": 8464,
      "Ġdivers": 8465,
      "leted": 8466,
      "ithu": 8467,
      "ĠLo": 8468,
      "Ġasset": 8469,
      "ĠVI": 8470,
      "Ġ77": 8471,
      "ĠManufact": 8472,
      "ĠStep": 8473,
      "Ġrefugee": 8474,
      "ioned": 8475,
      "arus": 8476,
      "imates": 8477,
      "Ġconj": 8478,
      "akh": 8479,
      "Ġtrained": 8480,
      "Ġ92": 8481,
      "ĠUNDP": 8482,
      "Ġsignificance": 8483,
      "Ġconclude": 8484,
      "Ġrepeated": 8485,
      "Ġremoval": 8486,
      "Ġingred": 8487,
      "orney": 8488,
      "ulatory": 8489,
      "ATO": 8490,
      "Ġsuppliers": 8491,
      "Ġgenuine": 8492,
      "Ġswim": 8493,
      "Food": 8494,
      "Several": 8495,
      "TM": 8496,
      "Ġtiss": 8497,
      "ĠHall": 8498,
      "Ġalb": 8499,
      "ĠIncome": 8500,
      "Ġinvitation": 8501,
      "azine": 8502,
      "prov": 8503,
      "vi": 8504,
      "ĠÎ": 8505,
      "ĠBuilding": 8506,
      "ĠObs": 8507,
      "Ġcontents": 8508,
      "Ġjump": 8509,
      "Ġhereby": 8510,
      "Ġrare": 8511,
      "Ġretirement": 8512,
      "Ġposted": 8513,
      "Ġcitizen": 8514,
      "Ġquantities": 8515,
      "Ġinstalled": 8516,
      "Ġrecipient": 8517,
      "grading": 8518,
      "Ġtherapy": 8519,
      "Ġgarden": 8520,
      "ĠIr": 8521,
      "Ġ61": 8522,
      "Ġcapac": 8523,
      "ĠSpec": 8524,
      "ductions": 8525,
      "Ġengagement": 8526,
      "ependent": 8527,
      "Actually": 8528,
      "stein": 8529,
      "!\"": 8530,
      "Nice": 8531,
      "inte": 8532,
      "Ġborders": 8533,
      "icing": 8534,
      "ĠCC": 8535,
      "Ġupper": 8536,
      "Ġwearing": 8537,
      "Ġselling": 8538,
      "ĠCommunication": 8539,
      "erved": 8540,
      "ildren": 8541,
      "never": 8542,
      "Ġmineral": 8543,
      "Ġexceeding": 8544,
      "Ġpunishment": 8545,
      "Ġenemy": 8546,
      "Ġexclusively": 8547,
      "rich": 8548,
      "Ġrehabilitation": 8549,
      "ĠCaptain": 8550,
      "Ġstone": 8551,
      "ĠDescription": 8552,
      "ĠNO": 8553,
      "Ġvast": 8554,
      "ĠWild": 8555,
      "ĠJul": 8556,
      "Ġusual": 8557,
      "Ġevol": 8558,
      "Ġsheet": 8559,
      "Ġrevision": 8560,
      "Ġsmoke": 8561,
      "ĠManager": 8562,
      "Project": 8563,
      "Ġfreedoms": 8564,
      "Ġconvinced": 8565,
      "ulsory": 8566,
      "Ġcamera": 8567,
      "IAL": 8568,
      "Ter": 8569,
      "ĠAS": 8570,
      "ĠEP": 8571,
      "oseph": 8572,
      "Ġrelate": 8573,
      "mbuds": 8574,
      "Ġsurg": 8575,
      "ĠActivities": 8576,
      "grated": 8577,
      "Ġconducting": 8578,
      "Ġbroader": 8579,
      "Ġtopic": 8580,
      "Ġpreventing": 8581,
      "burse": 8582,
      "Ġimagine": 8583,
      "govina": 8584,
      "Ġexemption": 8585,
      "ĠHR": 8586,
      "ĠHen": 8587,
      "ĠJac": 8588,
      "Ġbutton": 8589,
      "Ġguests": 8590,
      "Ġmeets": 8591,
      "Ġrain": 8592,
      "Ġaffili": 8593,
      "ĠCuba": 8594,
      "Ġexplanation": 8595,
      "ĠLebanon": 8596,
      "Ġsymptoms": 8597,
      "AIN": 8598,
      "Human": 8599,
      "gage": 8600,
      "Ġtack": 8601,
      "Ġmuseum": 8602,
      "sell": 8603,
      "ĠLanguages": 8604,
      "Ġdismiss": 8605,
      "Ġemot": 8606,
      "Ġflows": 8607,
      "Ġannually": 8608,
      "Ġsalary": 8609,
      "zegovina": 8610,
      "Ġoccupation": 8611,
      "Ġexclusive": 8612,
      "ĠPopulation": 8613,
      "\")": 8614,
      "Ġsending": 8615,
      "Ġthorough": 8616,
      "ĠGR": 8617,
      "aneous": 8618,
      "Ġaudience": 8619,
      "Ġseemed": 8620,
      "Ġsurvival": 8621,
      "Ġexpanded": 8622,
      "Ġsurprise": 8623,
      "ĠRadio": 8624,
      "Ġcig": 8625,
      "Ġbio": 8626,
      "ĠCath": 8627,
      "iration": 8628,
      "ĠLear": 8629,
      "pty": 8630,
      "Ġcook": 8631,
      "Ġpossess": 8632,
      "Ġinfring": 8633,
      "Ġregarded": 8634,
      "Government": 8635,
      "Ġdefinitely": 8636,
      "Ġrenewable": 8637,
      "Ġrevealed": 8638,
      "called": 8639,
      "ieth": 8640,
      "Ġfert": 8641,
      "ĠAU": 8642,
      "ĠPS": 8643,
      "ĠPen": 8644,
      "Ġmerely": 8645,
      "ĠWednesday": 8646,
      "ĠJo": 8647,
      "ĠVienna": 8648,
      "Ġraw": 8649,
      "Ġmarry": 8650,
      "Ġchecks": 8651,
      "ĠHotel": 8652,
      "ky": 8653,
      "Ġmac": 8654,
      "Ġthreshold": 8655,
      "vert": 8656,
      "ĠTom": 8657,
      "Ġalt": 8658,
      "ĠArctic": 8659,
      "Ġ97": 8660,
      "Ġ99": 8661,
      "cling": 8662,
      "Ġwelcomes": 8663,
      "Ġimmigrants": 8664,
      "Ġpredict": 8665,
      "Ġhighlighted": 8666,
      "Ġtroops": 8667,
      "MC": 8668,
      "Ġmo": 8669,
      "utation": 8670,
      "ĠPC": 8671,
      "ĠPension": 8672,
      "Ġassembly": 8673,
      "ĠBC": 8674,
      "ĠFinal": 8675,
      "third": 8676,
      "Ġunderlying": 8677,
      "ĠArmen": 8678,
      "Ġthinks": 8679,
      "ACT": 8680,
      "Ġpreparations": 8681,
      "Ġsolidarity": 8682,
      "Ġcooperate": 8683,
      "Ġcomfortable": 8684,
      "Ġsurrounding": 8685,
      "ĠLimited": 8686,
      ".??": 8687,
      "Ġgrown": 8688,
      "ĠME": 8689,
      "ĠRES": 8690,
      "ĠHosp": 8691,
      "ĠLes": 8692,
      "Ġspok": 8693,
      "Ġmining": 8694,
      "2016": 8695,
      "itizens": 8696,
      "Ġguaranteed": 8697,
      "ĠSystems": 8698,
      "Ġdecreased": 8699,
      "ĠCBSA": 8700,
      "?(": 8701,
      "lean": 8702,
      "ĠCross": 8703,
      "Ġchart": 8704,
      "Ġaggress": 8705,
      "Ġpermission": 8706,
      "Ġfamiliar": 8707,
      "Ġcompetence": 8708,
      "ISS": 8709,
      "ealand": 8710,
      "ĠNorthwest": 8711,
      "Ġatmosphere": 8712,
      "Ġcustody": 8713,
      "TV": 8714,
      "Ġhall": 8715,
      "Ġdecades": 8716,
      "conf": 8717,
      "Ġstrange": 8718,
      "ĠSpace": 8719,
      "ĠIndones": 8720,
      "Ġmovements": 8721,
      "Ġexclusion": 8722,
      "Ġbullet": 8723,
      "Ġobviously": 8724,
      "Ġinnoc": 8725,
      "border": 8726,
      "Ġfalse": 8727,
      "ĠPan": 8728,
      "Ġcomposed": 8729,
      "anches": 8730,
      "Ġ67": 8731,
      "Ġmode": 8732,
      "Ġartist": 8733,
      "Ġexceptional": 8734,
      "ĠMonitoring": 8735,
      "Ġreaching": 8736,
      "Ġassumed": 8737,
      "Ġparameters": 8738,
      "ih": 8739,
      "Ġsin": 8740,
      "Ġfilled": 8741,
      "Ġfashion": 8742,
      "ĠAB": 8743,
      "ĠMult": 8744,
      "ĠBet": 8745,
      "Ġunlike": 8746,
      "Ġinvite": 8747,
      "ANN": 8748,
      "Ġexplicit": 8749,
      "Chapter": 8750,
      "ĠPhilipp": 8751,
      "ATIONS": 8752,
      "ĠMedical": 8753,
      "Ġordinary": 8754,
      "ĠCroatia": 8755,
      "Cause": 8756,
      "bel": 8757,
      "Ġpump": 8758,
      "Ġpaint": 8759,
      "ĠSaturday": 8760,
      "ĠPass": 8761,
      "ĠMax": 8762,
      "esting": 8763,
      "ixth": 8764,
      "Ġinflation": 8765,
      "Ġscientists": 8766,
      "Ġfellow": 8767,
      "Ġdissemination": 8768,
      "folio": 8769,
      "bid": 8770,
      "ĠSP": 8771,
      "ĠAh": 8772,
      "ĠPDF": 8773,
      "ĠTake": 8774,
      "Inst": 8775,
      "Ġmostly": 8776,
      "ĠResolution": 8777,
      "Ġlicences": 8778,
      "Ġbirthday": 8779,
      "Ġadvantages": 8780,
      "Use": 8781,
      "gments": 8782,
      "pard": 8783,
      "Ãª": 8784,
      "Ã®": 8785,
      "Ãı": 8786,
      "erted": 8787,
      "ĠHal": 8788,
      "Ġadminister": 8789,
      "aped": 8790,
      "ĠDeb": 8791,
      "retion": 8792,
      "Ġfeas": 8793,
      "ergency": 8794,
      "Ġ07": 8795,
      "Ġsmoking": 8796,
      "Ġprivile": 8797,
      "Ġenhancing": 8798,
      "ĠInfrastructure": 8799,
      "Ġbathroom": 8800,
      "ĠDistrict": 8801,
      "81": 8802,
      "Current": 8803,
      "rand": 8804,
      "rade": 8805,
      "ĠIR": 8806,
      "Ġalarm": 8807,
      "ĠOceans": 8808,
      "ogether": 8809,
      "Ġ62": 8810,
      "Mrs": 8811,
      "Ġabsor": 8812,
      "Ġbreakfast": 8813,
      "Ġinterviews": 8814,
      "ĠStudy": 8815,
      "Next": 8816,
      "Nevertheless": 8817,
      "Paragraph": 8818,
      "Ġdischarge": 8819,
      "Hold": 8820,
      "Open": 8821,
      "gro": 8822,
      "pat": 8823,
      "Ġauthors": 8824,
      "ĠCL": 8825,
      "ĠDou": 8826,
      "Ġsho": 8827,
      "eless": 8828,
      "erves": 8829,
      "Ġsystematic": 8830,
      "ructuring": 8831,
      "Ġlabel": 8832,
      "Adop": 8833,
      "Ġencourages": 8834,
      "Ġdollar": 8835,
      "ĠWilliam": 8836,
      "Official": 8837,
      "abinet": 8838,
      "Ġincurred": 8839,
      "France": 8840,
      "John": 8841,
      "Ġocean": 8842,
      "Ġbench": 8843,
      "state": 8844,
      "aine": 8845,
      "Ġadm": 8846,
      "Ġplenary": 8847,
      "aux": 8848,
      "ĠProsec": 8849,
      "ĠViet": 8850,
      "Ġscore": 8851,
      "ierre": 8852,
      "Ġkiller": 8853,
      "Ġinvestigate": 8854,
      "ĠUSA": 8855,
      "Ġspeakers": 8856,
      "Ġsuffered": 8857,
      "Regulation": 8858,
      "ĠHeadquarters": 8859,
      "WGSC": 8860,
      "Ġkilomet": 8861,
      "Det": 8862,
      "cons": 8863,
      "Ġcm": 8864,
      "osite": 8865,
      "lict": 8866,
      "ĠReference": 8867,
      "ĠChile": 8868,
      "Ġentering": 8869,
      "Ġprocessed": 8870,
      "Ġbranch": 8871,
      "Ġelabor": 8872,
      "Stay": 8873,
      "Ġnarrow": 8874,
      "Resp": 8875,
      "uay": 8876,
      "asant": 8877,
      "ilation": 8878,
      "ĠTuesday": 8879,
      "Ġovercome": 8880,
      "Ġprovider": 8881,
      "Ġparalle": 8882,
      "Ġbreast": 8883,
      "Ġregulated": 8884,
      "Ġdynamic": 8885,
      "Ġholiday": 8886,
      "BI": 8887,
      "Call": 8888,
      "Fe": 8889,
      "PE": 8890,
      "eds": 8891,
      "ifts": 8892,
      "ĠRac": 8893,
      "Ġtrig": 8894,
      "ĠKh": 8895,
      "aterial": 8896,
      "ĠArmy": 8897,
      "Ġfeels": 8898,
      "ĠÃ£Ã": 8899,
      "Ġrealized": 8900,
      "class": 8901,
      "ĠCoast": 8902,
      "1997": 8903,
      "Ġconsequence": 8904,
      "ĠImport": 8905,
      "Ġtaste": 8906,
      "Ġchemicals": 8907,
      "ĠProfessor": 8908,
      "ĠTurkish": 8909,
      "Sir": 8910,
      "iov": 8911,
      "Ġdisag": 8912,
      "Ġinteraction": 8913,
      "Ġfalls": 8914,
      "ELL": 8915,
      "Organ": 8916,
      "ĠSyrian": 8917,
      "Ġadapted": 8918,
      "Ġwider": 8919,
      "AW": 8920,
      "Non": 8921,
      "site": 8922,
      "Ġbot": 8923,
      "Ġbea": 8924,
      "Ġye": 8925,
      "ĠHel": 8926,
      "ordan": 8927,
      "ĠZealand": 8928,
      "Ġcalm": 8929,
      "Ġdifficulty": 8930,
      "ĠMarine": 8931,
      "Ġswear": 8932,
      "scale": 8933,
      "Ġverification": 8934,
      "Ġcalculation": 8935,
      "Ġdisplaced": 8936,
      "Ġprisoners": 8937,
      "Ġargument": 8938,
      "Ġministers": 8939,
      "Ġsolely": 8940,
      "Eng": 8941,
      "Pa": 8942,
      "uw": 8943,
      "Ġbow": 8944,
      "Ġreductions": 8945,
      "Ġeating": 8946,
      "Ġepid": 8947,
      "ĠICT": 8948,
      "ĠFoot": 8949,
      "ĠLong": 8950,
      "Ġtrail": 8951,
      "Ġowned": 8952,
      "Ġvisited": 8953,
      "ĠMartin": 8954,
      "ston": 8955,
      "ĠPE": 8956,
      "ĠMaj": 8957,
      "Ġadj": 8958,
      "Ġunions": 8959,
      "Ġservants": 8960,
      "ĠResults": 8961,
      "Ġallowance": 8962,
      "Ġcorporations": 8963,
      "ĠHerzegovina": 8964,
      "Ġgenerate": 8965,
      "ĠBarb": 8966,
      "ĠNunav": 8967,
      "Af": 8968,
      "aired": 8969,
      "alia": 8970,
      "Ġdiverse": 8971,
      "Ġhide": 8972,
      "Ġcontra": 8973,
      "grade": 8974,
      "Ġassessing": 8975,
      "Chair": 8976,
      "encing": 8977,
      "Community": 8978,
      "Ġtelecommunications": 8979,
      "Ġreplacement": 8980,
      "Ġprejudice": 8981,
      "elect": 8982,
      "got": 8983,
      "Ġonto": 8984,
      "ĠAut": 8985,
      "Ġchlor": 8986,
      "amps": 8987,
      "Ġoperated": 8988,
      "Ġplanet": 8989,
      "Ġstaying": 8990,
      "raints": 8991,
      "Ġcapacities": 8992,
      "Sw": 8993,
      "vals": 8994,
      "ertain": 8995,
      "Ġwage": 8996,
      "ĠMaced": 8997,
      "ĠRob": 8998,
      "ĠTwo": 8999,
      "ĠFe": 9000,
      "ĠHoly": 9001,
      "Ġchap": 9002,
      "inks": 9003,
      "Ġ91": 9004,
      "Ġauthorization": 9005,
      "Ġphilos": 9006,
      "Ġblind": 9007,
      "Ġcombating": 9008,
      "Ġswitch": 9009,
      "ĠSenate": 9010,
      "nce": 9011,
      "Ġtit": 9012,
      "hent": 9013,
      "hether": 9014,
      "Ġinadequ": 9015,
      "ĠIce": 9016,
      "ĠAIDS": 9017,
      "uster": 9018,
      "Ġkitchen": 9019,
      "ĠOpen": 9020,
      "ĠLithu": 9021,
      "ĠJoe": 9022,
      "rimin": 9023,
      "Ġsupplier": 9024,
      "Ġdevoted": 9025,
      "Applic": 9026,
      "Ġaccompany": 9027,
      "Ġsacr": 9028,
      "Dis": 9029,
      "bound": 9030,
      "rer": 9031,
      "ĠCarl": 9032,
      "Ġprosper": 9033,
      "oler": 9034,
      "ntil": 9035,
      "Ġenact": 9036,
      "Ġdecade": 9037,
      "Ġdonor": 9038,
      "arians": 9039,
      "Ġindicating": 9040,
      "Ġsubmissions": 9041,
      "Ġtexts": 9042,
      "Ġsuffer": 9043,
      "Fr": 9044,
      "bat": 9045,
      "Ġsed": 9046,
      "Ġwalls": 9047,
      "Ġpul": 9048,
      "Ġgraph": 9049,
      "advant": 9050,
      "Ġnotified": 9051,
      "ĠGST": 9052,
      "ĠHave": 9053,
      "Ġattitude": 9054,
      "Ġhumanity": 9055,
      "Ġrespected": 9056,
      "Ġoccurs": 9057,
      "Ġvoted": 9058,
      "Ġconventional": 9059,
      "300": 9060,
      "Att": 9061,
      "Ed": 9062,
      "Est": 9063,
      "High": 9064,
      "brid": 9065,
      "gi": 9066,
      "uv": 9067,
      "Ġtrib": 9068,
      "ĠSun": 9069,
      "ĠHelp": 9070,
      "ĠOECD": 9071,
      "Ġregardless": 9072,
      "Ġ1982": 9073,
      "Ġerad": 9074,
      "Ġcatal": 9075,
      "ĠStudies": 9076,
      "ĠSmall": 9077,
      "nam": 9078,
      "press": 9079,
      "trans": 9080,
      "ÃĪ": 9081,
      "ĠEnt": 9082,
      "Ġimprison": 9083,
      "ĠVir": 9084,
      "ĠIndex": 9085,
      "Ġdrunk": 9086,
      "factory": 9087,
      "Ġeastern": 9088,
      "Ġjointly": 9089,
      "Ġought": 9090,
      "Women": 9091,
      "Ġsake": 9092,
      "ĠAL": 9093,
      "Ġsuck": 9094,
      "ĠDLL": 9095,
      "kel": 9096,
      "ĠBol": 9097,
      "ĠKnow": 9098,
      "Ġscrew": 9099,
      "Ġexpensive": 9100,
      "ĠThird": 9101,
      "Ġ87": 9102,
      "Ġmainstream": 9103,
      "Ġedition": 9104,
      "Ġpolitics": 9105,
      "Ġ1984": 9106,
      "Ġdeadline": 9107,
      "Ġlimitations": 9108,
      "Ġclosing": 9109,
      "Ġmanufacturers": 9110,
      "Ġsubstantially": 9111,
      "VI": 9112,
      "gral": 9113,
      "lish": 9114,
      "alities": 9115,
      "Ġgar": 9116,
      "ĠAra": 9117,
      "Ġarise": 9118,
      "obe": 9119,
      "ĠLevel": 9120,
      "Ġintegrate": 9121,
      "Ġmachinery": 9122,
      "Accordingly": 9123,
      "................................": 9124,
      "Ġchannel": 9125,
      "Similar": 9126,
      "mbudsman": 9127,
      "ali": 9128,
      "ĠSar": 9129,
      "ĠMove": 9130,
      "ĠNuclear": 9131,
      "Ġchronic": 9132,
      "Ġtransmitted": 9133,
      "Ġparas": 9134,
      "Ġpromised": 9135,
      "ĠColl": 9136,
      "Ġrecording": 9137,
      "appy": 9138,
      "Ġpotentially": 9139,
      "pdf": 9140,
      "itudes": 9141,
      "Ġerrors": 9142,
      "dam": 9143,
      "hus": 9144,
      "Ġ\\": 9145,
      "Ġtender": 9146,
      "Ġrely": 9147,
      "ĠMil": 9148,
      "ĠNic": 9149,
      "ĠHello": 9150,
      "ĠLakes": 9151,
      "Ġextract": 9152,
      "Ġendors": 9153,
      "Ġstarts": 9154,
      "Ġclaimant": 9155,
      "ĠWorks": 9156,
      "Ġbalanced": 9157,
      "while": 9158,
      "Ġadjustments": 9159,
      "Ge": 9160,
      "Ser": 9161,
      "Spe": 9162,
      "mont": 9163,
      "Ġtalent": 9164,
      "ĠPersons": 9165,
      "ĠBon": 9166,
      "Ġje": 9167,
      "Ġclause": 9168,
      "Ġdesk": 9169,
      "Ġpossibilities": 9170,
      "ARY": 9171,
      "Ġbanking": 9172,
      "Ġexcuse": 9173,
      "ĠOccup": 9174,
      "Pat": 9175,
      "ulates": 9176,
      "Ġaggreg": 9177,
      "Ġunknown": 9178,
      "ailable": 9179,
      "Ġ98": 9180,
      "Ġ05": 9181,
      "Ġedge": 9182,
[...]
