{
  "version": "1.0",
  "truncation": null,
  "padding": null,
  "added_tokens": [
    {
      "id": 0,
      "content": "<pad>",
      "single_word": false,
      "lstrip": false,
      "rstrip": false,
      "normalized": false,
      "special": true
    },
    {
      "id": 1,
      "content": "<sos>",
      "single_word": false,
      "lstrip": false,
      "rstrip": false,
      "normalized": false,
      "special": true
    },
    {
      "id": 2,
      "content": "<eos>",
      "single_word": false,
      "lstrip": false,
      "rstrip": false,
      "normalized": false,
      "special": true
    }
  ],
  "normalizer": null,
  "pre_tokenizer": {
    "type": "ByteLevel",
    "add_prefix_space": false,
    "trim_offsets": true,
    "use_regex": true
  },
  "post_processor": {
    "type": "ByteLevel",
    "add_prefix_space": true,
    "trim_offsets": false,
    "use_regex": true
  },
  "decoder": {
    "type": "ByteLevel",
    "add_prefix_space": true,
    "trim_offsets": true,
    "use_regex": true
  },
  "model": {
    "type": "BPE",
    "dropout": null,
    "unk_token": null,
    "continuing_subword_prefix": null,
    "end_of_word_suffix": null,
    "fuse_unk": false,
    "byte_fallback": false,
    "ignore_merges": false,
    "vocab": {
      "<pad>": 0,
      "<sos>": 1,
      "<eos>": 2,
      "!": 3,
      "\"": 4,
      "#": 5,
      "$": 6,
      "%": 7,
      "&": 8,
      "'": 9,
      "(": 10,
      ")": 11,
      "*": 12,
      "+": 13,
      ",": 14,
      "-": 15,
      ".": 16,
      "/": 17,
      "0": 18,
      "1": 19,
      "2": 20,
      "3": 21,
      "4": 22,
      "5": 23,
      "6": 24,
      "7": 25,
      "8": 26,
      "9": 27,
      ":": 28,
      ";": 29,
      "<": 30,
      "=": 31,
      ">": 32,
      "?": 33,
      "@": 34,
      "A": 35,
      "B": 36,
      "C": 37,
      "D": 38,
      "E": 39,
      "F": 40,
      "G": 41,
      "H": 42,
      "I": 43,
      "J": 44,
      "K": 45,
      "L": 46,
      "M": 47,
      "N": 48,
      "O": 49,
      "P": 50,
      "Q": 51,
      "R": 52,
      "S": 53,
      "T": 54,
      "U": 55,
      "V": 56,
      "W": 57,
      "X": 58,
      "Y": 59,
      "Z": 60,
      "[": 61,
      "\\": 62,
      "]": 63,
      "^": 64,
      "_": 65,
      "`": 66,
      "a": 67,
      "b": 68,
      "c": 69,
      "d": 70,
      "e": 71,
      "f": 72,
      "g": 73,
      "h": 74,
      "i": 75,
      "j": 76,
      "k": 77,
      "l": 78,
      "m": 79,
      "n": 80,
      "o": 81,
      "p": 82,
      "q": 83,
      "r": 84,
      "s": 85,
      "t": 86,
      "u": 87,
      "v": 88,
      "w": 89,
      "x": 90,
      "y": 91,
      "z": 92,
      "{": 93,
      "}": 94,
      "~": 95,
      "¡": 96,
      "¢": 97,
      "£": 98,
      "¤": 99,
      "¥": 100,
      "¦": 101,
      "§": 102,
      "¨": 103,
      "©": 104,
      "ª": 105,
      "«": 106,
      "¬": 107,
      "®": 108,
      "¯": 109,
      "°": 110,
      "±": 111,
      "²": 112,
      "³": 113,
      "´": 114,
      "µ": 115,
      "¶": 116,
      "·": 117,
      "¸": 118,
      "¹": 119,
      "º": 120,
      "»": 121,
      "¼": 122,
      "½": 123,
      "¾": 124,
      "¿": 125,
      "Â": 126,
      "Ã": 127,
      "Ä": 128,
      "Å": 129,
      "Æ": 130,
      "Ç": 131,
      "È": 132,
      "É": 133,
      "Ê": 134,
      "Ë": 135,
      "Ì": 136,
      "Î": 137,
      "Ï": 138,
      "Ð": 139,
      "Ñ": 140,
      "Ò": 141,
      "Ô": 142,
      "Õ": 143,
      "Ö": 144,
      "×": 145,
      "Ø": 146,
      "Ù": 147,
      "Ú": 148,
      "Û": 149,
      "à": 150,
      "á": 151,
      "â": 152,
      "ã": 153,
      "ä": 154,
      "å": 155,
      "æ": 156,
      "ç": 157,
      "è": 158,
      "é": 159,
      "ê": 160,
      "ì": 161,
      "í": 162,
      "ï": 163,
      "ð": 164,
      "Ġ": 165,
      "Ģ": 166,
      "ģ": 167,
      "Ĥ": 168,
      "ĥ": 169,
      "Ħ": 170,
      "ħ": 171,
      "Ĩ": 172,
      "ĩ": 173,
      "Ī": 174,
      "ī": 175,
      "Ĭ": 176,
      "ĭ": 177,
      "Į": 178,
      "į": 179,
      "İ": 180,
      "ı": 181,
      "Ĳ": 182,
      "ĳ": 183,
      "Ĵ": 184,
      "ĵ": 185,
      "Ķ": 186,
      "ķ": 187,
      "ĸ": 188,
      "Ĺ": 189,
      "ĺ": 190,
      "Ļ": 191,
      "ļ": 192,
      "Ľ": 193,
      "ľ": 194,
      "Ŀ": 195,
      "ŀ": 196,
      "Ł": 197,
      "ł": 198,
      "Ń": 199,
      "Ġd": 200,
      "es": 201,
      "Ã©": 202,
      "Ġl": 203,
      "on": 204,
      "en": 205,
      "Ġp": 206,
      "ti": 207,
      "Ġde": 208,
      "Ġc": 209,
      "an": 210,
      "Ġs": 211,
      "re": 212,
      "ou": 213,
      "Ġa": 214,
      "er": 215,
      "qu": 216,
      "is": 217,
      "ent": 218,
      "in": 219,
      "tion": 220,
      "et": 221,
      "it": 222,
      "Ġm": 223,
      "Ġla": 224,
      "le": 225,
      "ar": 226,
      "ur": 227,
      "Ġt": 228,
      "ĠÃ": 229,
      "or": 230,
      "Ġet": 231,
      "Ġqu": 232,
      "ne": 233,
      "ra": 234,
      "Ġdes": 235,
      "Ġle": 236,
      "ment": 237,
      "Ġf": 238,
      "om": 239,
      "te": 240,
      "Ġles": 241,
      "ĠÃł": 242,
      "Ġv": 243,
      "Ġpr": 244,
      "ation": 245,
      "il": 246,
      "our": 247,
      "Ġn": 248,
      "Ġr": 249,
      "Ġu": 250,
      "Ġen": 251,
      "ant": 252,
      "Ã¨": 253,
      "el": 254,
      "Ġau": 255,
      "al": 256,
      "Ã©s": 257,
      "ai": 258,
      "as": 259,
      "ce": 260,
      "Ġdu": 261,
      "Ġcon": 262,
      "au": 263,
      "est": 264,
      "ans": 265,
      "ĠÃ©": 266,
      "Ġpar": 267,
      "si": 268,
      "ri": 269,
      "ĠC": 270,
      "li": 271,
      "ci": 272,
      "oi": 273,
      "me": 274,
      "ous": 275,
      "us": 276,
      "ch": 277,
      "Ġque": 278,
      "eu": 279,
      "Ġpour": 280,
      "ta": 281,
      "Ġb": 282,
      "res": 283,
      "ve": 284,
      "Ġpro": 285,
      "ont": 286,
      "ĠdÃ©": 287,
      "se": 288,
      "tre": 289,
      "tÃ©": 290,
      "âĢ": 291,
      "Ġin": 292,
      "que": 293,
      "Ġcom": 294,
      "Ġj": 295,
      "Ġre": 296,
      "Ġg": 297,
      "Ġun": 298,
      "ais": 299,
      "âĢĻ": 300,
      "Ġdans": 301,
      "pp": 302,
      "di": 303,
      "ro": 304,
      "Ġe": 305,
      "de": 306,
      "Ġpas": 307,
      "Ġsur": 308,
      "Ġ1": 309,
      "les": 310,
      "Ġ(": 311,
      "Ġune": 312,
      "ag": 313,
      "itÃ©": 314,
      "mp": 315,
      "Ġpl": 316,
      "ĠrÃ©": 317,
      "Ġ2": 318,
      "un": 319,
      "Ġest": 320,
      "ol": 321,
      "Ã©e": 322,
      "tu": 323,
      "ff": 324,
      "Ġqui": 325,
      "00": 326,
      "ons": 327,
      "ac": 328,
      "Ġch": 329,
      "ait": 330,
      "os": 331,
      "ter": 332,
      "ces": 333,
      "ĠP": 334,
      "..": 335,
      "ab": 336,
      "aire": 337,
      "Ġo": 338,
      "vi": 339,
      "ers": 340,
      "ĠS": 341,
      "Ġse": 342,
      "ts": 343,
      "Ġ?": 344,
      "ouv": 345,
      "ĠM": 346,
      "Ġsu": 347,
      "Ãª": 348,
      "ĠL": 349,
      "ie": 350,
      "elle": 351,
      "urs": 352,
      "ul": 353,
      "end": 354,
      "Ġou": 355,
      "ale": 356,
      "Ã©es": 357,
      "Ġne": 358,
      "Ã¨re": 359,
      "ations": 360,
      "pr": 361,
      "ction": 362,
      "Ġdi": 363,
      "Ġce": 364,
      "am": 365,
      "pÃ©": 366,
      "at": 367,
      "ig": 368,
      "ques": 369,
      "ĠA": 370,
      "Ġaux": 371,
      "Ġex": 372,
      "Ġh": 373,
      "mes": 374,
      "ĠD": 375,
      "and": 376,
      "ort": 377,
      "ati": 378,
      "du": 379,
      "Je": 380,
      "ad": 381,
      "fi": 382,
      "ain": 383,
      "mb": 384,
      "Ġplus": 385,
      "Ġmo": 386,
      "tes": 387,
      "onn": 388,
      "aux": 389,
      "Ġave": 390,
      "ni": 391,
      "cu": 392,
      "sion": 393,
      "ens": 394,
      "pe": 395,
      "rÃ©": 396,
      "Ġtra": 397,
      "Ġra": 398,
      "Ġtou": 399,
      "Ġvous": 400,
      "orm": 401,
      "ance": 402,
      "Il": 403,
      "Ġi": 404,
      "Ġsont": 405,
      "Ġav": 406,
      "Ġtr": 407,
      "Ġpo": 408,
      "oir": 409,
      "ĠR": 410,
      "ten": 411,
      "Ġac": 412,
      "Ġil": 413,
      "ui": 414,
      "Ã¨s": 415,
      "ement": 416,
      "Ġavec": 417,
      "Ġser": 418,
      "ĠT": 419,
      "tions": 420,
      "Ġpeu": 421,
      "ue": 422,
      "ĠB": 423,
      "ins": 424,
      "Le": 425,
      "ir": 426,
      "ence": 427,
      "Ã©n": 428,
      "Ġparti": 429,
      "ien": 430,
      "tr": 431,
      "nement": 432,
      "Âł": 433,
      "entre": 434,
      "Ġ200": 435,
      "Ġcomm": 436,
      "omm": 437,
      "aires": 438,
      "ys": 439,
      "gi": 440,
      "Ġme": 441,
      "ĠN": 442,
      "Ġcons": 443,
      "Ã©c": 444,
      "bli": 445,
      "ex": 446,
      "ist": 447,
      "ang": 448,
      "ette": 449,
      "lement": 450,
      "Ġje": 451,
      "ĠE": 452,
      "ants": 453,
      "ite": 454,
      "ord": 455,
      "ĠÂ": 456,
      "Ġapp": 457,
      "Ã©ra": 458,
      "age": 459,
      "Ã©r": 460,
      "eux": 461,
      "av": 462,
      "Ġli": 463,
      "che": 464,
      "ĠÃª": 465,
      "lÃ©": 466,
      "ĠÃ©tÃ©": 467,
      "Ġcomp": 468,
      "Ġont": 469,
      "une": 470,
      "Ġ-": 471,
      "Ġso": 472,
      "aut": 473,
      "Les": 474,
      "Ġte": 475,
      "min": 476,
      "ure": 477,
      "oc": 478,
      "ois": 479,
      "lis": 480,
      "...": 481,
      "Ã´": 482,
      "ven": 483,
      "ille": 484,
      "Ġsi": 485,
      "itÃ©s": 486,
      "Ġdis": 487,
      "ux": 488,
      "Ġnous": 489,
      "ĠG": 490,
      "id": 491,
      "Ġpu": 492,
      "Ã©ri": 493,
      "Ġfait": 494,
      "Ã©sent": 495,
      "ĠF": 496,
      "Ġno": 497,
      "ec": 498,
      "Ġ!": 499,
      "La": 500,
      "iv": 501,
      "ĠÃªtre": 502,
      "Ãł": 503,
      "Ġan": 504,
      "mi": 505,
      "Ġ:": 506,
      "ond": 507,
      "cation": 508,
      "its": 509,
      "ise": 510,
      "gra": 511,
      "ouver": 512,
      "ĠprÃ©": 513,
      "ate": 514,
      "Ġinter": 515,
      "ĠI": 516,
      "form": 517,
      "Ġ3": 518,
      "Ġmon": 519,
      "ap": 520,
      "Ġ19": 521,
      "ge": 522,
      "Ġconc": 523,
      "Ġper": 524,
      "elles": 525,
      "ours": 526,
      "tra": 527,
      "Ġres": 528,
      "app": 529,
      "Ġgr": 530,
      "ĠrÃ©s": 531,
      "ĠdÃ©c": 532,
      "Ġmar": 533,
      "ut": 534,
      "Ġtrav": 535,
      "jet": 536,
      "ors": 537,
      "um": 538,
      "onne": 539,
      "ph": 540,
      "Ġentre": 541,
      "ures": 542,
      "lle": 543,
      "Ġaut": 544,
      "Ġco": 545,
      "ill": 546,
      "Ġtu": 547,
      "lo": 548,
      "Ã¨me": 549,
      "ture": 550,
      "ĠÃ©ta": 551,
      "Ġpers": 552,
      "Ġson": 553,
      "tiv": 554,
      "ion": 555,
      "ine": 556,
      "ales": 557,
      "ic": 558,
      "Ġpa": 559,
      "ments": 560,
      "able": 561,
      "Ġcomme": 562,
      "Ġas": 563,
      "Ġcette": 564,
      "Ġvo": 565,
      "ĠCon": 566,
      "Ġfin": 567,
      "Ġces": 568,
      "bre": 569,
      "Ġmais": 570,
      "Ġy": 571,
      "iss": 572,
      "po": 573,
      "Ġar": 574,
      "gan": 575,
      "ĠCan": 576,
      "ande": 577,
      "tique": 578,
      "Ġdro": 579,
      "Ġsou": 580,
      "tif": 581,
      "Ã§": 582,
      "ada": 583,
      "cip": 584,
      "tri": 585,
      "Ġimp": 586,
      "ard": 587,
      "En": 588,
      "Ġdo": 589,
      "uro": 590,
      "Ġsa": 591,
      "titu": 592,
      "Ġes": 593,
      "cte": 594,
      "tin": 595,
      "Ġleur": 596,
      "Ġad": 597,
      "Ġdire": 598,
      "par": 599,
      "Ġmes": 600,
      "ĠV": 601,
      "vent": 602,
      "rer": 603,
      "gram": 604,
      "ĠJ": 605,
      "ission": 606,
      "ĠO": 607,
      "Ġtout": 608,
      "Ġservi": 609,
      "ique": 610,
      "Ġprodu": 611,
      "Ġter": 612,
      "Ġses": 613,
      "ble": 614,
      "aient": 615,
      "Ġeff": 616,
      "Ġdev": 617,
      "Ġfaire": 618,
      "Ġtrava": 619,
      "Ġrapp": 620,
      "Ġbien": 621,
      "Ġren": 622,
      "__": 623,
      "Ãī": 624,
      "tats": 625,
      "ĠprÃ©sent": 626,
      "tic": 627,
      "Ġdem": 628,
      "Ġnom": 629,
      "ĠgÃ©n": 630,
      "Ġpeut": 631,
      "ĠCanada": 632,
      "Ãªme": 633,
      "Ã©t": 634,
      "ouve": 635,
      "Ġma": 636,
      "ganis": 637,
      "Ġal": 638,
      "ace": 639,
      "ĠComm": 640,
      "enti": 641,
      "Ġor": 642,
      "tilis": 643,
      "ĠH": 644,
      "Ã¨res": 645,
      "Ã©g": 646,
      "Ġpays": 647,
      "Ġrec": 648,
      "fin": 649,
      "ez": 650,
      "ĠÃ§": 651,
      "ĠÃ©c": 652,
      "nes": 653,
      "Qu": 654,
      "ĠÃ§a": 655,
      "opp": 656,
      "Ġdonn": 657,
      "ents": 658,
      "eur": 659,
      "cher": 660,
      "Ġins": 661,
      ").": 662,
      "seil": 663,
      "ct": 664,
      "ĠÂ«": 665,
      "Ã©d": 666,
      "im": 667,
      "Ġpubli": 668,
      "ves": 669,
      "vel": 670,
      "Ġtrans": 671,
      "Ġ4": 672,
      "Tu": 673,
      "estion": 674,
      "Ġpos": 675,
      "Ġ5": 676,
      "ĠÃī": 677,
      "alis": 678,
      "Ġcommun": 679,
      "enne": 680,
      "Ġpoli": 681,
      "Ã»": 682,
      "Ġdeux": 683,
      "ari": 684,
      "Ã®": 685,
      "co": 686,
      "Ġat": 687,
      "Ġon": 688,
      "velopp": 689,
      "endre": 690,
      "Ġmin": 691,
      "ĠgÃ©nÃ©ra": 692,
      "tiques": 693,
      "Ġob": 694,
      "01": 695,
      "On": 696,
      "Ã¨g": 697,
      "nation": 698,
      "Ã©ta": 699,
      "ĠdÃ©p": 700,
      "),": 701,
      "lu": 702,
      "Ġnon": 703,
      "cess": 704,
      "prÃ¨s": 705,
      "ron": 706,
      "orte": 707,
      "Ġprogram": 708,
      "alement": 709,
      "Ġrel": 710,
      "ass": 711,
      "emp": 712,
      "Ġtous": 713,
      "rai": 714,
      "des": 715,
      "Ġsoci": 716,
      "adi": 717,
      "ob": 718,
      "Ġti": 719,
      "em": 720,
      "Uni": 721,
      "int": 722,
      "ĠdÃ©velopp": 723,
      "ante": 724,
      "Ġperm": 725,
      "ot": 726,
      "oup": 727,
      "ils": 728,
      "Ġjus": 729,
      "Ġacc": 730,
      "tru": 731,
      "remi": 732,
      "Ã¢": 733,
      "Ġprop": 734,
      "200": 735,
      "ĠÃ©g": 736,
      "Ġconcer": 737,
      "posi": 738,
      "Ġdiff": 739,
      "els": 740,
      "ssi": 741,
      "olu": 742,
      "eau": 743,
      "Ã¹": 744,
      "op": 745,
      "Ġcer": 746,
      "rit": 747,
      "ĠrÃ©gi": 748,
      "Un": 749,
      "Ġvis": 750,
      "lar": 751,
      "insi": 752,
      "Ġmemb": 753,
      "ĠConseil": 754,
      "ises": 755,
      "uropÃ©": 756,
      "Ġann": 757,
      "Ġvi": 758,
      "ĠmÃªme": 759,
      "Ġaussi": 760,
      "ration": 761,
      "tis": 762,
      "Ġinternation": 763,
      "ouvernement": 764,
      "rait": 765,
      "oire": 766,
      "ler": 767,
      "Ġcar": 768,
      "ticle": 769,
      "erci": 770,
      "Ġsuis": 771,
      "og": 772,
      "Ġcan": 773,
      "pu": 774,
      "onc": 775,
      "oy": 776,
      "onom": 777,
      "Ġ199": 778,
      "vre": 779,
      "Vous": 780,
      "ense": 781,
      "Ġtravail": 782,
      "aine": 783,
      "ĠeuropÃ©": 784,
      "acc": 785,
      "Ġprojet": 786,
      "Ġnation": 787,
      "Ġfor": 788,
      "vis": 789,
      "Ġcompr": 790,
      "omme": 791,
      "Ġcas": 792,
      "tÃ©ri": 793,
      "bu": 794,
      "rois": 795,
      "ourn": 796,
      "Ġainsi": 797,
      "ĠCommission": 798,
      "ire": 799,
      "yst": 800,
      "ilitÃ©": 801,
      "Ġcol": 802,
      "tive": 803,
      "Ġquel": 804,
      "mps": 805,
      "ĠdÃ©veloppement": 806,
      "Ġvotre": 807,
      "Ġ\"": 808,
      "alitÃ©": 809,
      "Ġ6": 810,
      "ing": 811,
      "Ġlui": 812,
      "Ġni": 813,
      "ser": 814,
      "Ġexp": 815,
      "Ġmil": 816,
      "Ġservices": 817,
      "itu": 818,
      "Ġpersonne": 819,
      "val": 820,
      "Ġam": 821,
      "Ġass": 822,
      "ver": 823,
      "ues": 824,
      "ente": 825,
      "bles": 826,
      "Ġleurs": 827,
      "Ġrapport": 828,
      "Ġform": 829,
      "ani": 830,
      "Ġutilis": 831,
      "ĠLe": 832,
      "Et": 833,
      "Ġnombre": 834,
      "ĠK": 835,
      "ĠcrÃ©": 836,
      "Ġpremi": 837,
      "Ġfon": 838,
      "Pour": 839,
      "Ġelle": 840,
      "cep": 841,
      "ĠÃ©tait": 842,
      "tÃ©g": 843,
      "ww": 844,
      "Ã©di": 845,
      "Â»": 846,
      "ettre": 847,
      "ĠW": 848,
      "ON": 849,
      "Ġseu": 850,
      "out": 851,
      "viron": 852,
      "Ġorganis": 853,
      "ign": 854,
      "Ġprin": 855,
      "Ġcl": 856,
      "Ġju": 857,
      "Ġdoit": 858,
      "Ġsous": 859,
      "endant": 860,
      "for": 861,
      "ĠoÃ¹": 862,
      "Ġmain": 863,
      "ĠCh": 864,
      "ences": 865,
      "onnes": 866,
      "antÃ©": 867,
      "ĠÃ©galement": 868,
      "Ã©cur": 869,
      "Ġoff": 870,
      "ctions": 871,
      "lÃ¨": 872,
      "ĠÃītats": 873,
      "Ã©li": 874,
      "Ġfa": 875,
      "ĠrÃ¨g": 876,
      "Ġcerta": 877,
      "Ce": 878,
      "oin": 879,
      "Ġgouvernement": 880,
      "rÃª": 881,
      "Ġindi": 882,
      "Ġsyst": 883,
      "sions": 884,
      "dÃ©": 885,
      "pÃ©ci": 886,
      "ong": 887,
      "mbre": 888,
      "ĠrÃ©p": 889,
      "ĠÃ©t": 890,
      "qui": 891,
      "ĠPar": 892,
      "Ġmembres": 893,
      "ances": 894,
      "ĠnÃ©": 895,
      "autres": 896,
      "ici": 897,
      "chÃ©": 898,
      "nel": 899,
      "Ġrepr": 900,
      "Ġcontre": 901,
      "oci": 902,
      "orts": 903,
      "Ġautres": 904,
      "imp": 905,
      "fication": 906,
      "ĠIn": 907,
      "ĠCom": 908,
      "tivitÃ©s": 909,
      "Ġmoi": 910,
      "Ġdroits": 911,
      "Ġ7": 912,
      "Ġimport": 913,
      "Ġfem": 914,
      "Ġva": 915,
      "ĠspÃ©ci": 916,
      "oupe": 917,
      "Ã©curitÃ©": 918,
      "sement": 919,
      "Ġbas": 920,
      "Ġrelati": 921,
      "Ġmati": 922,
      "Ġdit": 923,
      "ES": 924,
      "mment": 925,
      "iste": 926,
      "Ġ9": 927,
      "rÃ©s": 928,
      "tat": 929,
      "Ġpe": 930,
      "ables": 931,
      "Ãªtre": 932,
      "la": 933,
      "Ġsans": 934,
      "ĠÂ»": 935,
      "Ġ8": 936,
      "Ġfond": 937,
      "Ġcel": 938,
      "Nous": 939,
      "valu": 940,
      "Ġdont": 941,
      "eurs": 942,
      "cteur": 943,
      "Ġpri": 944,
      "Ã©tÃ©": 945,
      "Ġavant": 946,
      "vention": 947,
      "Ġsoit": 948,
      "vers": 949,
      "Ġconcern": 950,
      "anc": 951,
      "Ġcap": 952,
      "tifs": 953,
      "Ã´le": 954,
      "ĠJe": 955,
      "Ġprob": 956,
      "ĠsÃ©curitÃ©": 957,
      "Ġconn": 958,
      "Ġsais": 959,
      "Ġth": 960,
      "Ġtemps": 961,
      "Ġsuiv": 962,
      "antes": 963,
      "Ġaff": 964,
      "formation": 965,
      "Ġder": 966,
      "Ġbes": 967,
      "Ġvie": 968,
      "fÃ©r": 969,
      "ĠtrÃ¨s": 970,
      "Ġrecher": 971,
      "article": 972,
      "Ġcha": 973,
      "Ġlors": 974,
      "Ġent": 975,
      "Ġver": 976,
      "Ġtech": 977,
      "Ġfi": 978,
      "ud": 979,
      "ĠÃ©le": 980,
      "ages": 981,
      "Ġdemande": 982,
      "ner": 983,
      "adre": 984,
      "Ġnouv": 985,
      "CE": 986,
      "oute": 987,
      "ines": 988,
      "ĠsantÃ©": 989,
      "ĠÃ©conom": 990,
      "Ġcours": 991,
      "rop": 992,
      "Ġdroit": 993,
      "Ġprof": 994,
      "ose": 995,
      "____": 996,
      "ets": 997,
      "Ġten": 998,
      "iter": 999,
      "ode": 1000,
      "exp": 1001,
      "Ġparticu": 1002,
      "19": 1003,
      "all": 1004,
      "Ġpartie": 1005,
      "ĠnÃ©cess": 1006,
      "ĠLa": 1007,
      "semb": 1008,
      "ĠdÃ©s": 1009,
      "Ġvou": 1010,
      "Dans": 1011,
      "Ġcor": 1012,
      "Ġproc": 1013,
      "Ġpersonnes": 1014,
      "Ġpouv": 1015,
      "vÃ©": 1016,
      "oris": 1017,
      "Ġenf": 1018,
      "Ġph": 1019,
      "ĠsÃ©": 1020,
      "ĠdÃ©cis": 1021,
      "ogi": 1022,
      "Ġtoute": 1023,
      "Elle": 1024,
      "Ġfonction": 1025,
      "Si": 1026,
      "Ġnotre": 1027,
      "Ġag": 1028,
      "Ãªte": 1029,
      "raph": 1030,
      "Ġprincip": 1031,
      "Ġemp": 1032,
      "Ġfr": 1033,
      "cul": 1034,
      "anci": 1035,
      "olution": 1036,
      "Ãĥ": 1037,
      "Ġmal": 1038,
      "Ġparticuli": 1039,
      "ĠreprÃ©sent": 1040,
      "Ġ%": 1041,
      "jec": 1042,
      "Ġdemand": 1043,
      "Mais": 1044,
      "Ġca": 1045,
      "Ġnive": 1046,
      "Ġmont": 1047,
      "Ġmoins": 1048,
      "Ġmesures": 1049,
      "Ġnouve": 1050,
      "Ġans": 1051,
      "Ġsitu": 1052,
      "Ġderni": 1053,
      "ĠrÃ©gion": 1054,
      "Ġmoy": 1055,
      "core": 1056,
      "Ġcanadi": 1057,
      "rais": 1058,
      "Ġparticip": 1059,
      "ources": 1060,
      "Ġpossi": 1061,
      "Par": 1062,
      "Ġgestion": 1063,
      "anti": 1064,
      "Ġ0": 1065,
      "mis": 1066,
      "Ġdom": 1067,
      "eure": 1068,
      "Ġmen": 1069,
      "lab": 1070,
      "ĠprÃ©c": 1071,
      "avoir": 1072,
      "ĠdonnÃ©es": 1073,
      "quer": 1074,
      "ay": 1075,
      "Ġprogramme": 1076,
      "Ġafin": 1077,
      "Ġmise": 1078,
      "one": 1079,
      "vironnement": 1080,
      "ites": 1081,
      "Ġbi": 1082,
      "Ġ10": 1083,
      "Une": 1084,
      "teur": 1085,
      "entes": 1086,
      "ĠdiffÃ©r": 1087,
      "ier": 1088,
      "agraph": 1089,
      "ĠlÃł": 1090,
      "iques": 1091,
      "ss": 1092,
      "Ġjour": 1093,
      "xe": 1094,
      "ellement": 1095,
      "Ġcompte": 1096,
      "Ġpeuvent": 1097,
      "Ġgar": 1098,
      "Ġavait": 1099,
      "ĠtÃ©": 1100,
      "Ġfois": 1101,
      "Ġcadre": 1102,
      "tribu": 1103,
      "tenant": 1104,
      "Ġtoutes": 1105,
      "ches": 1106,
      "Ġpublic": 1107,
      "ĠrÃ©g": 1108,
      "fic": 1109,
      "Ġpoint": 1110,
      "elon": 1111,
      "Ġ201": 1112,
      "Ġna": 1113,
      "puis": 1114,
      "ignement": 1115,
      "Ġproduits": 1116,
      "ions": 1117,
      "Ġavoir": 1118,
      "cri": 1119,
      "Ġress": 1120,
      "Ġdur": 1121,
      "Ġgrand": 1122,
      "ĠPro": 1123,
      "Ġencore": 1124,
      "ĠactivitÃ©s": 1125,
      "Ġautre": 1126,
      "ateurs": 1127,
      "ĠsystÃ¨me": 1128,
      "era": 1129,
      "ĠprÃ©v": 1130,
      "ident": 1131,
      "Ġresp": 1132,
      "fs": 1133,
      "aiss": 1134,
      "Ġinc": 1135,
      "Ġsera": 1136,
      "TI": 1137,
      "minist": 1138,
      "pec": 1139,
      "arg": 1140,
      "vous": 1141,
      "ĠaprÃ¨s": 1142,
      "iti": 1143,
      "aines": 1144,
      "Ġparagraph": 1145,
      "ide": 1146,
      "Ġdocu": 1147,
      "ĠrÃ©sul": 1148,
      "Ġdisposi": 1149,
      "Ġpolitique": 1150,
      "Ġquestion": 1151,
      "istre": 1152,
      "Ãĩ": 1153,
      "Ġrais": 1154,
      "ĠmatiÃ¨re": 1155,
      "omp": 1156,
      "Ġplu": 1157,
      "Ġtrois": 1158,
      "Ġsub": 1159,
      "teurs": 1160,
      "Ã©ment": 1161,
      "ĠprÃ©s": 1162,
      "Ġils": 1163,
      "Ġsta": 1164,
      "De": 1165,
      "Ġrecherche": 1166,
      "Ġconsi": 1167,
      "st": 1168,
      "ĠâĢ": 1169,
      "pÃ©ration": 1170,
      "Ġci": 1171,
      "Â©": 1172,
      "Ġk": 1173,
      "oration": 1174,
      "Ġpeti": 1175,
      "quoi": 1176,
      "appli": 1177,
      "ats": 1178,
      "Ġveux": 1179,
      "Ġentrepr": 1180,
      "ber": 1181,
      "Au": 1182,
      "ind": 1183,
      "ĠIl": 1184,
      "ru": 1185,
      "Ġpart": 1186,
      "Ġpermet": 1187,
      "oivent": 1188,
      "Ã´t": 1189,
      "ĠdÃ©b": 1190,
      "ĠrÃ¨glement": 1191,
      "Ġ.": 1192,
      "Ġici": 1193,
      "Ġcondi": 1194,
      "tien": 1195,
      "Ġmonde": 1196,
      "ĠUni": 1197,
      "In": 1198,
      "ommes": 1199,
      "Ġcontin": 1200,
      "isse": 1201,
      "Ġappli": 1202,
      "bilitÃ©": 1203,
      "Ġfinanci": 1204,
      "Ġrespons": 1205,
      "estions": 1206,
      "ĠeuropÃ©enne": 1207,
      "ĠComitÃ©": 1208,
      "ĠpÃ©ri": 1209,
      "Ġconcernant": 1210,
      "tamment": 1211,
      "information": 1212,
      "tant": 1213,
      "tection": 1214,
      "Ã©tait": 1215,
      "ĠLes": 1216,
      "Ġfais": 1217,
      "per": 1218,
      "Ã©qu": 1219,
      "pÃ©ri": 1220,
      "Ġmilli": 1221,
      "ĠdÃ©m": 1222,
      "ili": 1223,
      "ĠgÃ©nÃ©ral": 1224,
      "moi": 1225,
      "Ġfemmes": 1226,
      "Ġlong": 1227,
      "Ġta": 1228,
      "ali": 1229,
      "Ã§on": 1230,
      "Ġmani": 1231,
      "Ġchang": 1232,
      "Ġab": 1233,
      "ements": 1234,
      "Ġjeu": 1235,
      "Åĵ": 1236,
      "Ġsec": 1237,
      "Ġcontra": 1238,
      "Ġmodi": 1239,
      "Ġniveau": 1240,
      "Ġrest": 1241,
      "ole": 1242,
      "ologi": 1243,
      "Ġaur": 1244,
      "rim": 1245,
      "ĠlÃ©g": 1246,
      "Ġcontr": 1247,
      "jour": 1248,
      "Ġdoivent": 1249,
      "ĠNations": 1250,
      "iÃ¨me": 1251,
      "aÃ®": 1252,
      "fÃ©rence": 1253,
      "Ġpass": 1254,
      "Ġenfants": 1255,
      "Ġparagraphe": 1256,
      "Ġsupp": 1257,
      "Ġfac": 1258,
      "jours": 1259,
      "loy": 1260,
      "Ġris": 1261,
      "Ġess": 1262,
      "pul": 1263,
      "Ġcet": 1264,
      "vez": 1265,
      "Ġcour": 1266,
      "Ġplan": 1267,
      "AN": 1268,
      "ateur": 1269,
      "Ġhum": 1270,
      "Ġfer": 1271,
      "Ġprom": 1272,
      "cer": 1273,
      "action": 1274,
      "Al": 1275,
      "th": 1276,
      "Ġinform": 1277,
      "Ġtoi": 1278,
      "ress": 1279,
      "illes": 1280,
      "Ġinf": 1281,
      "Ġvue": 1282,
      "ĠÃ©tu": 1283,
      "Ġquestions": 1284,
      "ÃĢ": 1285,
      "tenir": 1286,
      "loi": 1287,
      "ori": 1288,
      "uer": 1289,
      "Ġ12": 1290,
      "Ġpai": 1291,
      "valuation": 1292,
      "Ġfam": 1293,
      "Ġprogrammes": 1294,
      "EN": 1295,
      "ustri": 1296,
      "Ġbase": 1297,
      "use": 1298,
      "olog": 1299,
      "ls": 1300,
      "Ġ15": 1301,
      "Ġvrai": 1302,
      "Ġnotamment": 1303,
      "Ġvol": 1304,
      "Ġlieu": 1305,
      "tement": 1306,
      "nent": 1307,
      "ieu": 1308,
      "Ġloc": 1309,
      "ann": 1310,
      "ĠrÃ©alis": 1311,
      "Ġchaque": 1312,
      "amen": 1313,
      "cessus": 1314,
      "utilis": 1315,
      "quÃ©": 1316,
      "Ġexemp": 1317,
      "Ġcent": 1318,
      "000": 1319,
      "Ġnos": 1320,
      "Ġcul": 1321,
      "Ġconstitu": 1322,
      "Ġcli": 1323,
      "tention": 1324,
      "Ġprotection": 1325,
      "Ġcontribu": 1326,
      "blis": 1327,
      "ĠQu": 1328,
      "cid": 1329,
      "Ġbesoin": 1330,
      "igne": 1331,
      "Ġtoujours": 1332,
      "Ġdonc": 1333,
      "Ã©du": 1334,
      "Ġrem": 1335,
      "Ġdisp": 1336,
      "ĠGr": 1337,
      "lÃ©e": 1338,
      "sieurs": 1339,
      "Ġquoi": 1340,
      "Ġplace": 1341,
      "ĠrÃ©du": 1342,
      "ĠdÃ©j": 1343,
      "cc": 1344,
      "ĠmÃ©di": 1345,
      "Ġcro": 1346,
      "Ã©v": 1347,
      "Ġpres": 1348,
      "Ġvers": 1349,
      "Ġeu": 1350,
      "Ġavez": 1351,
      "ton": 1352,
      "tÃ©e": 1353,
      "Ġfaut": 1354,
      "Ġmi": 1355,
      "ĠdÃ©clar": 1356,
      "termin": 1357,
      "Ġim": 1358,
      "Ġvoir": 1359,
      "Ġbeau": 1360,
      "Ġpra": 1361,
      "ĠdÃ©f": 1362,
      "Ġ[": 1363,
      "omb": 1364,
      "Ġpeux": 1365,
      "Ġdepuis": 1366,
      "Ġpropos": 1367,
      "urer": 1368,
      "Ġprocessus": 1369,
      "Ġressources": 1370,
      "Ġche": 1371,
      "10": 1372,
      "gag": 1373,
      "inter": 1374,
      "ative": 1375,
      "Ġty": 1376,
      "Ġmod": 1377,
      "Non": 1378,
      "Ġrien": 1379,
      "tt": 1380,
      "Ġstra": 1381,
      "Ġpolitiques": 1382,
      "Ġdirec": 1383,
      "Ġjam": 1384,
      "Ġactu": 1385,
      "www": 1386,
      "ris": 1387,
      "ĠdÃ©cision": 1388,
      "tÃ©s": 1389,
      "ĠEn": 1390,
      "Ġconsul": 1391,
      "AR": 1392,
      "Ils": 1393,
      "ĠintÃ©": 1394,
      "Ġpopul": 1395,
      "Ġtrait": 1396,
      "Ã¯": 1397,
      "seignement": 1398,
      "Ġrecomm": 1399,
      "ca": 1400,
      "Ġ18": 1401,
      "Ġbon": 1402,
      "rÃ©t": 1403,
      "Ġchose": 1404,
      "eff": 1405,
      "ĠdÃ©fin": 1406,
      "Ġ20": 1407,
      "Ġconform": 1408,
      "Ġconsid": 1409,
      "ĠfaÃ§on": 1410,
      "Ġprendre": 1411,
      "Ġservice": 1412,
      "tives": 1413,
      "raient": 1414,
      "ĠUnies": 1415,
      "Ġven": 1416,
      "lÃ©ment": 1417,
      "uses": 1418,
      "ource": 1419,
      "ov": 1420,
      "orer": 1421,
      "Ġavons": 1422,
      "hi": 1423,
      "ennes": 1424,
      "ĠmarchÃ©": 1425,
      "Ġvais": 1426,
      "rent": 1427,
      "Ã©th": 1428,
      "gment": 1429,
      "oli": 1430,
      "uc": 1431,
      "Ġgra": 1432,
      "Ġaccord": 1433,
      "Ġformation": 1434,
      "Ġquand": 1435,
      "tent": 1436,
      "Ġmondi": 1437,
      "Ġeffec": 1438,
      "Ġjou": 1439,
      "ange": 1440,
      "ĠdÃ©jÃł": 1441,
      "Ġgroupe": 1442,
      "Ġvale": 1443,
      "Cette": 1444,
      "Ġselon": 1445,
      "tivitÃ©": 1446,
      "asse": 1447,
      "Ġjusqu": 1448,
      "Ã©cu": 1449,
      "Ġpendant": 1450,
      "Ġmis": 1451,
      "illeurs": 1452,
      "autÃ©": 1453,
      "Ġchez": 1454,
      "gn": 1455,
      "Ġfourn": 1456,
      "ĠÃ©conomique": 1457,
      "Ġsal": 1458,
      "ĠcompÃ©": 1459,
      "Ã©dÃ©ra": 1460,
      "Ġsoi": 1461,
      "Ġtransp": 1462,
      "Ã©m": 1463,
      "oni": 1464,
      "rÃ©e": 1465,
      "Ġpor": 1466,
      "oins": 1467,
      "....": 1468,
      "Ġjamais": 1469,
      "aff": 1470,
      "UR": 1471,
      "acitÃ©": 1472,
      "Ġst": 1473,
      "uri": 1474,
      "Ġsavoir": 1475,
      "coup": 1476,
      "Ġreven": 1477,
      "ĠgÃ©nÃ©rale": 1478,
      "Ãĩa": 1479,
      "Ġsituation": 1480,
      "Ġdou": 1481,
      "eures": 1482,
      "ĠrÃ©un": 1483,
      "Ġcoo": 1484,
      "voir": 1485,
      "Ġpris": 1486,
      "Ġcau": 1487,
      "lec": 1488,
      "Ġlim": 1489,
      "az": 1490,
      "ĠrÃ©sultats": 1491,
      "ĠdÃ©termin": 1492,
      "ĠpÃ©riode": 1493,
      "Des": 1494,
      "lais": 1495,
      "ĠRÃ©": 1496,
      "Ġsecteur": 1497,
      "ureau": 1498,
      "Ġobjec": 1499,
      "Ġarri": 1500,
      "ĠannÃ©es": 1501,
      "agn": 1502,
      "Ġrenseignement": 1503,
      "Ġreg": 1504,
      "fier": 1505,
      "abilitÃ©": 1506,
      "oritÃ©s": 1507,
      "Ġalors": 1508,
      "Union": 1509,
      "12": 1510,
      "Ġconditions": 1511,
      "urope": 1512,
      "ganisation": 1513,
      "Ġz": 1514,
      "cteurs": 1515,
      "Ġceux": 1516,
      "Ġconf": 1517,
      "iller": 1518,
      "homme": 1519,
      "tim": 1520,
      "Ġtechni": 1521,
      "Ġmesure": 1522,
      "mble": 1523,
      "Ġmois": 1524,
      "ĠRe": 1525,
      "ras": 1526,
      "Ġloi": 1527,
      "are": 1528,
      "Ġof": 1529,
      "ĠpremiÃ¨re": 1530,
      "UE": 1531,
      "Ġcommunaut": 1532,
      "Ġnature": 1533,
      "Ġmettre": 1534,
      "Ġinternationale": 1535,
      "gation": 1536,
      "Ġman": 1537,
      "Ġnouveau": 1538,
      "Ġto": 1539,
      "tres": 1540,
      "Ġcher": 1541,
      "vin": 1542,
      "Ġjuste": 1543,
      "Ġprofes": 1544,
      "bil": 1545,
      "Ġcri": 1546,
      "Ã©ro": 1547,
      "Ġ11": 1548,
      "hui": 1549,
      "Ġinstitu": 1550,
      "fois": 1551,
      "Ġtant": 1552,
      "Ġgrande": 1553,
      "Ġ13": 1554,
      "oritÃ©": 1555,
      "accord": 1556,
      "Ġraison": 1557,
      "air": 1558,
      "Ġpremier": 1559,
      "Ġadop": 1560,
      "Ġ30": 1561,
      "Ġdevrait": 1562,
      "Ġcompris": 1563,
      "Ġton": 1564,
      "amin": 1565,
      "ran": 1566,
      "Ġrenseignements": 1567,
      "gÃ©": 1568,
      "Ġbeaucoup": 1569,
      "ess": 1570,
      "ends": 1571,
      "ĠcoÃ»": 1572,
      "Ġvoi": 1573,
      "gie": 1574,
      "Ġmarch": 1575,
      "Ġinternational": 1576,
      "Ġpouvoir": 1577,
      "Ġplusieurs": 1578,
      "ĠPrÃ©s": 1579,
      "Ġsign": 1580,
      "Ġfour": 1581,
      "istÃ¨re": 1582,
      "ancement": 1583,
      "Ġrecommand": 1584,
      "Ġveu": 1585,
      "aide": 1586,
      "Ch": 1587,
      "Ġcou": 1588,
      "Ġmaintenant": 1589,
      "ĠbÃ©n": 1590,
      "ĠMar": 1591,
      "od": 1592,
      "Ġprojets": 1593,
      "Ã©ch": 1594,
      "yant": 1595,
      "Ġpersonnel": 1596,
      "Ġtitre": 1597,
      "Ġ2006": 1598,
      "Ġcela": 1599,
      "Ġ14": 1600,
      "ĠsÃ»": 1601,
      "Ġmoment": 1602,
      "mer": 1603,
      "quipe": 1604,
      "Ġcommuni": 1605,
      "Ġcomb": 1606,
      "Ġai": 1607,
      "ĠqualitÃ©": 1608,
      "ĠcontrÃ´le": 1609,
      "enses": 1610,
      "position": 1611,
      "Ġexig": 1612,
      "rez": 1613,
      "Ar": 1614,
      "ER": 1615,
      "Ġcertains": 1616,
      "Ġremp": 1617,
      "agne": 1618,
      "Ġ2005": 1619,
      "ĠÃ©taient": 1620,
      "Ġviol": 1621,
      "cont": 1622,
      "Ã¨rement": 1623,
      "Ces": 1624,
      "udg": 1625,
      "dition": 1626,
      "Ġpriv": 1627,
      "autre": 1628,
      "ell": 1629,
      "su": 1630,
      "IN": 1631,
      "Ġrenfor": 1632,
      "ger": 1633,
      "Ġseulement": 1634,
      "Ġcomment": 1635,
      "nexe": 1636,
      "ption": 1637,
      "Ġquelque": 1638,
      "isl": 1639,
      "rations": 1640,
      "ollar": 1641,
      "Ġreconn": 1642,
      "Ġtaux": 1643,
      "ains": 1644,
      "ĠDE": 1645,
      "Ġconfi": 1646,
      "intÃ©": 1647,
      "ordin": 1648,
      "ĠsociÃ©tÃ©": 1649,
      "Ġsau": 1650,
      "Ġprix": 1651,
      "Ġ16": 1652,
      "ĠtÃ©lÃ©": 1653,
      "itation": 1654,
      "ĠprÃ©sente": 1655,
      "ĠÃªtes": 1656,
      "Ġexemple": 1657,
      "cture": 1658,
      "ssemb": 1659,
      "isation": 1660,
      "ĠSec": 1661,
      "IS": 1662,
      "Ãītat": 1663,
      "11": 1664,
      "Ġparten": 1665,
      "Ġrep": 1666,
      "ert": 1667,
      "Ġ17": 1668,
      "Åĵu": 1669,
      "Ġentreprises": 1670,
      "Ġsujet": 1671,
      "cue": 1672,
      "sition": 1673,
      "Ã¨mes": 1674,
      "ĠAn": 1675,
      "ĠY": 1676,
      "Ġoffici": 1677,
      "Ġdispositions": 1678,
      "OM": 1679,
      "ÂŃ": 1680,
      "ariat": 1681,
      "ront": 1682,
      "201": 1683,
      "Ġ2004": 1684,
      "lus": 1685,
      "ĠAl": 1686,
      "Ã©valuation": 1687,
      "fri": 1688,
      "oupes": 1689,
      "tÃ©rieur": 1690,
      "application": 1691,
      "Ġdollar": 1692,
      "Ġtechn": 1693,
      "Ġvos": 1694,
      "ĠmaniÃ¨re": 1695,
      "ĠfÃ©dÃ©ra": 1696,
      "yn": 1697,
      "Or": 1698,
      "gence": 1699,
      "Ġ198": 1700,
      "Ġpossible": 1701,
      "Ġnouvelle": 1702,
      "Ġdocument": 1703,
      "ĠMin": 1704,
      "Ġret": 1705,
      "Ġpourrait": 1706,
      "Ġkm": 1707,
      "Ġaid": 1708,
      "jourd": 1709,
      "Ġdivers": 1710,
      "Ġ,": 1711,
      "Ġcr": 1712,
      "ĠLoi": 1713,
      "oires": 1714,
      "trang": 1715,
      "Ġproduction": 1716,
      "tation": 1717,
      "Ġdomaine": 1718,
      "ĠreÃ§": 1719,
      "rÃªt": 1720,
      "Ġmieux": 1721,
      "itaire": 1722,
      "ĠrÃ©c": 1723,
      "Ġcin": 1724,
      "Ġcommerci": 1725,
      "Ġ$": 1726,
      "Ġdist": 1727,
      "aur": 1728,
      "act": 1729,
      "sez": 1730,
      "Ã©fi": 1731,
      "Ġind": 1732,
      "ĠcoopÃ©ration": 1733,
      "ĠnÃ©g": 1734,
      "ception": 1735,
      "Â«": 1736,
      "ĠprocÃ©d": 1737,
      "Ġjours": 1738,
      "Ġappel": 1739,
      "laboration": 1740,
      "Ġculture": 1741,
      "men": 1742,
      "lan": 1743,
      "atives": 1744,
      "Ġ2007": 1745,
      "endu": 1746,
      "rodu": 1747,
      "Com": 1748,
      "vision": 1749,
      "ies": 1750,
      "Ġlang": 1751,
      "eb": 1752,
      "ĠÂ°": 1753,
      "cembre": 1754,
      "TION": 1755,
      "Ġbudg": 1756,
      "Ġfourni": 1757,
      "Ġnouvelles": 1758,
      "Ã¨ne": 1759,
      "ĠrÃ´le": 1760,
      "tÃ©es": 1761,
      "pte": 1762,
      "Ġdollars": 1763,
      "Ġseront": 1764,
      "________": 1765,
      "ĠPrÃ©sident": 1766,
      "Ġparticulier": 1767,
      "quelle": 1768,
      "uit": 1769,
      "Ġpi": 1770,
      "Ġcelui": 1771,
      "Ou": 1772,
      "Ġparties": 1773,
      "ttp": 1774,
      "Ġsuite": 1775,
      "reg": 1776,
      "publi": 1777,
      "ologie": 1778,
      "ĠÃ©tabli": 1779,
      "Ġnational": 1780,
      "//": 1781,
      "Ġport": 1782,
      "Ġiniti": 1783,
      "Ġid": 1784,
      "Ġconcerne": 1785,
      "cune": 1786,
      "ĠCommun": 1787,
      "com": 1788,
      "rÃ¨s": 1789,
      "nelle": 1790,
      "rib": 1791,
      "atique": 1792,
      "esp": 1793,
      "tie": 1794,
      "ĠconformÃ©ment": 1795,
      "isme": 1796,
      "Ġlaquelle": 1797,
      "Ġpublique": 1798,
      "Ġpuis": 1799,
      "ĠeuropÃ©en": 1800,
      "ĠrÃ©solution": 1801,
      "Ġobli": 1802,
      "utilisation": 1803,
      "Ġall": 1804,
      "cun": 1805,
      "ĠmÃ©th": 1806,
      "Ġmillions": 1807,
      "ition": 1808,
      "Ġsci": 1809,
      "dic": 1810,
      "atis": 1811,
      "Ġesp": 1812,
      "Ġthe": 1813,
      "ĠrÃ©ser": 1814,
      "Ġpartir": 1815,
      "environnement": 1816,
      "Ġserait": 1817,
      "Ġsite": 1818,
      "arm": 1819,
      "Ġtrouv": 1820,
      "ĠrÃ©pond": 1821,
      "199": 1822,
      "Ġpens": 1823,
      "Ġsol": 1824,
      "Ġprofession": 1825,
      "Ã©b": 1826,
      "Ġple": 1827,
      "vement": 1828,
      "ĠvÃ©ri": 1829,
      "part": 1830,
      "Ġcal": 1831,
      "Ġoeu": 1832,
      "Ġeffic": 1833,
      "net": 1834,
      "AC": 1835,
      "Ġexc": 1836,
      "avant": 1837,
      "Ġimportant": 1838,
      "Ġbou": 1839,
      "ossi": 1840,
      "ĠbÃ©nÃ©fi": 1841,
      "Oui": 1842,
      "Ġadminist": 1843,
      "Ġali": 1844,
      "://": 1845,
      "Ġprovin": 1846,
      "Ġvu": 1847,
      "ĠÃ©ch": 1848,
      "Ġterrit": 1849,
      "Ġtype": 1850,
      "Ġsem": 1851,
      "Ġmeille": 1852,
      "Ġsc": 1853,
      "ĠmÃ©": 1854,
      "rir": 1855,
      "lles": 1856,
      "Ġsus": 1857,
      "aly": 1858,
      "lÃ¨mes": 1859,
      "II": 1860,
      "ĠconsÃ©qu": 1861,
      "Ġvraiment": 1862,
      "Ġemploy": 1863,
      "Ġprog": 1864,
      "Ġ2002": 1865,
      "Ġdate": 1866,
      "Ã©p": 1867,
      "llez": 1868,
      "Ġjeunes": 1869,
      "arde": 1870,
      "Unis": 1871,
      "ivi": 1872,
      "lÃ¨me": 1873,
      "Ġw": 1874,
      "Ġ25": 1875,
      "gramme": 1876,
      "cle": 1877,
      "ordre": 1878,
      "graph": 1879,
      "ĠSecrÃ©t": 1880,
      "Ġayant": 1881,
      "ĠTu": 1882,
      "ore": 1883,
      "cup": 1884,
      "Ġpense": 1885,
      "ĠParlement": 1886,
      "pect": 1887,
      "ĠdonnÃ©": 1888,
      "atri": 1889,
      "ĠOn": 1890,
      "Ġimm": 1891,
      "dement": 1892,
      "Ġmoyen": 1893,
      "ouvez": 1894,
      "ĠproblÃ¨mes": 1895,
      "rier": 1896,
      "issance": 1897,
      "Ġgroupes": 1898,
      "uridi": 1899,
      "ĠamÃ©li": 1900,
      "Ġdestin": 1901,
      "ak": 1902,
      "serv": 1903,
      "ĠproblÃ¨me": 1904,
      "ssemblÃ©e": 1905,
      "ach": 1906,
      "ĠlÃ©gisl": 1907,
      "fique": 1908,
      "Ġquelques": 1909,
      "Ġeffectu": 1910,
      "Ġaugment": 1911,
      "20": 1912,
      "Ġsimp": 1913,
      "Ġvoy": 1914,
      "Ġjusti": 1915,
      "truction": 1916,
      "Ġjuridi": 1917,
      "Ġvertu": 1918,
      "ĠU": 1919,
      "vestis": 1920,
      "Ġinformations": 1921,
      "Ġnationale": 1922,
      "he": 1923,
      "illet": 1924,
      "Ġeffet": 1925,
      "pendant": 1926,
      "uis": 1927,
      "Ġtrop": 1928,
      "dio": 1929,
      "Åĵuvre": 1930,
      "illi": 1931,
      "Ġvaleur": 1932,
      "Ġsoient": 1933,
      "Ġnor": 1934,
      "vient": 1935,
      "Ġatt": 1936,
      "ĠnÃ©cessaire": 1937,
      "Ġ2003": 1938,
      "ĠConvention": 1939,
      "Ġconnaiss": 1940,
      "import": 1941,
      "pes": 1942,
      "ression": 1943,
      "venir": 1944,
      "Ġatte": 1945,
      "Ġobjectifs": 1946,
      "Ġparce": 1947,
      "Ġ000": 1948,
      "Ġref": 1949,
      "emploi": 1950,
      "tenu": 1951,
      "erce": 1952,
      "Ġfran": 1953,
      "dit": 1954,
      "Ġmer": 1955,
      "Ġcelle": 1956,
      "Ġengag": 1957,
      "Que": 1958,
      "cus": 1959,
      "Ġsession": 1960,
      "Ġand": 1961,
      "Ġcharg": 1962,
      "Ã©rie": 1963,
      "Ġappro": 1964,
      "sieur": 1965,
      "vier": 1966,
      "tÃ©gi": 1967,
      "ow": 1968,
      "Ġcoup": 1969,
      "quel": 1970,
      "lic": 1971,
      "publique": 1972,
      "Ġproduit": 1973,
      "Ã©tu": 1974,
      "Ġtot": 1975,
      "Mon": 1976,
      "Ġsommes": 1977,
      "lez": 1978,
      "Ġrou": 1979,
      "Ġ2000": 1980,
      "--": 1981,
      "man": 1982,
      "och": 1983,
      "ĠdÃ©ta": 1984,
      "Bien": 1985,
      "Ġviv": 1986,
      "Ġhab": 1987,
      "ĠannÃ©e": 1988,
      "ĠAr": 1989,
      "Ġtraitement": 1990,
      "Ġdisponi": 1991,
      "be": 1992,
      "Ġoc": 1993,
      "Ġfamille": 1994,
      "vant": 1995,
      "Ġmort": 1996,
      "ueur": 1997,
      "ustrie": 1998,
      "13": 1999,
      "ĠÃ©v": 2000,
      "ote": 2001,
      "der": 2002,
      "Ġsens": 2003,
      "quÃªte": 2004,
      "Ġtrouver": 2005,
      "ĠstratÃ©gi": 2006,
      "Ġgens": 2007,
      "Ġpopulation": 2008,
      "sements": 2009,
      "Ġcir": 2010,
      "Ġappr": 2011,
      "gu": 2012,
      "Ġnum": 2013,
      "Ġassoci": 2014,
      "Ġnouveaux": 2015,
      "Ġrelatives": 2016,
      "Ġrap": 2017,
      "Ġcollec": 2018,
      "uel": 2019,
      "nels": 2020,
      "Ġbesoins": 2021,
      "ges": 2022,
      "Ġcrois": 2023,
      "Ġfinancement": 2024,
      "itaires": 2025,
      "Re": 2026,
      "je": 2027,
      "Ġconsomm": 2028,
      "Ġtravaux": 2029,
      "Ġorganismes": 2030,
      "atre": 2031,
      "lÃ©ments": 2032,
      "Ġhau": 2033,
      "Ġfemme": 2034,
      "Ġparler": 2035,
      "Ġjuin": 2036,
      "examen": 2037,
      "lac": 2038,
      "Ġvisant": 2039,
      "Source": 2040,
      "Ġsouv": 2041,
      "Ġsp": 2042,
      "Ġelles": 2043,
      "AssemblÃ©e": 2044,
      "abri": 2045,
      "Ġappar": 2046,
      "erre": 2047,
      "tructure": 2048,
      "Ġpaix": 2049,
      "ĠDe": 2050,
      "forme": 2051,
      "RE": 2052,
      "Ġinst": 2053,
      "Ġchi": 2054,
      "Ġ2008": 2055,
      "dre": 2056,
      "rage": 2057,
      "inÃ©": 2058,
      "Ġ;": 2059,
      "ds": 2060,
      "Ġvas": 2061,
      "Ġrisque": 2062,
      "Ġfonds": 2063,
      "ĠSer": 2064,
      "Ġdocuments": 2065,
      "Ne": 2066,
      "ĠgÃ©": 2067,
      "ice": 2068,
      "Ã©ration": 2069,
      "cou": 2070,
      "rance": 2071,
      "Ġ2001": 2072,
      "xes": 2073,
      "Ġmembre": 2074,
      "ograph": 2075,
      "Ġterme": 2076,
      "obre": 2077,
      "ĠDieu": 2078,
      "enf": 2079,
      "Ġoeuvre": 2080,
      "art": 2081,
      "Ġdonner": 2082,
      "ke": 2083,
      "Ġsor": 2084,
      "Ġlut": 2085,
      "Ġenvironnement": 2086,
      "IC": 2087,
      "emb": 2088,
      "Ã¡": 2089,
      "ints": 2090,
      "ril": 2091,
      "IT": 2092,
      "alyse": 2093,
      "ĠrÃ©glement": 2094,
      "voy": 2095,
      "ah": 2096,
      "ribun": 2097,
      "15": 2098,
      "ital": 2099,
      "Ġconclu": 2100,
      "Ġligne": 2101,
      "tir": 2102,
      "Ġsoutien": 2103,
      "aÃ®t": 2104,
      "dro": 2105,
      "Ġpourquoi": 2106,
      "ll": 2107,
      "ĠopÃ©": 2108,
      "Ġbonne": 2109,
      "Ġchar": 2110,
      "reu": 2111,
      "An": 2112,
      "Ġfau": 2113,
      "oles": 2114,
      "Ġdois": 2115,
      "ĠMon": 2116,
      "gne": 2117,
      "ĠdÃ©cembre": 2118,
      "Ġrapports": 2119,
      "Ġessenti": 2120,
      "annÃ©e": 2121,
      "ribu": 2122,
      "ĠprÃ©cis": 2123,
      "aprÃ¨s": 2124,
      "ptembre": 2125,
      "lection": 2126,
      "Ġheures": 2127,
      "Ġorganisations": 2128,
      "Ġsurve": 2129,
      "Ġaller": 2130,
      "semble": 2131,
      "ennent": 2132,
      "mination": 2133,
      "Ġreste": 2134,
      "Ġsuff": 2135,
      "Ġcertaines": 2136,
      "ĠÅĵuvre": 2137,
      "ich": 2138,
      "inf": 2139,
      "AL": 2140,
      "Ġlaiss": 2141,
      "Ġmul": 2142,
      "Ġfil": 2143,
      "Ġporte": 2144,
      "ĠÃ©lec": 2145,
      "ju": 2146,
      "Ġtex": 2147,
      "Ġgaranti": 2148,
      "Ġ24": 2149,
      "ĠGroupe": 2150,
      "Ġjourn": 2151,
      "att": 2152,
      "ĠCour": 2153,
      "Comment": 2154,
      "Ġmars": 2155,
      "Ġfig": 2156,
      "ministration": 2157,
      "Ġexamin": 2158,
      "Ġsouh": 2159,
      "ensemble": 2160,
      "accÃ¨s": 2161,
      "ĠmatÃ©ri": 2162,
      "osÃ©": 2163,
      "avais": 2164,
      "Ã¢ce": 2165,
      "Ġconta": 2166,
      "Ã©rique": 2167,
      "ensi": 2168,
      "orter": 2169,
      "oses": 2170,
      "pose": 2171,
      "ath": 2172,
      "ercice": 2173,
      "Ġrespec": 2174,
      "ĠdÃ©penses": 2175,
      "Tout": 2176,
      "Ġconseil": 2177,
      "Ġparticipation": 2178,
      "Comme": 2179,
      "ĠÃ©tablis": 2180,
      "Pourquoi": 2181,
      "Ġpropri": 2182,
      "ivers": 2183,
      "Ġlorsque": 2184,
      "ordonn": 2185,
      "Ġaujourd": 2186,
      "Ġinv": 2187,
      "Ġsein": 2188,
      "ones": 2189,
      "ĠsystÃ¨mes": 2190,
      "cÃ©": 2191,
      "ĠcÃ´": 2192,
      "ĠÃ©trang": 2193,
      "entrepr": 2194,
      "Ġforme": 2195,
      "Ġministre": 2196,
      "Ġcondu": 2197,
      "ĠprÃª": 2198,
      "anvier": 2199,
      "Ġenti": 2200,
      "16": 2201,
      "oÃ»": 2202,
      "ub": 2203,
      "Ġoct": 2204,
      "quent": 2205,
      "Ġsig": 2206,
      "Alors": 2207,
      "con": 2208,
      "Ġfai": 2209,
      "Ġpay": 2210,
      "Ġmontant": 2211,
      "Ġfut": 2212,
      "ade": 2213,
      "Ġpouvez": 2214,
      "sie": 2215,
      "ĠsÃ»r": 2216,
      "lace": 2217,
      "Ġliste": 2218,
      "ĠInter": 2219,
      "Ġvoit": 2220,
      "Ã¨le": 2221,
      "Ã©dure": 2222,
      "ĠrÃ©f": 2223,
      "ĠEt": 2224,
      "fications": 2225,
      "Ġcentra": 2226,
      "14": 2227,
      "alitÃ©s": 2228,
      "Ġcause": 2229,
      "Ġ22": 2230,
      "Ġveut": 2231,
      "erts": 2232,
      "gations": 2233,
      "ĠPour": 2234,
      "Ġdevant": 2235,
      "vembre": 2236,
      "Ġhommes": 2237,
      "Ġtransport": 2238,
      "Ġautoris": 2239,
      "issant": 2240,
      ".,": 2241,
      "vid": 2242,
      "Ġcommen": 2243,
      "Ġdernier": 2244,
      "30": 2245,
      "Ġmaison": 2246,
      "istance": 2247,
      "otre": 2248,
      "suite": 2249,
      "ĠRÃ©publique": 2250,
      "aise": 2251,
      "Ġoutre": 2252,
      "Ġrencont": 2253,
      "Ġlar": 2254,
      "Europe": 2255,
      "Ġville": 2256,
      "ĠmÃ©c": 2257,
      "Ġseul": 2258,
      "ĠNe": 2259,
      "OR": 2260,
      "off": 2261,
      "Ġunique": 2262,
      "Oh": 2263,
      "Ġtransf": 2264,
      "ettes": 2265,
      "cription": 2266,
      "time": 2267,
      "usion": 2268,
      "Ġquatre": 2269,
      "fait": 2270,
      "ĠsupÃ©ri": 2271,
      "alisation": 2272,
      "iles": 2273,
      "Ġpetit": 2274,
      "Ġaffaires": 2275,
      "ĠrÃ©pon": 2276,
      "Ã¨ces": 2277,
      "resp": 2278,
      "Ġvari": 2279,
      "ĠprocÃ©dure": 2280,
      "aÃ¯": 2281,
      "Ġ21": 2282,
      "oh": 2283,
      "resse": 2284,
      "jou": 2285,
      "Organisation": 2286,
      "ps": 2287,
      "ĠVous": 2288,
      "Ġmaj": 2289,
      "Ġtable": 2290,
      "oix": 2291,
      "Ġ>": 2292,
      "Ġvig": 2293,
      "aÃ®tre": 2294,
      "Ġefforts": 2295,
      "Ġsouhait": 2296,
      "ĠprÃ©par": 2297,
      "Ġmet": 2298,
      "ĠbÃ©nÃ©fici": 2299,
      "ropri": 2300,
      "Ġrequ": 2301,
      "Ġ31": 2302,
      "Ġcanadienne": 2303,
      "Ġfav": 2304,
      "issent": 2305,
      "Â°": 2306,
      "ocra": 2307,
      "sique": 2308,
      "EC": 2309,
      "xim": 2310,
      "fiÃ©": 2311,
      "Con": 2312,
      "Ġcelles": 2313,
      "ĠÃ©lÃ©ments": 2314,
      "odes": 2315,
      "Ã©ric": 2316,
      "Ġ23": 2317,
      "ĠpassÃ©": 2318,
      "appel": 2319,
      "ĠÃ©tant": 2320,
      "Pas": 2321,
      "Ġeux": 2322,
      "Ġvic": 2323,
      "ros": 2324,
      "Ġfont": 2325,
      "ock": 2326,
      "Ġsuivi": 2327,
      "Ġpau": 2328,
      "Ġrapide": 2329,
      "Ġlib": 2330,
      "tient": 2331,
      "Ã¨ce": 2332,
      "\".": 2333,
      "vie": 2334,
      "dess": 2335,
      "ela": 2336,
      "ĠÃ©tudi": 2337,
      "Ġdevraient": 2338,
      "uni": 2339,
      "lob": 2340,
      "Ġmai": 2341,
      "apit": 2342,
      "Ġtour": 2343,
      "lin": 2344,
      "Ġproch": 2345,
      "Ã©rÃ©": 2346,
      "ctement": 2347,
      "ĠProgramme": 2348,
      "Ġdirective": 2349,
      "Ġop": 2350,
      "oit": 2351,
      "otion": 2352,
      "tÃ©gie": 2353,
      "ĠâĢĵ": 2354,
      "Ã¨glement": 2355,
      "ĠnÃ©cessaires": 2356,
      "Ġfins": 2357,
      "Ġvois": 2358,
      "Ã©ducation": 2359,
      "ĠauprÃ¨s": 2360,
      "agit": 2361,
      "ĠsupplÃ©ment": 2362,
      "ĠautoritÃ©s": 2363,
      "Ġ100": 2364,
      "ĠtraitÃ©": 2365,
      "ret": 2366,
      "Ġapplic": 2367,
      "EM": 2368,
      "Ġpasse": 2369,
      "Ġadministra": 2370,
      "inc": 2371,
      "50": 2372,
      "ĠpÃª": 2373,
      "Ġfra": 2374,
      "ĠcompÃ©ten": 2375,
      "ĠpÃ©n": 2376,
      "ario": 2377,
      "??": 2378,
      "indre": 2379,
      "respond": 2380,
      "tage": 2381,
      "ĠpÃ¨re": 2382,
      "Ġsatis": 2383,
      "fiques": 2384,
      "amÃ©li": 2385,
      "Ġchois": 2386,
      "Ġcinq": 2387,
      "Ex": 2388,
      "urr": 2389,
      "Ġagri": 2390,
      "Ġtrouve": 2391,
      "ĠnÃ©goci": 2392,
      "objet": 2393,
      "ĠSu": 2394,
      "Ġsouvent": 2395,
      "ENT": 2396,
      "Ġaucune": 2397,
      "Ġseptembre": 2398,
      "ĠcrÃ©ation": 2399,
      "Ġsoir": 2400,
      "Ġmu": 2401,
      "Ġcanadien": 2402,
      "Ġpratiques": 2403,
      "arri": 2404,
      "Ġfrais": 2405,
      ");": 2406,
      "ĠCanadi": 2407,
      "atoire": 2408,
      "Ġaider": 2409,
      "Ġfix": 2410,
      "itoy": 2411,
      "Ġmari": 2412,
      "ĠÃ©n": 2413,
      "Ġnormes": 2414,
      "vÃ©e": 2415,
      "Qui": 2416,
      "Ġtenu": 2417,
      "Ġaccep": 2418,
      "Ġaucun": 2419,
      "Ġmand": 2420,
      "Ġlesqu": 2421,
      "tionn": 2422,
      "ĠderniÃ¨re": 2423,
      "industrie": 2424,
      "appro": 2425,
      "AS": 2426,
      "Ġcommerce": 2427,
      "ĠÃ¢": 2428,
      "Ġcorrespond": 2429,
      "Ġmaladi": 2430,
      "Ġprest": 2431,
      "Ġformul": 2432,
      "explo": 2433,
      "Ġfabri": 2434,
      "ĠrÃ©gions": 2435,
      "veur": 2436,
      "Ġavaient": 2437,
      "llem": 2438,
      "Ġmoyens": 2439,
      "oser": 2440,
      "Ġoctobre": 2441,
      "Ġrespect": 2442,
      "Ġchoses": 2443,
      "ĠcoÃ»ts": 2444,
      "Ã©l": 2445,
      "vec": 2446,
      "Ġpoints": 2447,
      "administration": 2448,
      "18": 2449,
      "ĠSecrÃ©taire": 2450,
      "Ġsociale": 2451,
      "Ġtotal": 2452,
      "Ġtemp": 2453,
      "Ġval": 2454,
      "atiques": 2455,
      "Ġinstru": 2456,
      "anger": 2457,
      "ĠcapacitÃ©": 2458,
      "ĠdiffÃ©rents": 2459,
      "illance": 2460,
      "oÃ»t": 2461,
      "ĠSe": 2462,
      "istoire": 2463,
      "Ġpermis": 2464,
      "ses": 2465,
      "Ġreli": 2466,
      "did": 2467,
      "ĠdÃ©cisions": 2468,
      "oint": 2469,
      "Ġtard": 2470,
      "ĠintÃ©g": 2471,
      "Ġeffets": 2472,
      "Ġtechnique": 2473,
      "ĠcatÃ©g": 2474,
      "nelles": 2475,
      "mÃ©": 2476,
      "Ġnombreux": 2477,
      "Ġconser": 2478,
      "Ġseule": 2479,
      "ĠDire": 2480,
      "Ġsigni": 2481,
      "ĠdÃ©lÃ©": 2482,
      "ĠÃ©valu": 2483,
      "ĠDÃ©": 2484,
      "amb": 2485,
      "Ġjuillet": 2486,
      "Ġensemble": 2487,
      "Ġcroissance": 2488,
      "Ġinstitutions": 2489,
      "Ġpeup": 2490,
      "Ġrisques": 2491,
      "occup": 2492,
      "Ġjanvier": 2493,
      "AP": 2494,
      "Ġterr": 2495,
      "ĠÃĩ": 2496,
      "ĠprÃ¨s": 2497,
      "Ġbut": 2498,
      "ĠrÃ¨gles": 2499,
      "ĠvÃ©": 2500,
      "stitu": 2501,
      "ĠdÃ»": 2502,
      "Ġfournir": 2503,
      "Ġsouli": 2504,
      "ĠÃ©qu": 2505,
      "aces": 2506,
      "ĠBureau": 2507,
      "tel": 2508,
      "ĠCol": 2509,
      "Ġang": 2510,
      "Ġ50": 2511,
      "ĠmÃ©can": 2512,
      "onde": 2513,
      "Ġmondiale": 2514,
      "Ġaccomp": 2515,
      "ĠrÃ©union": 2516,
      "Ġnovembre": 2517,
      "ĠprotÃ©g": 2518,
      "rain": 2519,
      "Ġcommunication": 2520,
      "ĠServi": 2521,
      "Ġefficace": 2522,
      "ribunal": 2523,
      "Ġpreu": 2524,
      "ards": 2525,
      "Ġtechnologi": 2526,
      "ĠPremi": 2527,
      "Ã©tÃ©s": 2528,
      "uerre": 2529,
      "Ġcertain": 2530,
      "Ġvigueur": 2531,
      "ĠdeuxiÃ¨me": 2532,
      "Ġpolice": 2533,
      "ĠZ": 2534,
      "Ã¨te": 2535,
      "Ã©conom": 2536,
      "ĠÃ©p": 2537,
      "Pro": 2538,
      "Ġrend": 2539,
      "Ġcontinu": 2540,
      "ĠSi": 2541,
      "Ġradio": 2542,
      "tivement": 2543,
      "Ġdonne": 2544,
      "Ã©quipe": 2545,
      "tron": 2546,
      "lent": 2547,
      "ĠdÃ©claration": 2548,
      "ase": 2549,
      "ĠdÃ©ci": 2550,
      "ĠdÃ©but": 2551,
      "Ġproposition": 2552,
      "Ġcandid": 2553,
      "Ġsocial": 2554,
      "Ġouver": 2555,
      "frique": 2556,
      "Ġbr": 2557,
      "Ġindustri": 2558,
      "Ġperman": 2559,
      "Ġminu": 2560,
      "Merci": 2561,
      "ĠnumÃ©ro": 2562,
      "22": 2563,
      "enir": 2564,
      "pÃ©rience": 2565,
      "Ġplein": 2566,
      "Ġ/": 2567,
      "tex": 2568,
      "atif": 2569,
      "Ġlutte": 2570,
      "Ã©ner": 2571,
      "table": 2572,
      "ĠopÃ©rations": 2573,
      "ĠMinistÃ¨re": 2574,
      "ATION": 2575,
      "ament": 2576,
      "urant": 2577,
      "ĠdÃ©mocra": 2578,
      "ĠCommunautÃ©": 2579,
      "ĠfranÃ§": 2580,
      "vres": 2581,
      "Ġaliment": 2582,
      "ĠX": 2583,
      "annexe": 2584,
      "cipe": 2585,
      "ĠÃ©conomiques": 2586,
      "tones": 2587,
      "rant": 2588,
      "ĠNord": 2589,
      "raÃ®": 2590,
      "ane": 2591,
      "exercice": 2592,
      "ĠNon": 2593,
      "ĠgrÃ¢ce": 2594,
      "uli": 2595,
      "Ġdistribu": 2596,
      "Ġpol": 2597,
      "Ġnorm": 2598,
      "aisse": 2599,
      "Ġcamp": 2600,
      "Ġ27": 2601,
      "Ġbudget": 2602,
      "AD": 2603,
      "Ġdurable": 2604,
      "Ġaurait": 2605,
      "olutions": 2606,
      "lit": 2607,
      "blissement": 2608,
      "ĠrÃ©gime": 2609,
      "ochtones": 2610,
      "Ġrelative": 2611,
      "ticles": 2612,
      "Ġdomaines": 2613,
      "ĠmÃ¨re": 2614,
      "ablement": 2615,
      "Ġinternationales": 2616,
      "Ġpratique": 2617,
      "ox": 2618,
      "naires": 2619,
      "Ġcommunautaire": 2620,
      "........": 2621,
      "Ġjustice": 2622,
      "asion": 2623,
      "Ġavis": 2624,
      "Ġnavi": 2625,
      "ry": 2626,
      "Ġmulti": 2627,
      "grÃ©": 2628,
      "Ġsy": 2629,
      "hicu": 2630,
      "ĠUn": 2631,
      "ÃŃ": 2632,
      "olÃ©": 2633,
      "Ã©vrier": 2634,
      "Ġ1999": 2635,
      "Ġdemandes": 2636,
      "Ġbureau": 2637,
      "Ġappropri": 2638,
      "Ġavril": 2639,
      "istes": 2640,
      "uy": 2641,
      "Ġcitoy": 2642,
      "Ġpati": 2643,
      "Ġminist": 2644,
      "cident": 2645,
      "aci": 2646,
      "ib": 2647,
      "ventions": 2648,
      "hab": 2649,
      "Ã«": 2650,
      "Ġsoins": 2651,
      "ĠarrÃª": 2652,
      "Est": 2653,
      "ĠindÃ©": 2654,
      "ĠprÃ©sident": 2655,
      "ications": 2656,
      "Ġpasser": 2657,
      "17": 2658,
      "Ġliber": 2659,
      "icile": 2660,
      "toc": 2661,
      "Ġ26": 2662,
      "sp": 2663,
      "gent": 2664,
      "nique": 2665,
      "missions": 2666,
      "ĠCar": 2667,
      "chi": 2668,
      "Ġhomme": 2669,
      "leur": 2670,
      "Ġtermin": 2671,
      "Ġ28": 2672,
      "ĠÃĥ": 2673,
      "Ġrevenu": 2674,
      "ĠcommunautÃ©": 2675,
      "positions": 2676,
      "ok": 2677,
      "Ã©tais": 2678,
      "Ġlic": 2679,
      "Ġexigences": 2680,
      "25": 2681,
      "onds": 2682,
      "orie": 2683,
      "assurer": 2684,
      "pro": 2685,
      "Ġdossi": 2686,
      "cent": 2687,
      "Ġphot": 2688,
      "Ġtermes": 2689,
      "Ġdiri": 2690,
      "Ġ197": 2691,
      "temps": 2692,
      "ĠdemandÃ©": 2693,
      "Ġtechniques": 2694,
      "Ġgen": 2695,
      "Ġrelations": 2696,
      "pend": 2697,
      "Bon": 2698,
      "Ġvoul": 2699,
      "ĠrÃ©seau": 2700,
      "land": 2701,
      "Ġprend": 2702,
      "urent": 2703,
      "ail": 2704,
      "Ġobserv": 2705,
      "Ġplupart": 2706,
      "Ġconcurr": 2707,
      "ĠintÃ©ress": 2708,
      "Ġpropre": 2709,
      "Ġsuper": 2710,
      "ĠsÃ©rie": 2711,
      "Ã¨ge": 2712,
      "utÃ´t": 2713,
      "tario": 2714,
      "ĠEx": 2715,
      "orig": 2716,
      "Ġpermettre": 2717,
      "Am": 2718,
      "Ġanti": 2719,
      "Ġfeu": 2720,
      "organis": 2721,
      "Ãªtes": 2722,
      "Ã©nergie": 2723,
      "Ġtels": 2724,
      "AT": 2725,
      "ĠrÃ©fÃ©rence": 2726,
      "Ġchac": 2727,
      "ĠvÃ©hicu": 2728,
      "osition": 2729,
      "Ġenreg": 2730,
      "Ġsurveillance": 2731,
      "Ġmandat": 2732,
      "Â».": 2733,
      "ĠprÃ©cÃ©d": 2734,
      "Ġquelqu": 2735,
      "ĠMme": 2736,
      "ĠdiffÃ©rentes": 2737,
      "avis": 2738,
      "Ġprise": 2739,
      "Ġcompos": 2740,
      "iens": 2741,
      "alog": 2742,
      "Lors": 2743,
      "Quand": 2744,
      "lai": 2745,
      "Ġlu": 2746,
      "Ġface": 2747,
      "rie": 2748,
      "ĠresponsabilitÃ©": 2749,
      "let": 2750,
      "Ã©cution": 2751,
      "Ãªmes": 2752,
      "ĠÃ©tudes": 2753,
      "Ġsensi": 2754,
      "ĠprocÃ©dures": 2755,
      "hy": 2756,
      "Ġpage": 2757,
      "Ġcentre": 2758,
      "avantage": 2759,
      "Ġdemander": 2760,
      "Ġ29": 2761,
      "Ġpromotion": 2762,
      "Ġhaut": 2763,
      "mÃªme": 2764,
      "Ġbl": 2765,
      "argent": 2766,
      "uelle": 2767,
      "Ġscienti": 2768,
      "ĠâĢĶ": 2769,
      "Ġmarchand": 2770,
      "Ġcrit": 2771,
      "Ġexplo": 2772,
      "Ġanim": 2773,
      "Ġrecommandations": 2774,
      "Ġrendre": 2775,
      "Ġassurer": 2776,
      "Ġcompar": 2777,
      "Ġzone": 2778,
      "heure": 2779,
      "Ġplani": 2780,
      "Ġposition": 2781,
      "ension": 2782,
      "DE": 2783,
      "Ġ--": 2784,
      ".\"": 2785,
      "Ġsorte": 2786,
      "Ã©gard": 2787,
      "Ġprises": 2788,
      "Quel": 2789,
      "Ad": 2790,
      "UN": 2791,
      "yc": 2792,
      "ties": 2793,
      "Ġnationales": 2794,
      "ĠCentre": 2795,
      "ĠministÃ¨re": 2796,
      "Ġnote": 2797,
      "ĠmarchÃ©s": 2798,
      "ĠspÃ©cialis": 2799,
      "http": 2800,
      "sui": 2801,
      "Ġfille": 2802,
      "vÃ©s": 2803,
      "Ġve": 2804,
      "pl": 2805,
      "option": 2806,
      "ĠconsidÃ©r": 2807,
      "Ġach": 2808,
      "ĠrÃ©ponse": 2809,
      "ĠOui": 2810,
      "nov": 2811,
      "aison": 2812,
      "Pr": 2813,
      "identi": 2814,
      "iser": 2815,
      "ĠvÃ©r": 2816,
      "ĠreprÃ©sentants": 2817,
      "Ġaide": 2818,
      "Ġsubst": 2819,
      "ĠreÃ§u": 2820,
      "ĠprogrÃ¨s": 2821,
      "Ġhy": 2822,
      "ĠConfÃ©rence": 2823,
      "ĠCe": 2824,
      "Ġmilieu": 2825,
      "Ġphy": 2826,
      "ĠparticuliÃ¨rement": 2827,
      "tout": 2828,
      "Ġheure": 2829,
      "ienne": 2830,
      "anque": 2831,
      "assi": 2832,
      "ĠrÃ©par": 2833,
      "Ġorgan": 2834,
      "Ġsecond": 2835,
      "Ġglob": 2836,
      "LE": 2837,
      "da": 2838,
      "ĠstratÃ©gie": 2839,
      "Ġagrico": 2840,
      "tÃ©ra": 2841,
      "Ġchoix": 2842,
      "cons": 2843,
      "Ã©taire": 2844,
      "Ġposte": 2845,
      "Ġvoud": 2846,
      "dez": 2847,
      "enseignement": 2848,
      "ĠrÃ©duire": 2849,
      "ĠdÃ©terminer": 2850,
      "Ġcherche": 2851,
      "ĠFrance": 2852,
      "Ġstatu": 2853,
      "Ġsuffis": 2854,
      "Ã¨de": 2855,
      "Ġsix": 2856,
      "inte": 2857,
      "lex": 2858,
      "Ġestim": 2859,
      "Ġfondament": 2860,
      "apport": 2861,
      "Ġsuivants": 2862,
      "Ġlorsqu": 2863,
      "ouvoir": 2864,
      "Ġcharge": 2865,
      "Ġrele": 2866,
      "Ġguerre": 2867,
      "Toute": 2868,
      "mar": 2869,
      "Ġtel": 2870,
      "Ġvoie": 2871,
      "Ġpoursui": 2872,
      "Ġchef": 2873,
      "ambre": 2874,
      "Ġsex": 2875,
      "ilÃł": 2876,
      "truct": 2877,
      "Ġnationaux": 2878,
      "ĠemployÃ©s": 2879,
      "ĠplutÃ´t": 2880,
      "lant": 2881,
      "Ġouv": 2882,
      "Ġchangements": 2883,
      "Ġrenforcer": 2884,
      "Ġstructure": 2885,
      "dec": 2886,
      "venu": 2887,
      "Cela": 2888,
      "gh": 2889,
      "Ġsuivant": 2890,
      "Ġlangue": 2891,
      "phone": 2892,
      "RO": 2893,
      "Ġus": 2894,
      "Ġsecteurs": 2895,
      "Ġpertin": 2896,
      "Ġri": 2897,
      "tait": 2898,
      "Ã©laboration": 2899,
      "Ġunivers": 2900,
      "Ġrev": 2901,
      "Ġchau": 2902,
      "Ġtravers": 2903,
      "vÃ©nement": 2904,
      "ĠÃ©lectron": 2905,
      "ĠcomitÃ©": 2906,
      "texte": 2907,
      "Ġobtenir": 2908,
      "rou": 2909,
      "ern": 2910,
      "cessi": 2911,
      "isc": 2912,
      "ĠÃītat": 2913,
      "ĠdÃ©li": 2914,
      "ĠGouvernement": 2915,
      "ĠRÃ¨glement": 2916,
      "ient": 2917,
      "exc": 2918,
      "cueil": 2919,
      "ĠFor": 2920,
      "Ġ...": 2921,
      "actÃ©": 2922,
      "Ġpartenaires": 2923,
      "ologique": 2924,
      "Ã©lÃ©": 2925,
      "urance": 2926,
      "entreprise": 2927,
      "Ġur": 2928,
      "Ġnuit": 2929,
      "Ã©tat": 2930,
      "ĠTra": 2931,
      "dam": 2932,
      "Ġprincipes": 2933,
      "ision": 2934,
      "enez": 2935,
      "ĠEurope": 2936,
      "Ġarticle": 2937,
      "Ġfaveur": 2938,
      "Ġclients": 2939,
      "Ġis": 2940,
      "Ġvisite": 2941,
      "Ġfils": 2942,
      "Ġviolence": 2943,
      "Ġdirection": 2944,
      "ĠcrÃ©er": 2945,
      "auv": 2946,
      "Ġtexte": 2947,
      "Ġfaites": 2948,
      "Ġsatisf": 2949,
      "Ġtelle": 2950,
      "ĠfinanciÃ¨re": 2951,
      "Ã©bec": 2952,
      "23": 2953,
      "aque": 2954,
      "til": 2955,
      "Ġparticipants": 2956,
      "Ġencou": 2957,
      "ONU": 2958,
      "Ġterritoire": 2959,
      "Ġquanti": 2960,
      "ĠÃ©lab": 2961,
      "org": 2962,
      "ast": 2963,
      "cement": 2964,
      "times": 2965,
      "ignes": 2966,
      "Ġsemaine": 2967,
      "quÃ©e": 2968,
      "activitÃ©": 2969,
      "Ġlequel": 2970,
      "intÃ©rÃªt": 2971,
      "importance": 2972,
      "ĠspÃ©cial": 2973,
      "Ġimportante": 2974,
      "origine": 2975,
      "RÃ©": 2976,
      "Ġposi": 2977,
      "ĠfÃ©vrier": 2978,
      "ctu": 2979,
      "Ġpap": 2980,
      "ĠSt": 2981,
      "Ġexist": 2982,
      "apitre": 2983,
      "Ã¨ve": 2984,
      "Ġabs": 2985,
      "Ġrece": 2986,
      "rons": 2987,
      "Ã¨rent": 2988,
      "toi": 2989,
      "quÃ©s": 2990,
      "ĠCor": 2991,
      "ĠpÃªche": 2992,
      "aime": 2993,
      "Ġvenir": 2994,
      "ĠWeb": 2995,
      "Ġactuellement": 2996,
      "pt": 2997,
      "organisation": 2998,
      "Ġdisposition": 2999,
      "culture": 3000,
      "Ġtes": 3001,
      "Ġcalcul": 3002,
      "odi": 3003,
      "ĠdurÃ©e": 3004,
      "Ġsucc": 3005,
      "Ġexpli": 3006,
      "ĠpossibilitÃ©": 3007,
      "ociation": 3008,
      "Ġterre": 3009,
      "Ġmag": 3010,
      "rÃªts": 3011,
      "Ġgouvernements": 3012,
      "24": 3013,
      "ĠAu": 3014,
      "Ġdess": 3015,
      "Ġinvestis": 3016,
      "Ġfacil": 3017,
      "Â»,": 3018,
      "Ġproven": 3019,
      "Ġconsac": 3020,
      "tez": 3021,
      "ĠCE": 3022,
      "Ã®tre": 3023,
      "Ġinstall": 3024,
      "bes": 3025,
      "lam": 3026,
      "Ġdirectement": 3027,
      "ĠsÃ©lection": 3028,
      "Ġ40": 3029,
      "Ġstatis": 3030,
      "Ġvolont": 3031,
      "exploitation": 3032,
      "ĠrÃ©duction": 3033,
      "abil": 3034,
      "lande": 3035,
      "vo": 3036,
      "nous": 3037,
      "Ġaura": 3038,
      "Ġenviron": 3039,
      "ĠcontrÃ´": 3040,
      "Ġenvoy": 3041,
      "ĠrÃ©pondre": 3042,
      "Ġmaxim": 3043,
      "Ġdiffic": 3044,
      "ĠlÃ©gislation": 3045,
      "ĠtÃªte": 3046,
      "arder": 3047,
      "Ġtradition": 3048,
      "Ġminim": 3049,
      "ork": 3050,
      "Ġparc": 3051,
      "Ġailleurs": 3052,
      "Ġutiliser": 3053,
      "wa": 3054,
      "Ġsemb": 3055,
      "Ġcapit": 3056,
      "Ġtenir": 3057,
      "Ġsyn": 3058,
      "Ġsection": 3059,
      "ĠrÃ©sid": 3060,
      "ĠcomplÃ¨": 3061,
      "rement": 3062,
      "Ġconstruction": 3063,
      "ĠrÃ©us": 3064,
      "ĠcÃ´tÃ©": 3065,
      "Ġbre": 3066,
      "Ġhttp": 3067,
      "Ġlois": 3068,
      "Allez": 3069,
      "Ġassez": 3070,
      "Ġarticles": 3071,
      "Ġpourraient": 3072,
      "ĠopÃ©ration": 3073,
      "fie": 3074,
      "Ġjuridique": 3075,
      "Ġ1998": 3076,
      "Ġsuivantes": 3077,
      "actÃ©ris": 3078,
      "usement": 3079,
      "missi": 3080,
      "Ġmondial": 3081,
      "ager": 3082,
      "amp": 3083,
      "Ġoui": 3084,
      "Ġgaz": 3085,
      "rÃ©es": 3086,
      "Ġmess": 3087,
      "Ġbiens": 3088,
      "ĠamÃ©liorer": 3089,
      "tification": 3090,
      "tal": 3091,
      "vation": 3092,
      "2004": 3093,
      "avait": 3094,
      "Ġpetite": 3095,
      "avez": 3096,
      "ffice": 3097,
      "27": 3098,
      "Ġclim": 3099,
      "Ġfournit": 3100,
      "Ġdavantage": 3101,
      "Ġait": 3102,
      "dire": 3103,
      "Ġprincipe": 3104,
      "aj": 3105,
      "ĠutilisÃ©": 3106,
      "Ġdiscri": 3107,
      "eter": 3108,
      "uclÃ©": 3109,
      "aume": 3110,
      "ĠexÃ©cu": 3111,
      "ĠprÃ©vention": 3112,
      "ĠprÃ©senter": 3113,
      "ĠmodÃ¨le": 3114,
      "ira": 3115,
      "dici": 3116,
      "Ġbar": 3117,
      "Ġparmi": 3118,
      "ĠAut": 3119,
      "acitÃ©s": 3120,
      "ile": 3121,
      "Ġsenti": 3122,
      "Ġsang": 3123,
      "Ġsuit": 3124,
      "dem": 3125,
      "pa": 3126,
      "Ġtend": 3127,
      "appui": 3128,
      "titude": 3129,
      "05": 3130,
      "Ġfaci": 3131,
      "ĠdÃ©fense": 3132,
      "ĠmÃ©dec": 3133,
      "issement": 3134,
      "ĠfrÃ©": 3135,
      "Ġcondition": 3136,
      "effic": 3137,
      "Ġterroris": 3138,
      "imm": 3139,
      "Ġsociaux": 3140,
      "ĠamÃ©ric": 3141,
      "Ġcommune": 3142,
      "IL": 3143,
      "\",": 3144,
      "AprÃ¨s": 3145,
      "gÃ©s": 3146,
      "atifs": 3147,
      "Ġpublics": 3148,
      "CEE": 3149,
      "ĠDÃ©c": 3150,
      "ĠÂ»,": 3151,
      "Ġniveaux": 3152,
      "ME": 3153,
      "Ġplans": 3154,
      "Ġsemble": 3155,
      "Ġzones": 3156,
      "Ġpie": 3157,
      "29": 3158,
      "ĠÃĢ": 3159,
      "aie": 3160,
      "US": 3161,
      "Ġlog": 3162,
      "Ġvoulez": 3163,
      "Ġsoum": 3164,
      "Ġrecours": 3165,
      "Ġtelles": 3166,
      "idÃ©": 3167,
      "Ġautochtones": 3168,
      "tenti": 3169,
      "Ġcomprend": 3170,
      "Ġciv": 3171,
      "Ġcomprendre": 3172,
      "quant": 3173,
      "Ġmarchandises": 3174,
      "Ġmanif": 3175,
      "inÃ©a": 3176,
      "Ġidenti": 3177,
      "Ġoffre": 3178,
      "aissance": 3179,
      "Ġclaire": 3180,
      "04": 3181,
      "ordination": 3182,
      "Ã©tude": 3183,
      "Ġretr": 3184,
      "prit": 3185,
      "Ġtravailleurs": 3186,
      "fiÃ©e": 3187,
      "exÃ©cution": 3188,
      "Ġvoyage": 3189,
      "Ġanglais": 3190,
      "ĠII": 3191,
      "Ġpromouvoir": 3192,
      "abord": 3193,
      "OP": 3194,
      "sÃ©": 3195,
      "Ġfinanciers": 3196,
      "Ġprincipaux": 3197,
      "tocole": 3198,
      "Ġpat": 3199,
      "Ġnombreuses": 3200,
      "Ġdurant": 3201,
      "Ġdevons": 3202,
      "Ġvaleurs": 3203,
      "Ġpreuve": 3204,
      "aint": 3205,
      "garde": 3206,
      "tenus": 3207,
      "Ġsim": 3208,
      "ĠmÃ©dica": 3209,
      "ĠSh": 3210,
      "ĠtrouvÃ©": 3211,
      "Ġpauvre": 3212,
      "ed": 3213,
      "Ġmission": 3214,
      "ĠSud": 3215,
      "Ġportant": 3216,
      "Ġcollaboration": 3217,
      "hÃ©s": 3218,
      "Ġlibre": 3219,
      "ĠcapacitÃ©s": 3220,
      "Ġfonctions": 3221,
      "riÃ¨re": 3222,
      "Ġfou": 3223,
      "ĠcaractÃ©ris": 3224,
      "eaux": 3225,
      "Ġtransm": 3226,
      "Ġretra": 3227,
      "oyaume": 3228,
      "Ġcivi": 3229,
      "ĠAm": 3230,
      "ĠprÃ©occup": 3231,
      "enn": 3232,
      "Ġvient": 3233,
      "ĠCons": 3234,
      "ĠdÃ©bat": 3235,
      "OÃ¹": 3236,
      "vidu": 3237,
      "ĠmÃ©thodes": 3238,
      "tile": 3239,
      "ĠfÃ©dÃ©ral": 3240,
      "yl": 3241,
      "ĠdÃ¨s": 3242,
      "tier": 3243,
      "Ġactions": 3244,
      "Ġtechnologie": 3245,
      "ĠpropriÃ©tÃ©": 3246,
      "Ġchangement": 3247,
      "ity": 3248,
      "ĠTh": 3249,
      "ĠmÃ©dic": 3250,
      "Ġapprouv": 3251,
      "ĠCanadiens": 3252,
      "ĠaccÃ¨s": 3253,
      "Ġessay": 3254,
      "tta": 3255,
      "ĠnuclÃ©": 3256,
      "ĠÃ©crit": 3257,
      "Ġresponsable": 3258,
      "Ġvoiture": 3259,
      "Ġcorps": 3260,
      "Ġlarge": 3261,
      "ĠVI": 3262,
      "Ġprincipal": 3263,
      "Ġtrain": 3264,
      "Ġcomporte": 3265,
      "ĠcritÃ¨res": 3266,
      "ĠTr": 3267,
      "ĠPr": 3268,
      "alys": 3269,
      "ĠÃ©tat": 3270,
      "Article": 3271,
      "2005": 3272,
      "ick": 3273,
      "ĠlibertÃ©": 3274,
      "CI": 3275,
      "Ã©tablissement": 3276,
      "alogue": 3277,
      "ritan": 3278,
      "Ġ2009": 3279,
      "ologiques": 3280,
      "Ġbois": 3281,
      "nÃ©": 3282,
      "ĠÃ©gard": 3283,
      "Ã©conomie": 3284,
      "03": 3285,
      "gement": 3286,
      "Ġdisponibles": 3287,
      "ĠEtats": 3288,
      "lor": 3289,
      "Ġinternationaux": 3290,
      "Ġfacteurs": 3291,
      "abs": 3292,
      "Ġcommission": 3293,
      "Ġatta": 3294,
      "ĠnÃ©cessitÃ©": 3295,
      "Ġlit": 3296,
      "Ġcontexte": 3297,
      "efficacitÃ©": 3298,
      "Ġexiste": 3299,
      "ĠDes": 3300,
      "Ã¨tres": 3301,
      "2006": 3302,
      "pects": 3303,
      "ĠNous": 3304,
      "Ġmauv": 3305,
      "ĠÃ©quipe": 3306,
      "occ": 3307,
      "ĠderniÃ¨res": 3308,
      "Ġgenre": 3309,
      "Ġint": 3310,
      "Ġpil": 3311,
      "Ġtravailler": 3312,
      "Ġconfir": 3313,
      "Ġconcent": 3314,
      "Ġdifficile": 3315,
      "tructures": 3316,
      "Ġensuite": 3317,
      "Ġretour": 3318,
      "quis": 3319,
      "Ġdimin": 3320,
      "Ġcontinuer": 3321,
      "Ġmor": 3322,
      "ĠconsidÃ©ra": 3323,
      "Ġdistin": 3324,
      "ĠNew": 3325,
      "Ġtiers": 3326,
      "ome": 3327,
      "Ġsurtout": 3328,
      "ĠsociÃ©tÃ©s": 3329,
      "Ġapplication": 3330,
      "26": 3331,
      "Ġcontinue": 3332,
      "arb": 3333,
      "Ġcaract": 3334,
      "analyse": 3335,
      "Ã«l": 3336,
      "Ġâ": 3337,
      "dessus": 3338,
      "avi": 3339,
      "ĠFonds": 3340,
      "ĠmatÃ©riel": 3341,
      "ĠdÃ©ch": 3342,
      "Ġminutes": 3343,
      "inform": 3344,
      "ĠprÃ©sentÃ©": 3345,
      "Selon": 3346,
      "Ġplanification": 3347,
      "Ġpropres": 3348,
      "Ġamen": 3349,
      "formes": 3350,
      "Ġtechnologies": 3351,
      "ĠliÃ©s": 3352,
      "ĠconsÃ©quent": 3353,
      "ĠdÃ©fini": 3354,
      "illez": 3355,
      "ĠcompÃ©tences": 3356,
      "ĠÃ©ner": 3357,
      "Ġcontrat": 3358,
      "Ġsait": 3359,
      "Ġconj": 3360,
      "Ġdeme": 3361,
      "Ġfort": 3362,
      "oun": 3363,
      "ĠChar": 3364,
      "ancer": 3365,
      "OS": 3366,
      "Ġfonctionnement": 3367,
      "ĠreprÃ©sentant": 3368,
      "ĠET": 3369,
      "reux": 3370,
      "limin": 3371,
      "Ġmoyenne": 3372,
      "ĠvÃ©rification": 3373,
      "Ġcitoyens": 3374,
      "2007": 3375,
      "Ġcivile": 3376,
      "ĠadoptÃ©": 3377,
      "ĠfinanciÃ¨res": 3378,
      "Comm": 3379,
      "cre": 3380,
      "jectif": 3381,
      "Ġtari": 3382,
      "fe": 3383,
      "Ġ2010": 3384,
      "Ġconvient": 3385,
      "ĠNo": 3386,
      "Agence": 3387,
      "ana": 3388,
      "Ġparticiper": 3389,
      "Ġpermettant": 3390,
      "roduction": 3391,
      "Sur": 3392,
      "Ġpropositions": 3393,
      "Ġcoordination": 3394,
      "Ġentreprise": 3395,
      "gion": 3396,
      "ĠsupplÃ©mentaires": 3397,
      "EL": 3398,
      "Ġtest": 3399,
      "Ġetc": 3400,
      "ĠindiquÃ©": 3401,
      "Â´": 3402,
      "ĠtÃ¢": 3403,
      "Ġconfiance": 3404,
      "Ġsolution": 3405,
      "Ġparents": 3406,
      "Ġextra": 3407,
      "ĠentraÃ®": 3408,
      "28": 3409,
      "lure": 3410,
      "ĠimmÃ©di": 3411,
      "appr": 3412,
      "Ġlignes": 3413,
      "Ġinitiatives": 3414,
      "istor": 3415,
      "Ġlangues": 3416,
      "ates": 3417,
      "ĠÂ».": 3418,
      "Ġaffec": 3419,
      "Ġfaisant": 3420,
      "Ġsignal": 3421,
      "Ġfaible": 3422,
      "Ã©rer": 3423,
      "ĠaÃ©ri": 3424,
      "orÃ©": 3425,
      "âĢĿ": 3426,
      "ĠLA": 3427,
      "________________": 3428,
      "entrÃ©e": 3429,
      "ĠthÃ©": 3430,
      "Ġforte": 3431,
      "ÃĩÃ": 3432,
      "lie": 3433,
      "Ġvictimes": 3434,
      "06": 3435,
      "cie": 3436,
      "Ġsouff": 3437,
      "ĠQuÃ©bec": 3438,
      "Ġgrandes": 3439,
      "21": 3440,
      "Ġajou": 3441,
      "gration": 3442,
      "ĠrÃ©serve": 3443,
      "ĠbÃ¢": 3444,
      "Ġconnais": 3445,
      "Ġgrands": 3446,
      "ĠprotÃ©ger": 3447,
      "Ġ&": 3448,
      "erta": 3449,
      "âĢ¦": 3450,
      "Ġgouver": 3451,
      "ĠSal": 3452,
      "BAR": 3453,
      "ature": 3454,
      "gue": 3455,
      "ĠdÃ©clarÃ©": 3456,
      "ĠMont": 3457,
      "Ġpotenti": 3458,
      "laire": 3459,
      "ĠÃ©missions": 3460,
      "Ġsources": 3461,
      "ĠDES": 3462,
      "cs": 3463,
      "ze": 3464,
      "ĠdÃ©lai": 3465,
      "istan": 3466,
      "tte": 3467,
      "ĠprÃ©sence": 3468,
      "Ġresponsabil": 3469,
      "Ġfavoris": 3470,
      "Ġconnaissances": 3471,
      "uels": 3472,
      "tations": 3473,
      "Ġdirecteur": 3474,
      "Ġconstitue": 3475,
      "Ġopp": 3476,
      "Ġendro": 3477,
      "ly": 3478,
      "ohn": 3479,
      "ĠPh": 3480,
      "ĠMais": 3481,
      "ĠMan": 3482,
      "Ġcop": 3483,
      "investis": 3484,
      "intÃ©rieur": 3485,
      "Ġdispar": 3486,
      "Ġdiverses": 3487,
      "Ġlogi": 3488,
      "endra": 3489,
      "Ġcommand": 3490,
      "ĠprivÃ©": 3491,
      "eut": 3492,
      "ĠRus": 3493,
      "Ġautom": 3494,
      "Ġvente": 3495,
      "Ġmanque": 3496,
      "Ġconsommation": 3497,
      "sta": 3498,
      "versitÃ©": 3499,
      "ĠÃ©levÃ©": 3500,
      "itable": 3501,
      "Ġconsta": 3502,
      "ouverture": 3503,
      "Ã§ons": 3504,
      "Ġ_": 3505,
      "Ġjouer": 3506,
      "Ġmeilleure": 3507,
      "intention": 3508,
      "ĠÃ©vent": 3509,
      "Ã©galitÃ©": 3510,
      "Ġrelatif": 3511,
      "ĠdÃ©cidÃ©": 3512,
      "Ġ'": 3513,
      "Ġchance": 3514,
      "Ġtruc": 3515,
      "ii": 3516,
      "Office": 3517,
      "RS": 3518,
      "assurance": 3519,
      "Ġcanadiennes": 3520,
      "Ġrester": 3521,
      "ax": 3522,
      "aman": 3523,
      "Ġorig": 3524,
      "09": 3525,
      "TM": 3526,
      "ĠprioritÃ©s": 3527,
      "ĠrÃ©glementation": 3528,
      "ack": 3529,
      "ĠfranÃ§ais": 3530,
      "ĠsuccÃ¨s": 3531,
      "crit": 3532,
      "Ġami": 3533,
      "==": 3534,
      "Ġloin": 3535,
      "Ġpoi": 3536,
      "Ġsac": 3537,
      "tale": 3538,
      "Ġindividu": 3539,
      "Ġrendement": 3540,
      "ĠdÃ©sign": 3541,
      "Ġtypes": 3542,
      "Ġentendu": 3543,
      "ĠInternet": 3544,
      "titution": 3545,
      "oncÃ©": 3546,
      "Ġtradu": 3547,
      "ĠrÃ©guli": 3548,
      "ht": 3549,
      "Ġconne": 3550,
      "issaire": 3551,
      "02": 3552,
      "quÃ©es": 3553,
      "ĠMonsieur": 3554,
      "Avec": 3555,
      "miÃ¨re": 3556,
      "Ġsavez": 3557,
      "ĠcoÃ»t": 3558,
      "AI": 3559,
      "Ļª": 3560,
      "Ġsoli": 3561,
      "Ġremar": 3562,
      "ĠaoÃ»t": 3563,
      "ĠliÃ©es": 3564,
      "Ã©lic": 3565,
      "Ġtableau": 3566,
      "oph": 3567,
      "Ġpubliques": 3568,
      "ulation": 3569,
      "DI": 3570,
      "Ġdiscus": 3571,
      "PS": 3572,
      "ĠconfÃ©rence": 3573,
      "oth": 3574,
      "Ġgros": 3575,
      "llemagne": 3576,
      "Ġchamp": 3577,
      "Ġcontribution": 3578,
      "App": 3579,
      "ĠutilisÃ©s": 3580,
      "lacement": 3581,
      "engag": 3582,
      "ĠBr": 3583,
      "Ġforce": 3584,
      "Ġcroy": 3585,
      "Toutefois": 3586,
      "Ġcoll": 3587,
      "Ġprovinci": 3588,
      "naire": 3589,
      "Ġmodifications": 3590,
      "bilitÃ©s": 3591,
      "TR": 3592,
      "Ġfournisse": 3593,
      "itant": 3594,
      "Ġfl": 3595,
      "Ġ1997": 3596,
      "ugi": 3597,
      "Ġroute": 3598,
      "Ġbal": 3599,
      "Ġobligations": 3600,
      "Ġcircons": 3601,
      "Ġparle": 3602,
      "Ġmeilleur": 3603,
      "lier": 3604,
      "ĠElle": 3605,
      "60": 3606,
      "Ġlaisser": 3607,
      "ĠsecrÃ©t": 3608,
      "Ġtouch": 3609,
      "riculture": 3610,
      "Ġindic": 3611,
      "AM": 3612,
      "Ġlongtemps": 3613,
      "Ġstock": 3614,
      "Aut": 3615,
      "OL": 3616,
      "orteur": 3617,
      "jus": 3618,
      "moins": 3619,
      "Ġpeur": 3620,
      "voi": 3621,
      "Ġorient": 3622,
      "inst": 3623,
      "Ġchiff": 3624,
      "ouvrir": 3625,
      "Ġvont": 3626,
      "Ġquant": 3627,
      "antill": 3628,
      "Ġcrimin": 3629,
      "Ġmentionn": 3630,
      "Ġapproche": 3631,
      "Ġchacun": 3632,
      "Ġsimple": 3633,
      "tition": 3634,
      "ĠCo": 3635,
      "Ġhumaines": 3636,
      "Ġdifficul": 3637,
      "ritannique": 3638,
      "ĠrÃ©alisation": 3639,
      "hÃ´": 3640,
      "oine": 3641,
      "Ġordin": 3642,
      "Ġtitu": 3643,
      "ĠDans": 3644,
      "Ġaspects": 3645,
      "ronti": 3646,
      "Ġrelatifs": 3647,
      "CH": 3648,
      "Ġconcurrence": 3649,
      "Ġdiscrimination": 3650,
      "ĠTribunal": 3651,
      "Ġment": 3652,
      "Ġplain": 3653,
      "Ġdix": 3654,
      "Ġjudici": 3655,
      "Ġant": 3656,
      "urÃ©": 3657,
      "Ġarmes": 3658,
      "Ġimportants": 3659,
      "Ġresponsables": 3660,
      "ia": 3661,
      "Ġ)": 3662,
      "Ġgui": 3663,
      "Ġforces": 3664,
      "itÃ©e": 3665,
      "EUR": 3666,
      "erie": 3667,
      "ister": 3668,
      "Ġvoulais": 3669,
      "Ġpermettra": 3670,
      "Ġremplac": 3671,
      "roit": 3672,
      "enquÃªte": 3673,
      "anie": 3674,
      "Ontario": 3675,
      "ĠAd": 3676,
      "Ġanci": 3677,
      "Ġstatut": 3678,
      "adoption": 3679,
      "mation": 3680,
      "40": 3681,
      "cles": 3682,
      "Ġprovis": 3683,
      "ĠcatÃ©gorie": 3684,
      "Ġsource": 3685,
      "Ġcentrale": 3686,
      "ocu": 3687,
      "indi": 3688,
      "fric": 3689,
      "Ġ1996": 3690,
      "ĠtÃ©l": 3691,
      "Ġfinancier": 3692,
      "ĠFin": 3693,
      "ressi": 3694,
      "ĠprÃ©vu": 3695,
      "ĠtroisiÃ¨me": 3696,
      "Ġattribu": 3697,
      "Ġtravaill": 3698,
      "Ġlicence": 3699,
      "Ġemb": 3700,
      "ĠcrÃ©dit": 3701,
      "cueilli": 3702,
      "Ġbil": 3703,
      "apon": 3704,
      "occasion": 3705,
      "Ġquali": 3706,
      "Ġbord": 3707,
      "Ġquelle": 3708,
      "ÃĪ": 3709,
      "Ġlettre": 3710,
      "Ġquit": 3711,
      "ĠprÃ©vues": 3712,
      "Ġsan": 3713,
      "Ġallez": 3714,
      "Ġadap": 3715,
      "Ġrapidement": 3716,
      "hÃ©sion": 3717,
      "Ġmaintien": 3718,
      "Ġexamen": 3719,
      "Ġmot": 3720,
      "expÃ©rience": 3721,
      "ombre": 3722,
      "Ġcomptes": 3723,
      "venue": 3724,
      "uf": 3725,
      "ĠUne": 3726,
      "Ġtent": 3727,
      "ĠinfÃ©ri": 3728,
      "fÃ©rences": 3729,
      "RC": 3730,
      "ĠconsidÃ©": 3731,
      "ma": 3732,
      "actions": 3733,
      "dits": 3734,
      "onie": 3735,
      "Ġorganisation": 3736,
      "avons": 3737,
      "ĠIs": 3738,
      "Ġmuni": 3739,
      "Ġlaisse": 3740,
      "Ġraisons": 3741,
      "ĠpauvretÃ©": 3742,
      "ĠcaractÃ¨re": 3743,
      "ĠOr": 3744,
      "Ġmouve": 3745,
      "ĠmÃ©dias": 3746,
      "2001": 3747,
      "tatif": 3748,
      "2003": 3749,
      "ĠprÃ©voit": 3750,
      "blir": 3751,
      "NU": 3752,
      "ĠÃ©m": 3753,
      "Ġhuman": 3754,
      "lÃł": 3755,
      "Ġaction": 3756,
      "ki": 3757,
      "bilisation": 3758,
      "Ġremb": 3759,
      "Ġchapitre": 3760,
      "Ġposs": 3761,
      "ith": 3762,
      "Ġterres": 3763,
      "ĠintÃ©rÃªts": 3764,
      "tine": 3765,
      "ĠApp": 3766,
      "Åĵur": 3767,
      "ĠmÃ©thode": 3768,
      "SI": 3769,
      "Ã¨que": 3770,
      "ĠstratÃ©gique": 3771,
      "Ġrelativement": 3772,
      "aider": 3773,
      "ĠrÃ©gional": 3774,
      "Ass": 3775,
      "son": 3776,
      "Ġparlement": 3777,
      "Ġexprim": 3778,
      "ĠespÃ¨ces": 3779,
      "Ġrenouv": 3780,
      "Ġpeine": 3781,
      "Ġfilles": 3782,
      "ancÃ©": 3783,
      "ination": 3784,
      "Ġexer": 3785,
      "Ġpuisse": 3786,
      "Ġcorre": 3787,
      "ĠÃ©tude": 3788,
      "registre": 3789,
      "Ġrenforcement": 3790,
      "enfant": 3791,
      "59": 3792,
      "istr": 3793,
      "ĠServices": 3794,
      "hÃ©r": 3795,
      "Ġremerci": 3796,
      "Ġmaladie": 3797,
      "Ġmanifest": 3798,
      "ĠÃ©lectronique": 3799,
      "ĠcompÃ©t": 3800,
      "coute": 3801,
      "Ġplais": 3802,
      "employ": 3803,
      "Ġfamili": 3804,
      "tils": 3805,
      "ĠÃ©vÃ©nement": 3806,
      "ĠRÃ©s": 3807,
      "Ġsuivre": 3808,
      "Ca": 3809,
      "gnÃ©": 3810,
      "Ġfisc": 3811,
      "Ġ2012": 3812,
      "ĠdÃ©lÃ©gation": 3813,
      "Ġchercher": 3814,
      "Ġpatients": 3815,
      "Ġrappel": 3816,
      "Ġ60": 3817,
      "ĠdÃ©finition": 3818,
      "Ġautant": 3819,
      "Ġdirectri": 3820,
      "Ġcontenu": 3821,
      "Ġvoudrais": 3822,
      "esse": 3823,
      "cr": 3824,
      "histoire": 3825,
      "mÃ©di": 3826,
      "urgence": 3827,
      "lique": 3828,
      "Ġpostes": 3829,
      "Ġcerti": 3830,
      "Ġcanadiens": 3831,
      "Ġmig": 3832,
      "cupÃ©": 3833,
      "Ġavantages": 3834,
      "Ġclient": 3835,
      "Ġpou": 3836,
      "Ġcat": 3837,
      "Ġparta": 3838,
      "iez": 3839,
      "Depuis": 3840,
      "Ġlesquelles": 3841,
      "CC": 3842,
      "ĠÃ©valuation": 3843,
      "ides": 3844,
      "objectif": 3845,
      "Ġtoutefois": 3846,
      "At": 3847,
      "Afrique": 3848,
      "ĠâĢľ": 3849,
      "ĠRoyaume": 3850,
      "Ġ2011": 3851,
      "Ġsites": 3852,
      "Ġchemin": 3853,
      "ĠrÃ©unions": 3854,
      "Ġrecherches": 3855,
      "Ġactuelle": 3856,
      "Ã©chelle": 3857,
      "ka": 3858,
      "uration": 3859,
      "Ã©taires": 3860,
      "fiÃ©s": 3861,
      "ismes": 3862,
      "Ġlocaux": 3863,
      "Acc": 3864,
      "diff": 3865,
      "Ã©rant": 3866,
      "ĠcollectivitÃ©s": 3867,
      "Ġavi": 3868,
      "Ġvote": 3869,
      "Ġsalle": 3870,
      "Ġfaciliter": 3871,
      "35": 3872,
      "Ġperdu": 3873,
      "ories": 3874,
      "Ġpresque": 3875,
      "Ġconstru": 3876,
      "Ġtuer": 3877,
      "Ġcoordonn": 3878,
      "ombie": 3879,
      "Ġcircul": 3880,
      "initi": 3881,
      "Ġenvis": 3882,
      "hum": 3883,
      "ĠOu": 3884,
      "Ġversion": 3885,
      "Gr": 3886,
      "ĠrÃ©v": 3887,
      "ĠmatiÃ¨res": 3888,
      "agnie": 3889,
      "Ġbles": 3890,
      "Ġclasse": 3891,
      "avenir": 3892,
      "ĠpossibilitÃ©s": 3893,
      "Cependant": 3894,
      "Ã©tique": 3895,
      "Ã§u": 3896,
      "Ġtravaille": 3897,
      "Ġsemaines": 3898,
      "Ġdoute": 3899,
      "Ġfaits": 3900,
      "Ġmodification": 3901,
      "anges": 3902,
      "Ġclairement": 3903,
      "Ġtenue": 3904,
      "partement": 3905,
      "Ġformes": 3906,
      "ĠplaÃ®t": 3907,
      "ĠSaint": 3908,
      "Ġyeux": 3909,
      "ĠgÃ©nÃ©ralement": 3910,
      "ina": 3911,
      "ĠfÃ©lic": 3912,
      "aintenant": 3913,
      "Ġpoiss": 3914,
      "Ġobjectif": 3915,
      "Ġinstitution": 3916,
      "ĠproposÃ©": 3917,
      "Ã©tro": 3918,
      "Plus": 3919,
      "Ġnord": 3920,
      "Ġlocales": 3921,
      "etÃ©": 3922,
      "acte": 3923,
      "Ġsortir": 3924,
      "Ġdistribution": 3925,
      "Ġdevez": 3926,
      "Ġsud": 3927,
      "Ġ1995": 3928,
      "34": 3929,
      "Ġeaux": 3930,
      "AU": 3931,
      "Ġterrain": 3932,
      "die": 3933,
      "Ġtransfert": 3934,
      "ĠmajoritÃ©": 3935,
      "tures": 3936,
      "enant": 3937,
      "aul": 3938,
      "ĠvÃ©hicules": 3939,
      "arch": 3940,
      "Ġamis": 3941,
      "novation": 3942,
      "Ġpaiement": 3943,
      "ĠcommunautÃ©s": 3944,
      "dis": 3945,
      "Ġdossier": 3946,
      "Ġaffir": 3947,
      "Ã¡Ã": 3948,
      "ĠintÃ©ri": 3949,
      "ĠChine": 3950,
      "Ġfilm": 3951,
      ".)": 3952,
      "Ma": 3953,
      "ĠSta": 3954,
      "Ġgars": 3955,
      "ĠhÃ´": 3956,
      "tern": 3957,
      "Ġrur": 3958,
      "onner": 3959,
      "Ġmarque": 3960,
      "ĠsÃ©ance": 3961,
      "dite": 3962,
      "hors": 3963,
      "ĠdÃ©pend": 3964,
      "ĠjournÃ©e": 3965,
      "Ġmus": 3966,
      "miques": 3967,
      "Ġpeuple": 3968,
      "Ġbrev": 3969,
      "ĠimmÃ©diate": 3970,
      "ey": 3971,
      "Ġcarte": 3972,
      "auche": 3973,
      "ĠQ": 3974,
      "ortÃ©": 3975,
      "gner": 3976,
      "Ġconvention": 3977,
      "Ġprovince": 3978,
      "Ġaccords": 3979,
      "Ġporter": 3980,
      "face": 3981,
      "Ġdange": 3982,
      "augment": 3983,
      "OC": 3984,
      "Ġcy": 3985,
      "ĠindÃ©pend": 3986,
      "ays": 3987,
      "va": 3988,
      "ttawa": 3989,
      "arc": 3990,
      "Ġvise": 3991,
      "Ġvit": 3992,
      "Ġrevenus": 3993,
      "Ġmatin": 3994,
      "ĠministÃ¨res": 3995,
      "ersonne": 3996,
      "Ġrefus": 3997,
      "lits": 3998,
      "telle": 3999,
      "auteur": 4000,
      "ĠprÃ©sid": 4001,
      "ĠresponsabilitÃ©s": 4002,
      "Ġrejet": 4003,
      "Ġattention": 4004,
      "Ġmontre": 4005,
      "ĠchargÃ©": 4006,
      "ourg": 4007,
      "Ġgu": 4008,
      "ĠÃĩa": 4009,
      "aw": 4010,
      "Ġsolutions": 4011,
      "Certa": 4012,
      "Ġcra": 4013,
      "Ġpresse": 4014,
      "Ġoblig": 4015,
      "Ġauxqu": 4016,
      "Ġhistor": 4017,
      "Ġagents": 4018,
      "Ġcommunautaires": 4019,
      "Ġchambre": 4020,
      "Ġviens": 4021,
      "Ġpetites": 4022,
      "af": 4023,
      "Ġerre": 4024,
      "ĠÃ©qui": 4025,
      "Ġbat": 4026,
      "mique": 4027,
      "Ġpublication": 4028,
      "Ġpetits": 4029,
      "ĠdÃ©mont": 4030,
      "NE": 4031,
      "Ġgarantir": 4032,
      "Ġsuivante": 4033,
      "asser": 4034,
      "ĠreprÃ©sente": 4035,
      "amÃ©liorer": 4036,
      "Ġquar": 4037,
      "ommet": 4038,
      "Ġscol": 4039,
      "Ġdipl": 4040,
      "Ã¢ge": 4041,
      "Ġlesquels": 4042,
      "Ġtourn": 4043,
      "AmÃ©rique": 4044,
      "ortation": 4045,
      "aritÃ©": 4046,
      "Ġobjet": 4047,
      "ĠconnaÃ®tre": 4048,
      "ĠsupÃ©rieur": 4049,
      "dra": 4050,
      "Ġplac": 4051,
      "illage": 4052,
      "Ġmilitaire": 4053,
      "ĠcrÃ©Ã©": 4054,
      "ĠÃ©tablissements": 4055,
      "investissement": 4056,
      "Ġcru": 4057,
      "Ġcontributions": 4058,
      "outes": 4059,
      "Ġcode": 4060,
      "laration": 4061,
      "**": 4062,
      "Ġlab": 4063,
      "ley": 4064,
      "Ġintitu": 4065,
      "Ġdirige": 4066,
      "Tous": 4067,
      "vain": 4068,
      "Ġtomb": 4069,
      "Ġocc": 4070,
      "Ġregard": 4071,
      "Ġban": 4072,
      "Ġconsultation": 4073,
      "Ġvolu": 4074,
      "Ġmach": 4075,
      "2002": 4076,
      "mun": 4077,
      "33": 4078,
      "viens": 4079,
      "amÃ©lioration": 4080,
      "ĠlumiÃ¨re": 4081,
      "gique": 4082,
      "uff": 4083,
      "Ã©ni": 4084,
      "ĠmÃªmes": 4085,
      "Ġstatistiques": 4086,
      "Ġterrorisme": 4087,
      "Ġcontribuer": 4088,
      "Ġexclu": 4089,
      "ĠrÃ©fugi": 4090,
      "cepti": 4091,
      "ĠspÃ©cifiques": 4092,
      "Ġcrise": 4093,
      "Ġattend": 4094,
      "Regarde": 4095,
      "uire": 4096,
      "ĠnÃ©gociations": 4097,
      "pos": 4098,
      "Ġpopulations": 4099,
      "Dis": 4100,
      "Ġdiscu": 4101,
      "Sal": 4102,
      "Ġ35": 4103,
      "ĠJohn": 4104,
      "ĠdÃ©pos": 4105,
      "ĠmÃ©canismes": 4106,
      "pi": 4107,
      "unitÃ©": 4108,
      "Ġestime": 4109,
      "Ġdialogue": 4110,
      "Ġcommunications": 4111,
      "2000": 4112,
      "Ġdiminu": 4113,
      "RI": 4114,
      "TC": 4115,
      "Ġbout": 4116,
      "Ġprovenant": 4117,
      "Ġencoura": 4118,
      "Ġorigin": 4119,
      "Donc": 4120,
      "gc": 4121,
      "roy": 4122,
      "ck": 4123,
      "Ġarm": 4124,
      "ett": 4125,
      "ĠRussie": 4126,
      "PI": 4127,
      "gÃ©es": 4128,
      "ĠSantÃ©": 4129,
      "Ġanalys": 4130,
      "Ġsoumis": 4131,
      "ĠeuropÃ©ennes": 4132,
      "ĠtÃ©lÃ©c": 4133,
      "run": 4134,
      "roÃ®tre": 4135,
      "ĠstratÃ©gies": 4136,
      "Ġconseils": 4137,
      "Ġinstallations": 4138,
      "Ġcompter": 4139,
      "Ġdevait": 4140,
      "intÃ©gration": 4141,
      "sse": 4142,
      "ĠSoci": 4143,
      "andis": 4144,
      "ĠInc": 4145,
      ".?": 4146,
      "Ġtaille": 4147,
      "Ġhabit": 4148,
      "Ġliv": 4149,
      "Ġinterven": 4150,
      "Ġfamilles": 4151,
      "08": 4152,
      "Ã¨nes": 4153,
      "Ġcarb": 4154,
      "Ġmaladies": 4155,
      "no": 4156,
      "Ã©gi": 4157,
      "osph": 4158,
      "ĠBanque": 4159,
      "Ã¨les": 4160,
      "ĠmÃ©dicaments": 4161,
      "stitut": 4162,
      "Ġpied": 4163,
      "inqui": 4164,
      "Ġinterne": 4165,
      "Ġconnaissance": 4166,
      "Ġconclusions": 4167,
      "Elles": 4168,
      "orable": 4169,
      "Ġfronti": 4170,
      "alinÃ©a": 4171,
      "ĠIN": 4172,
      "Ġhumains": 4173,
      "ĠVIH": 4174,
      "Ġsociales": 4175,
      "crip": 4176,
      "amment": 4177,
      "Ġdisponible": 4178,
      "ĠMal": 4179,
      "Ġ2013": 4180,
      "mentation": 4181,
      "Ġhabitu": 4182,
      "31": 4183,
      "Ġquo": 4184,
      "roph": 4185,
      "ĠdÃ©mar": 4186,
      "Ġcontact": 4187,
      "Ġfu": 4188,
      "Ġeng": 4189,
      "âĢ¢": 4190,
      "Ġpouvons": 4191,
      "Ġphysique": 4192,
      "enregistre": 4193,
      "ĠprÃ©sentation": 4194,
      "Ġjuge": 4195,
      "Ġaugmentation": 4196,
      "iner": 4197,
      "Ġimportantes": 4198,
      "Ġenfant": 4199,
      "adap": 4200,
      "MÃªme": 4201,
      "cure": 4202,
      "Ġcombat": 4203,
      "Ġhaute": 4204,
      "Ġinstruments": 4205,
      "orta": 4206,
      "Ġprim": 4207,
      "ourir": 4208,
      "ĠpubliÃ©": 4209,
      "ĠprÃªt": 4210,
      "sy": 4211,
      "Ġaim": 4212,
      "Ġliens": 4213,
      "ĠrÃ©sultat": 4214,
      "DÃ©": 4215,
      "Ġvite": 4216,
      "Ġcandidats": 4217,
      "Ġcependant": 4218,
      "Ġannuel": 4219,
      "ĠtÃ©lÃ©phone": 4220,
      "ĠprÃ©f": 4221,
      "Ġuniquement": 4222,
      "bation": 4223,
      "arme": 4224,
      "Ġir": 4225,
      "ting": 4226,
      "Ġemploi": 4227,
      "Ġparfait": 4228,
      "DÃ©s": 4229,
      "Ġincid": 4230,
      "erm": 4231,
      "Ġsuscepti": 4232,
      "Ġcapital": 4233,
      "Ġconsci": 4234,
      "Ġsubstances": 4235,
      "citÃ©": 4236,
      "ĠsÃ©par": 4237,
      "ĠempÃª": 4238,
      "cts": 4239,
      "Ġanimaux": 4240,
      "Ġfonctionnaires": 4241,
      "Ġsimplement": 4242,
      "Ġcolle": 4243,
      "Ġtransports": 4244,
      "Ġfich": 4245,
      "PC": 4246,
      "ĠallÃ©": 4247,
      "assistance": 4248,
      "ĠSecrÃ©tariat": 4249,
      "Ġnomm": 4250,
      "ĠdÃ©part": 4251,
      "tence": 4252,
      "Ã©cole": 4253,
      "ĠsÃ»re": 4254,
      "49": 4255,
      "ĠAc": 4256,
      "Ġdevenir": 4257,
      "Deux": 4258,
      "Ġtranspar": 4259,
      "ĠprioritÃ©": 4260,
      "Ġtri": 4261,
      "ĠMe": 4262,
      "ule": 4263,
      "Ã¨se": 4264,
      "orisation": 4265,
      "ary": 4266,
      "go": 4267,
      "lois": 4268,
      "ash": 4269,
      "ouvelle": 4270,
      "Ġconsommateurs": 4271,
      "ĠdÃ©n": 4272,
      "viennent": 4273,
      "Ã©tation": 4274,
      "Ġpoids": 4275,
      "Ġmunicip": 4276,
      "Ġgarde": 4277,
      "intes": 4278,
      "EMENT": 4279,
      "oilÃł": 4280,
      "tenue": 4281,
      "ĠactivitÃ©": 4282,
      "45": 4283,
      "Ġpropose": 4284,
      "ctor": 4285,
      "Ġcentres": 4286,
      "Ġmic": 4287,
      "Ġrelation": 4288,
      "Ġ1994": 4289,
      "ĠfÃ©dÃ©rale": 4290,
      "ĠidÃ©e": 4291,
      "talie": 4292,
      "aurais": 4293,
      "ĠcommencÃ©": 4294,
      "cemment": 4295,
      "Ġjuridiques": 4296,
      "ĠprÃªts": 4297,
      "Ġprochaine": 4298,
      "Ġappuy": 4299,
      "atoires": 4300,
      "Ġservir": 4301,
      "Ġcontraire": 4302,
      "Ġlimite": 4303,
      "Ġsug": 4304,
      "Ġhors": 4305,
      "rÃ©ci": 4306,
      "Ġnour": 4307,
      "estre": 4308,
      "Son": 4309,
      "Ġpous": 4310,
      "39": 4311,
      "Ġcam": 4312,
      "lir": 4313,
      "port": 4314,
      "Ġconception": 4315,
      "Ġperspec": 4316,
      "Ġdiv": 4317,
      "Ġmultip": 4318,
      "Ġatteindre": 4319,
      "2008": 4320,
      "ĠintÃ©rieur": 4321,
      "ĠrÃ©forme": 4322,
      "Ġhan": 4323,
      "Ġdemain": 4324,
      "lusion": 4325,
      "Ġcommis": 4326,
      "uk": 4327,
      "leurs": 4328,
      "Ġtor": 4329,
      "ĠparlÃ©": 4330,
      "Ġjeune": 4331,
      "Peut": 4332,
      "once": 4333,
      "ĠÂ´": 4334,
      "Ġanalyse": 4335,
      "ritÃ©": 4336,
      "Ġwww": 4337,
      "Ġax": 4338,
      "ein": 4339,
      "ĠDiv": 4340,
      "ĠBel": 4341,
      "Ġconflit": 4342,
      "Ġvoix": 4343,
      "Ġmauvais": 4344,
      "ĠdÃ©cou": 4345,
      "Ġsoutenir": 4346,
      "affaires": 4347,
      "tor": 4348,
      "ĠconsÃ©quences": 4349,
      "Ġ+": 4350,
      "Ġsort": 4351,
      "ĠÃ©chÃ©": 4352,
      "entrer": 4353,
      "Inter": 4354,
      "ĠpiÃ¨ces": 4355,
      "absence": 4356,
      "'s": 4357,
      "Ã¤": 4358,
      "ĠÃ©vid": 4359,
      "Su": 4360,
      "Ġnations": 4361,
      "resser": 4362,
      "Ġagricoles": 4363,
      "ĠrÃ©aliser": 4364,
      "Ġapplicables": 4365,
      "istÃ©ri": 4366,
      "ĠParties": 4367,
      "Ġconflits": 4368,
      "37": 4369,
      "Ġraisonn": 4370,
      "vÃ©es": 4371,
      "umÃ©": 4372,
      "ĠJus": 4373,
      "36": 4374,
      "chement": 4375,
      "55": 4376,
      "ĠrÃ©seaux": 4377,
      "Ġappare": 4378,
      "ĠsiÃ¨": 4379,
      "TA": 4380,
      "----": 4381,
      "Ġlien": 4382,
      "ĠDirection": 4383,
      "demn": 4384,
      "ĠdÃ©tail": 4385,
      "Ġcampagne": 4386,
      "Jus": 4387,
      "fr": 4388,
      "Ġdehors": 4389,
      "ara": 4390,
      "Ġoubli": 4391,
      "ĠTur": 4392,
      "Ġpouvoirs": 4393,
      "ĠbÃ¢ti": 4394,
      "sant": 4395,
      "PE": 4396,
      "Ġconse": 4397,
      "Ġautour": 4398,
      "Ġfini": 4399,
      "Enfin": 4400,
      "198": 4401,
      "SE": 4402,
      "aimer": 4403,
      "07": 4404,
      "Â¨": 4405,
      "informations": 4406,
      "Ac": 4407,
      "Ġbo": 4408,
      "ĠMemb": 4409,
      "adame": 4410,
      "Notre": 4411,
      "ĠtraitÃ©s": 4412,
      "Ġconsultations": 4413,
      "ĠÃ©tablir": 4414,
      "Ġrespecter": 4415,
      "ĠCode": 4416,
      "Ġactes": 4417,
      "Ġprincipales": 4418,
      "ĠprÃ©vue": 4419,
      "tur": 4420,
      "Ġprincipalement": 4421,
      "Ġderniers": 4422,
      "Ġvivre": 4423,
      "centage": 4424,
      "ĠenquÃªte": 4425,
      "lot": 4426,
      "ĠÃ©nonc": 4427,
      "Ġobservations": 4428,
      ".-": 4429,
      "tini": 4430,
      "Ġpouvait": 4431,
      "ĠconformitÃ©": 4432,
      "ĠDU": 4433,
      "Ã©volution": 4434,
      "blement": 4435,
      "ĠCR": 4436,
      "obtenir": 4437,
      "38": 4438,
      "ata": 4439,
      "Ġradiodiff": 4440,
      "bi": 4441,
      "ĠDi": 4442,
      "quie": 4443,
      "ĠvidÃ©": 4444,
      "ĠPlan": 4445,
      "appelle": 4446,
      "Ġinvestissements": 4447,
      "Ġcompagnie": 4448,
      "ĠcaractÃ©ristiques": 4449,
      "tiÃ©": 4450,
      "Ġobser": 4451,
      "ureaux": 4452,
      "Ġlongue": 4453,
      "ĠprÃ©paration": 4454,
      "Ġendroit": 4455,
      "Ġcirconst": 4456,
      "Ġphase": 4457,
      "Ġalimentaire": 4458,
      "dans": 4459,
      "lons": 4460,
      "Ġconcep": 4461,
      "seur": 4462,
      "ĠrÃ©vis": 4463,
      "ĠColombie": 4464,
      "Ġrecevoir": 4465,
      "Ġrendu": 4466,
      "Ġprofessionnels": 4467,
      "Ġscientifique": 4468,
      "ĠCON": 4469,
      "seign": 4470,
      "Votre": 4471,
      "onses": 4472,
      "Ġfaite": 4473,
      "ĠclÃ©s": 4474,
      "Ã©tudes": 4475,
      "raÃ«l": 4476,
      "atta": 4477,
      "Ġsauf": 4478,
      "ĠTrans": 4479,
      "Maintenant": 4480,
      "Ġlivre": 4481,
      "ĠComment": 4482,
      "rastructure": 4483,
      "Monsieur": 4484,
      "48": 4485,
      "Ġcommande": 4486,
      "Ġpayer": 4487,
      "Ġbate": 4488,
      "Ġru": 4489,
      "Ġartis": 4490,
      "Ã§ant": 4491,
      "rimer": 4492,
      "Ġcourant": 4493,
      "Ġpollu": 4494,
      "ĠdÃ©chets": 4495,
      "gÃ©e": 4496,
      "ĠdÃ©velopper": 4497,
      "importe": 4498,
      "Ġorganes": 4499,
      "Cet": 4500,
      "JO": 4501,
      "iers": 4502,
      "Ã´m": 4503,
      "Ġarrive": 4504,
      "Ġdon": 4505,
      "tain": 4506,
      "ĠrÃ¨gle": 4507,
      "TE": 4508,
      "oici": 4509,
      "ĠYork": 4510,
      "ĠRapport": 4511,
      "Ġmessage": 4512,
      "67": 4513,
      "uits": 4514,
      "Ġcollab": 4515,
      "ĠService": 4516,
      "47": 4517,
      "Se": 4518,
      "igneur": 4519,
      "Lorsque": 4520,
      "Ġafric": 4521,
      "espace": 4522,
      "Ġgam": 4523,
      "agriculture": 4524,
      "Ġdispose": 4525,
      "ĠÃ©tudiants": 4526,
      "Ġlimites": 4527,
      "Ġpermettent": 4528,
      "Ġinflu": 4529,
      "ĠÃ©trangÃ¨res": 4530,
      "Ã©trang": 4531,
      "ĠrÃ©mun": 4532,
      "dicap": 4533,
      "Ġlogici": 4534,
      "htm": 4535,
      "tiles": 4536,
      "Ġmises": 4537,
      "Ġcondam": 4538,
      "ĠCOM": 4539,
      "ĠBul": 4540,
      "ival": 4541,
      "Ġpartenariat": 4542,
      "Ġprovisoire": 4543,
      "ĠdÃ©taill": 4544,
      "à¸": 4545,
      "ĠMc": 4546,
      "ĠappelÃ©": 4547,
      "ĠMembres": 4548,
      "riez": 4549,
      "national": 4550,
      "ĠeuropÃ©ens": 4551,
      "Ġoccup": 4552,
      "Ġfinal": 4553,
      "matique": 4554,
      "Ġprofessionnelle": 4555,
      "tellectu": 4556,
      "Ġparfois": 4557,
      "lication": 4558,
      "Ġmodifier": 4559,
      "bres": 4560,
      "Ġreti": 4561,
      "armon": 4562,
      "Ġmilliards": 4563,
      "Ġdirectrices": 4564,
      "Ã©lÃ¨": 4565,
      "ĠAss": 4566,
      "impÃ´t": 4567,
      "Ġpression": 4568,
      "Ġcont": 4569,
      "ĠPas": 4570,
      "ĠcomplÃ©ment": 4571,
      "Ġul": 4572,
      "ĠrÃ©cemment": 4573,
      "ĠDr": 4574,
      "exportation": 4575,
      "Parce": 4576,
      "Ġprestation": 4577,
      "Ainsi": 4578,
      "Ġmode": 4579,
      "nies": 4580,
      "ĠTe": 4581,
      "Ġseraient": 4582,
      "Ġcommence": 4583,
      "Ġcontient": 4584,
      "ĠAfrique": 4585,
      "iditÃ©": 4586,
      "applique": 4587,
      "Ġcroire": 4588,
      "anne": 4589,
      "ĠportÃ©e": 4590,
      "Ġprestations": 4591,
      "del": 4592,
      "istence": 4593,
      "Ġ45": 4594,
      "ĠdÃ©liv": 4595,
      "ame": 4596,
      "Ġhumaine": 4597,
      "Ġscientifiques": 4598,
      "Ġpourra": 4599,
      "adresse": 4600,
      "Ã©nag": 4601,
      "Ġimporte": 4602,
      "ĠrÃ©gionales": 4603,
      "ssage": 4604,
      "ĠrÃ¨glements": 4605,
      "Ġfacile": 4606,
      "obli": 4607,
      "Ġbru": 4608,
      "ĠspÃ©ciale": 4609,
      "Ġconstitution": 4610,
      "ossible": 4611,
      "Ġpropor": 4612,
      "Ġconvain": 4613,
      "Ġ1990": 4614,
      "Ġsignifie": 4615,
      "Ġchercheurs": 4616,
      "Ġcertific": 4617,
      "ographique": 4618,
      "Ġfichier": 4619,
      "lÃ©s": 4620,
      "Ġutile": 4621,
      "rÃªte": 4622,
      "Ġpoursuivre": 4623,
      "ĠmÃ©r": 4624,
      "urÃ©e": 4625,
      "Ġclair": 4626,
      "parer": 4627,
      "Ġconver": 4628,
      "Ġmilitaires": 4629,
      "Ġinformation": 4630,
      "Ġdirectives": 4631,
      "Ġhandicap": 4632,
      "Ġrue": 4633,
      "Ġcomple": 4634,
      "nie": 4635,
      "Ġadress": 4636,
      "à¸Ģ": 4637,
      "prÃ©sent": 4638,
      "ĠexpÃ©ri": 4639,
      "Ã©der": 4640,
      "Ã©rÃ©s": 4641,
      "autoritÃ©": 4642,
      "ĠrÃ©gionaux": 4643,
      "Ġdispos": 4644,
      "Ġfabrication": 4645,
      "examin": 4646,
      "ĠdÃ©mocratique": 4647,
      "ouveau": 4648,
      "Ġconnu": 4649,
      "Ouest": 4650,
      "este": 4651,
      "Ġobsta": 4652,
      "Ġofficielles": 4653,
      "dessous": 4654,
      "bas": 4655,
      "sent": 4656,
      "ĠÃ©lections": 4657,
      "Ġsimil": 4658,
      "ĠfrÃ¨re": 4659,
      "tiers": 4660,
      "Ġaliments": 4661,
      "ĠquantitÃ©": 4662,
      "mm": 4663,
      "uelles": 4664,
      "sh": 4665,
      "ĠQue": 4666,
      "ĠrÃ©fugiÃ©s": 4667,
      "yle": 4668,
      "tice": 4669,
      "andes": 4670,
      "Ġprovinces": 4671,
      "Ġjur": 4672,
      "Ġpermanent": 4673,
      "Ok": 4674,
      "fon": 4675,
      "accep": 4676,
      "oss": 4677,
      "lise": 4678,
      "ĠtuÃ©": 4679,
      "Ġlocal": 4680,
      "ĠdifficultÃ©s": 4681,
      "Ġvir": 4682,
      "ĠÃ©lÃ©ment": 4683,
      "iver": 4684,
      "Ġadmissi": 4685,
      "rimoine": 4686,
      "tables": 4687,
      "Ġtrou": 4688,
      "Ġextr": 4689,
      "ĠFran": 4690,
      "32": 4691,
      "ĠantÃ©ri": 4692,
      "Ġsymp": 4693,
      "ĠarrivÃ©": 4694,
      "Ġbu": 4695,
      "ĠcompÃ©tence": 4696,
      "ĠfrÃ©qu": 4697,
      "gues": 4698,
      "Ġbureaux": 4699,
      "ĠMes": 4700,
      "Ġtraiter": 4701,
      "Ġgouvernementales": 4702,
      "Ġveiller": 4703,
      "Ã©rop": 4704,
      "ĠPoli": 4705,
      "agner": 4706,
      "ades": 4707,
      "Ġchanger": 4708,
      "enregistrement": 4709,
      "itent": 4710,
      "tenues": 4711,
      "ocation": 4712,
      "Ġdevoir": 4713,
      "Ġarriver": 4714,
      "Mes": 4715,
      "ĠrÃ©ponses": 4716,
      "ĠMinistre": 4717,
      "Ġtraite": 4718,
      "larg": 4719,
      "Ġabord": 4720,
      "ĠprivÃ©e": 4721,
      "Ġcommerciales": 4722,
      "ĠbÃ©b": 4723,
      "ĠcollÃ¨g": 4724,
      "eng": 4725,
      "osse": 4726,
      "ĠgÃ©nÃ©rales": 4727,
      "ĠmodÃ¨les": 4728,
      "oraire": 4729,
      "ĠStra": 4730,
      "Ġpersonnels": 4731,
      "CT": 4732,
      "Ã©nie": 4733,
      "poque": 4734,
      "entissage": 4735,
      "Ġconsultatif": 4736,
      "dements": 4737,
      "Ġ90": 4738,
      "................": 4739,
      "ĠimmÃ©diatement": 4740,
      "esprit": 4741,
      "Ġintellectu": 4742,
      "Ġ500": 4743,
      "ystÃ¨me": 4744,
      "Ġchev": 4745,
      "ĠamÃ©lior": 4746,
      "ĠrÃ©ussi": 4747,
      "Ġamb": 4748,
      "Ã©tablir": 4749,
      "ĠtempÃ©ra": 4750,
      "Ġpeuples": 4751,
      "Ġara": 4752,
      "experts": 4753,
      "Ġmine": 4754,
      "Ġconstituent": 4755,
      "atriÃ¨me": 4756,
      "ĠcatÃ©gories": 4757,
      "Ġtandis": 4758,
      "Ġtran": 4759,
      "ĠEUR": 4760,
      "Ġpartout": 4761,
      "Ġapplicable": 4762,
      "Ġmusique": 4763,
      "spagne": 4764,
      "Ġtarif": 4765,
      "pital": 4766,
      "ĠParis": 4767,
      "AG": 4768,
      "FC": 4769,
      "prÃ©tation": 4770,
      "Ġengagements": 4771,
      "ĠrÃª": 4772,
      "UniversitÃ©": 4773,
      "gal": 4774,
      "ible": 4775,
      "ĠmÃ©t": 4776,
      "Ġperte": 4777,
      "Ġproducteurs": 4778,
      "ĠComp": 4779,
      "Ġprobablement": 4780,
      "Ã©change": 4781,
      "yp": 4782,
      "Ġconsiste": 4783,
      "Ġmarche": 4784,
      "Ġimpos": 4785,
      "ĠmoitiÃ©": 4786,
      "utiliser": 4787,
      "ĠvolontÃ©": 4788,
      "install": 4789,
      "len": 4790,
      "Ġmeur": 4791,
      "Ġproduire": 4792,
      "Ġministres": 4793,
      "itations": 4794,
      "demment": 4795,
      "Ġadul": 4796,
      "DÃ©c": 4797,
      "ĠintÃ©rÃªt": 4798,
      "Ġtox": 4799,
      "dice": 4800,
      "Ġdiffus": 4801,
      "Ġpremiers": 4802,
      "Ġcrime": 4803,
      "Ġfrapp": 4804,
      "Ġindique": 4805,
      "Ġdiffusion": 4806,
      "Ġnaturel": 4807,
      "Ġcirconstances": 4808,
      "ura": 4809,
      "Ġoutils": 4810,
      "affaire": 4811,
      "Ġ=": 4812,
      "Ġtitulaire": 4813,
      "Ġpartage": 4814,
      "Ġcomprends": 4815,
      "dation": 4816,
      "ood": 4817,
      "ĠprÃ©al": 4818,
      "Ġdevrais": 4819,
      "intervention": 4820,
      "Car": 4821,
      "alestini": 4822,
      "espÃ¨re": 4823,
      "Ġcommencer": 4824,
      "IE": 4825,
      "Ġmaintenir": 4826,
      "ĠEN": 4827,
      "Ġmains": 4828,
      "Ġferme": 4829,
      "Ġtotale": 4830,
      "Ġessentiel": 4831,
      "Ġfigurant": 4832,
      "58": 4833,
      "Ġperform": 4834,
      "100": 4835,
      "Du": 4836,
      "uros": 4837,
      "VoilÃł": 4838,
      "attention": 4839,
      "ĠÃ©trangers": 4840,
      "ĠLE": 4841,
      "ĠadÃ©qu": 4842,
      "ĠThe": 4843,
      "Ġvolume": 4844,
      "ĠIls": 4845,
      "ĠÃ©viter": 4846,
      "Ġretraite": 4847,
      "ĠAff": 4848,
      "ĠBien": 4849,
      "ĠconsÃ©quence": 4850,
      "Ġvendre": 4851,
      "ĠÃ©du": 4852,
      "Ġnaturelles": 4853,
      "Ġconservation": 4854,
      "ĠDÃ©claration": 4855,
      "quÃªtes": 4856,
      "Ġtient": 4857,
      "orient": 4858,
      "Ġfavoriser": 4859,
      "57": 4860,
      "ark": 4861,
      "Ġcourt": 4862,
      "Ġgratu": 4863,
      "RÃ©s": 4864,
      "Ġutilisateurs": 4865,
      "essai": 4866,
      "Ġfigure": 4867,
      "ĠministÃ©ri": 4868,
      "Ġclin": 4869,
      "CN": 4870,
      "ĠprÃ©ser": 4871,
      "IB": 4872,
      "ask": 4873,
      "Britannique": 4874,
      "Ġaffaire": 4875,
      "ĠmÃ©canisme": 4876,
      "Ġagricole": 4877,
      "nÃ©s": 4878,
      "Is": 4879,
      "tidi": 4880,
      "Ġtribunal": 4881,
      "ĠspÃ©cifique": 4882,
      "Ġexige": 4883,
      "Ġatteint": 4884,
      "ĠdÃ©t": 4885,
      "fiant": 4886,
      "ÃīS": 4887,
      "ĠmodalitÃ©s": 4888,
      "affir": 4889,
      "Ouais": 4890,
      "Ġsembl": 4891,
      "Eh": 4892,
      "Ġpsy": 4893,
      "Ġcad": 4894,
      "ĠparticuliÃ¨re": 4895,
      "ĠPremiÃ¨res": 4896,
      "Ġcouv": 4897,
      "ĠMa": 4898,
      "Ġterritoires": 4899,
      "Ġintrodu": 4900,
      "ĠsecrÃ©tariat": 4901,
      "Ġintervenants": 4902,
      "atte": 4903,
      "Ġobtenu": 4904,
      "Ġdossiers": 4905,
      "Ġdoc": 4906,
      "Ġrevoir": 4907,
      "ĠSte": 4908,
      "Ġvieux": 4909,
      "Ġradiodiffusion": 4910,
      "Ġvites": 4911,
      "Ã©dÃ©ration": 4912,
      "ĠÃ©lectri": 4913,
      "ĠSch": 4914,
      "ingt": 4915,
      "Ġrestaur": 4916,
      "ĠvÃ©ritÃ©": 4917,
      "ĠÃ©vÃ©nements": 4918,
      "Ã©tranger": 4919,
      "obil": 4920,
      "ĠforÃª": 4921,
      "TS": 4922,
      "veloppement": 4923,
      "Ġ1993": 4924,
      "Ġfera": 4925,
      "ĠTor": 4926,
      "Ġofficiel": 4927,
      "Ġpourcentage": 4928,
      "ĠcomplÃ¨te": 4929,
      "Ġconjoin": 4930,
      "Ġouvert": 4931,
      "Ġtrafic": 4932,
      "ĠGu": 4933,
      "44": 4934,
      "joint": 4935,
      "Ã©h": 4936,
      "Ġmariti": 4937,
      "Accord": 4938,
      "66": 4939,
      "Ob": 4940,
      "Ġdesc": 4941,
      "Ġhistoire": 4942,
      "ynam": 4943,
      "Ġmariage": 4944,
      "Ġtellement": 4945,
      "ĠdÃ©crit": 4946,
      "Ġ80": 4947,
      "Ġenvironnementale": 4948,
      "Ġavanc": 4949,
      "Ġesc": 4950,
      "Ġseconde": 4951,
      "Ġurb": 4952,
      "lage": 4953,
      "inion": 4954,
      "ĠrÃ©alitÃ©": 4955,
      "Ġexac": 4956,
      "ctive": 4957,
      "duction": 4958,
      "Ġprincipale": 4959,
      "Ġchange": 4960,
      "Ġjudiciaire": 4961,
      "ĠJapon": 4962,
      "Ġrecommandation": 4963,
      "Ġclass": 4964,
      "erait": 4965,
      "Ġcirculation": 4966,
      "):": 4967,
      "ĠGen": 4968,
      "Ġallons": 4969,
      "Ġsurface": 4970,
      "ĠdÃ©fis": 4971,
      "Ġefficaces": 4972,
      "sc": 4973,
      "erb": 4974,
      "ĠMerci": 4975,
      "Ġmots": 4976,
      "truire": 4977,
      "occu": 4978,
      "Ġ1992": 4979,
      "ĠrÃ©gionale": 4980,
      "Ġdomm": 4981,
      "quet": 4982,
      "Ġtab": 4983,
      "Ġutilisation": 4984,
      "ĠutilisÃ©es": 4985,
      "ĠpremiÃ¨res": 4986,
      "ĠdÃ©solÃ©": 4987,
      "Ġ2014": 4988,
      "Ġpleinement": 4989,
      "ĠpÃ©tro": 4990,
      "Ġspec": 4991,
      "union": 4992,
      "Ġsept": 4993,
      "Ġappui": 4994,
      "Ġlieux": 4995,
      "observ": 4996,
      "QUE": 4997,
      "initiative": 4998,
      "Ġvul": 4999,
      "aus": 5000,
      "oie": 5001,
      "Ġparagraphes": 5002,
      "Ġcommuniquer": 5003,
      "Ġcouver": 5004,
      "ĠtÃ©moi": 5005,
      "Ġsys": 5006,
      "arie": 5007,
      "ĠextÃ©ri": 5008,
      "ik": 5009,
      "lÃ©es": 5010,
      "ĠexpÃ©rience": 5011,
      "2009": 5012,
      "effet": 5013,
      "1999": 5014,
      "Ã©lec": 5015,
      "innovation": 5016,
      "Ġretard": 5017,
      "Ġmouvement": 5018,
      "rite": 5019,
      "Ġpen": 5020,
      "isp": 5021,
      "Chaque": 5022,
      "ĠexaminÃ©": 5023,
      "uler": 5024,
      "ĠprÃ©ju": 5025,
      "ĠdÃ©cid": 5026,
      "Ġmissions": 5027,
      "ĠdonnÃ©e": 5028,
      "Ġconduite": 5029,
      "Ġexaminer": 5030,
      "Ġsignific": 5031,
      "engagement": 5032,
      "Ġquotidi": 5033,
      "Ġsomme": 5034,
      "fiÃ©es": 5035,
      "63": 5036,
      "99": 5037,
      "Ġpersonn": 5038,
      "Ġdirect": 5039,
      "Ġ00": 5040,
      "Ġmec": 5041,
      "Ġcombin": 5042,
      "Institut": 5043,
      "ĠPourquoi": 5044,
      "ĠcÅĵur": 5045,
      "Ġbelle": 5046,
      "Ġdisc": 5047,
      "Ġexpos": 5048,
      "Ġblanc": 5049,
      "ĠsiÃ¨cle": 5050,
      "berta": 5051,
      "pÃ©ra": 5052,
      "Ġimpli": 5053,
      "Ġentend": 5054,
      "Ġ2015": 5055,
      "Ã¨tes": 5056,
      "aimerais": 5057,
      "Ġmens": 5058,
      "visionnement": 5059,
      "IM": 5060,
      "ĠdÃ©fi": 5061,
      "ommun": 5062,
      "Ġrestri": 5063,
      "Ġmicro": 5064,
      "%)": 5065,
      "lation": 5066,
      "enz": 5067,
      "Ġcontenant": 5068,
      "Ġ38": 5069,
      "Ġregarde": 5070,
      "ĠtÃ©lÃ©vision": 5071,
      "ĠdiversitÃ©": 5072,
      "Ġpron": 5073,
      "Ġgarder": 5074,
      "onnÃ©": 5075,
      "chez": 5076,
      "Mal": 5077,
      "Ġpuissent": 5078,
      "ĠIII": 5079,
      "importation": 5080,
      "Ġimportance": 5081,
      "pour": 5082,
      "cipÃ©": 5083,
      "ariats": 5084,
      "ĠÃ©nergÃ©": 5085,
      "Ġtirer": 5086,
      "Ġamp": 5087,
      "umer": 5088,
      "ĠcrÃ©dits": 5089,
      "ĠprocÃ¨s": 5090,
      "Ġmerci": 5091,
      "ouse": 5092,
      "Ġgauche": 5093,
      "Ġannexe": 5094,
      "Ġpensais": 5095,
      "ĠProtocole": 5096,
      "ĠmodifiÃ©": 5097,
      "ĠvÃ©hicule": 5098,
      "Ġdimen": 5099,
      "Ġretourn": 5100,
      "Ġaddition": 5101,
      "Ġmener": 5102,
      "68": 5103,
      "nance": 5104,
      "Ġpal": 5105,
      "Ġapporter": 5106,
      "Ġsciences": 5107,
      "Ġglobale": 5108,
      "uffis": 5109,
      "mon": 5110,
      "ubli": 5111,
      "olÃ©e": 5112,
      "Ġmonsieur": 5113,
      "ĠHe": 5114,
      "wan": 5115,
      "rÃ©al": 5116,
      "impact": 5117,
      "Ġterritori": 5118,
      "Ġgro": 5119,
      "Ġpenser": 5120,
      "Bonjour": 5121,
      "ĠnuclÃ©aires": 5122,
      "CP": 5123,
      "Ġminimum": 5124,
      "ĠtÃ´t": 5125,
      "Ġrent": 5126,
      "ĠÃ©lector": 5127,
      "mendement": 5128,
      "mÃ©diaire": 5129,
      "augmentation": 5130,
      "ĠÃ©limin": 5131,
      "ĠutilisÃ©e": 5132,
      "Ã©limination": 5133,
      "ĠdÃ©tails": 5134,
      "Ġsauv": 5135,
      "rique": 5136,
      "Ġcellu": 5137,
      "ĠstabilitÃ©": 5138,
      "appliquer": 5139,
      "Ġvenu": 5140,
      "ID": 5141,
      "rants": 5142,
      "âĢĶ": 5143,
      "Ġred": 5144,
      "OT": 5145,
      "Puis": 5146,
      "ĠcÃ©rÃ©": 5147,
      "Ã¨tre": 5148,
      "oe": 5149,
      "activitÃ©s": 5150,
      "Ġsujets": 5151,
      "ĠrÃ©vÃ©": 5152,
      "ĠfondÃ©e": 5153,
      "Ġparticuliers": 5154,
      "ĠÃ©valuer": 5155,
      "Ġpourrais": 5156,
      "ĠNouvelle": 5157,
      "Ġ37": 5158,
      "opÃ©ration": 5159,
      "Ġconsoli": 5160,
      "Ġoffrir": 5161,
      "Ġsituations": 5162,
      "ĠdÃ©clarations": 5163,
      "RES": 5164,
      "onneur": 5165,
      "ĠdÃ©pÃ´t": 5166,
      "ĠAng": 5167,
      "Ġprofessionnel": 5168,
      "ĠsoulignÃ©": 5169,
      "ĠtÃ¢ches": 5170,
      "sid": 5171,
      "ographie": 5172,
      "ĠsÃ©ri": 5173,
      "Ġstation": 5174,
      "Ġordonn": 5175,
      "ulle": 5176,
      "apprentissage": 5177,
      "laires": 5178,
      "ots": 5179,
      "toire": 5180,
      "enc": 5181,
      "enci": 5182,
      "Ġmat": 5183,
      "Ġbonnes": 5184,
      "amour": 5185,
      "existence": 5186,
      ".Â»": 5187,
      "oug": 5188,
      "ĠPays": 5189,
      "venus": 5190,
      "ĠdÃ©couver": 5191,
      "ĠÃ©chÃ©ant": 5192,
      "examiner": 5193,
      "Ã©le": 5194,
      "Ġrenouvel": 5195,
      "ĠBon": 5196,
      "ĠÃ©lÃ¨": 5197,
      "ĠTerre": 5198,
      "Ġmention": 5199,
      "Ġallem": 5200,
      "chn": 5201,
      "ĠdÃ©posÃ©": 5202,
      "Ġinfra": 5203,
      "organisme": 5204,
      "tiÃ¨me": 5205,
      "Ġrig": 5206,
      "asi": 5207,
      "seurs": 5208,
      "ĠvoilÃł": 5209,
      "Ġfournisseurs": 5210,
      "Ġstu": 5211,
      "Ġentier": 5212,
      "ĠsupplÃ©mentaire": 5213,
      "long": 5214,
      "agent": 5215,
      "we": 5216,
      "isent": 5217,
      "Entre": 5218,
      "Ġsusp": 5219,
      "Cons": 5220,
      "chent": 5221,
      "ĠprÃ©venir": 5222,
      "Ġutilisant": 5223,
      "ĠconsidÃ©rÃ©": 5224,
      "IP": 5225,
      "oz": 5226,
      "Ã´me": 5227,
      "idÃ©e": 5228,
      "tiennent": 5229,
      "Ġgrave": 5230,
      "Ġreconnaissance": 5231,
      "ĠmÃ©decin": 5232,
      "ĠAb": 5233,
      "Ġenfin": 5234,
      "ruption": 5235,
      "Ġprochain": 5236,
      "oxy": 5237,
      "Ġsavais": 5238,
      "riel": 5239,
      "extÃ©rieur": 5240,
      "Ġtransform": 5241,
      "aliser": 5242,
      "ĠdestinÃ©s": 5243,
      "Salut": 5244,
      "The": 5245,
      "Ġvilles": 5246,
      "Ġcommentaires": 5247,
      "Ġbless": 5248,
      "cter": 5249,
      "Ġenseign": 5250,
      "ormais": 5251,
      "expression": 5252,
      "atrice": 5253,
      "Voici": 5254,
      "ĠdÃ©rou": 5255,
      "old": 5256,
      "pection": 5257,
      "Ġpartis": 5258,
      "aliste": 5259,
      "Ġenregistr": 5260,
      "oncer": 5261,
      "Ġvoulu": 5262,
      "ierre": 5263,
      "Ġprison": 5264,
      "Ġfaute": 5265,
      "Ã©valu": 5266,
      "onto": 5267,
      "Ġplaisir": 5268,
      "ST": 5269,
      "ĠbÃ©bÃ©": 5270,
      "ulaire": 5271,
      "Ġhon": 5272,
      "Ġpouvant": 5273,
      "Ġplai": 5274,
      "Ġarr": 5275,
      "Ġhumain": 5276,
      "ĠprocÃ©der": 5277,
      "Ġcycle": 5278,
      "fgh": 5279,
      "ĠdÃ©g": 5280,
      "Ġchimiques": 5281,
      "Ġintellectuelle": 5282,
      "Ġvitesse": 5283,
      "Voir": 5284,
      "vu": 5285,
      "aller": 5286,
      "Ġexception": 5287,
      "Ġaccessi": 5288,
      "Ġ70": 5289,
      "ĠchaÃ®": 5290,
      "gy": 5291,
      "ĠassociÃ©s": 5292,
      "milli": 5293,
      "chÃ©s": 5294,
      "Ġpassage": 5295,
      "eth": 5296,
      "ĠRapp": 5297,
      "ĠNation": 5298,
      "ĠdÃ©plac": 5299,
      "Ġsouhaite": 5300,
      "Ġinqui": 5301,
      "lantique": 5302,
      "Ġfaibles": 5303,
      "Ġformulaire": 5304,
      "ĠJourn": 5305,
      "Ġadministratives": 5306,
      "ĠAg": 5307,
      "Ã´ts": 5308,
      "Ġtransition": 5309,
      "Ġiss": 5310,
      "anmoins": 5311,
      "ĠNor": 5312,
      "formÃ©ment": 5313,
      "Ġprogrammation": 5314,
      "Ġaccus": 5315,
      "effec": 5316,
      "âĻª": 5317,
      "Ġsexe": 5318,
      "Ġexam": 5319,
      "ĠÃ©coles": 5320,
      "Ġlocale": 5321,
      "ÃĬ": 5322,
      "Ġtom": 5323,
      "Ġcommunes": 5324,
      "rastructures": 5325,
      "Ġpuisque": 5326,
      "Ġrembour": 5327,
      "Ġmanger": 5328,
      "Ġenvers": 5329,
      "Ġcomplet": 5330,
      "denti": 5331,
      "anes": 5332,
      "Ġdiver": 5333,
      "Ġhein": 5334,
      "Ġavoc": 5335,
      "ĠparticipÃ©": 5336,
      "Ġcombien": 5337,
      "criptions": 5338,
      "onnement": 5339,
      "ĠrÃ©vision": 5340,
      "Ġacqu": 5341,
      "Ġhumanitaire": 5342,
      "diction": 5343,
      "appar": 5344,
      "Ġveulent": 5345,
      "environ": 5346,
      "Ã¢te": 5347,
      "Ġobligatoire": 5348,
      "77": 5349,
      "to": 5350,
      "Ġconsulter": 5351,
      "autorisation": 5352,
      "ĠprÃ©parer": 5353,
      "Ġclassi": 5354,
      "41": 5355,
      "rlande": 5356,
      "intÃ©g": 5357,
      "Ġactuel": 5358,
      "cal": 5359,
      "orge": 5360,
      "Ġrac": 5361,
      "Ġconclusion": 5362,
      "Association": 5363,
      "oeu": 5364,
      "Ġdra": 5365,
      "oudre": 5366,
      "ĠfranÃ§aise": 5367,
      "enfants": 5368,
      "Ġrencontre": 5369,
      "anim": 5370,
      "itÃ©es": 5371,
      "ĠGe": 5372,
      "Ã©riques": 5373,
      "utri": 5374,
      "ĠPremier": 5375,
      "Comp": 5376,
      "ports": 5377,
      "Ġexclusi": 5378,
      "ĠMac": 5379,
      "ĠHar": 5380,
      "Ġpaiements": 5381,
      "ĠdÃ©mocratie": 5382,
      "NG": 5383,
      "ĠdÃ©cla": 5384,
      "Ġdouble": 5385,
      "ĠÃĩÃ¡Ã": 5386,
      "delÃł": 5387,
      "ĠmÃ©m": 5388,
      "Ġparole": 5389,
      "Ġmoteur": 5390,
      "Ġcoeur": 5391,
      "lah": 5392,
      "Bas": 5393,
      "Ã³": 5394,
      "rire": 5395,
      "Ġneuf": 5396,
      "Ġfaisait": 5397,
      "agnÃ©": 5398,
      "ĠvÃ©rifier": 5399,
      "Ġdessus": 5400,
      "Ġdevient": 5401,
      "bo": 5402,
      "Ġbande": 5403,
      "ĠsiÃ¨ge": 5404,
      "ĠdiffÃ©rence": 5405,
      "ĠstratÃ©giques": 5406,
      "Ã´mage": 5407,
      "Ġinten": 5408,
      "approche": 5409,
      "Ġalimentaires": 5410,
      "liers": 5411,
      "ĠDa": 5412,
      "Ġjoue": 5413,
      "46": 5414,
      "ilibre": 5415,
      "ED": 5416,
      "lut": 5417,
      "Ġuni": 5418,
      "Ġ36": 5419,
      "Ġconcours": 5420,
      "ĠvisÃ©es": 5421,
      "Ġgraves": 5422,
      "Ġtendance": 5423,
      "Mme": 5424,
      "atÃ©ra": 5425,
      "exposition": 5426,
      "opie": 5427,
      "Ġchoisir": 5428,
      "Allemagne": 5429,
      "].": 5430,
      "ĠCO": 5431,
      "Ġexter": 5432,
      "Ġcommerciale": 5433,
      "Ġcomportement": 5434,
      "56": 5435,
      "CO": 5436,
      "ĠvisÃ©s": 5437,
      "ĠrÃ©alisÃ©s": 5438,
      "rist": 5439,
      "rid": 5440,
      "ĠRec": 5441,
      "Ġsoup": 5442,
      "fir": 5443,
      "utÃ©s": 5444,
      "Ġdevra": 5445,
      "agers": 5446,
      "univers": 5447,
      "Ġrecettes": 5448,
      "ĠtÃ©lÃ©ph": 5449,
      "Ġlabor": 5450,
      "inois": 5451,
      "mosph": 5452,
      "ĠprÃ©sentÃ©e": 5453,
      "Ġrecru": 5454,
      "ĠprÃ©vus": 5455,
      "Ġproportion": 5456,
      "Ġ#": 5457,
      "arr": 5458,
      "ĠMich": 5459,
      "ama": 5460,
      "Ġcontrats": 5461,
      "Ã©nom": 5462,
      "uxelles": 5463,
      "alistes": 5464,
      "ĠpiÃ¨ce": 5465,
      "ĠsupÃ©rieure": 5466,
      "Ġeth": 5467,
      "adhÃ©sion": 5468,
      "Ġgouvernance": 5469,
      "ank": 5470,
      "ĠAU": 5471,
      "Ġinclu": 5472,
      "Ġcommerciaux": 5473,
      "ĠgÃ©rer": 5474,
      "offre": 5475,
      "Ġsyndic": 5476,
      "Certains": 5477,
      "ĠsystÃ©": 5478,
      "mont": 5479,
      "Ã£": 5480,
      "Ġsent": 5481,
      "ortu": 5482,
      "accueil": 5483,
      "lÃ©g": 5484,
      "ĠcomplÃ©": 5485,
      "ĠfÃ©dÃ©raux": 5486,
      "attend": 5487,
      "Ġstructures": 5488,
      "igration": 5489,
      "ĠaugmentÃ©": 5490,
      "Ġvoulait": 5491,
      "Avant": 5492,
      "Tr": 5493,
      "ustra": 5494,
      "assin": 5495,
      "Ġcivil": 5496,
      "ĠapprouvÃ©": 5497,
      "ty": 5498,
      "ano": 5499,
      "arre": 5500,
      "ĠBe": 5501,
      "poth": 5502,
      "Ġcomprennent": 5503,
      "Ġfondamentaux": 5504,
      "dy": 5505,
      "ĠCont": 5506,
      "ĠLi": 5507,
      "ĠgÃ©nÃ©raux": 5508,
      "Ġgamme": 5509,
      "tagne": 5510,
      "ĠHaut": 5511,
      "Ġ1991": 5512,
      "SA": 5513,
      "ĠÃ©ti": 5514,
      "ĠagrÃ©": 5515,
      "niques": 5516,
      "Ġmaximum": 5517,
      "CR": 5518,
      "Fait": 5519,
      "Moi": 5520,
      "Ġsurpr": 5521,
      "aleur": 5522,
      "Ġentrer": 5523,
      "Ġcartes": 5524,
      "ĠreprÃ©sentent": 5525,
      "Ġreconnu": 5526,
      "estation": 5527,
      "apa": 5528,
      "ĠorganisÃ©": 5529,
      "orth": 5530,
      "ĠdÃ©ploy": 5531,
      "ĠderriÃ¨re": 5532,
      "Ġconnexes": 5533,
      "Ġorganisme": 5534,
      "versaire": 5535,
      "Ġsugg": 5536,
      "ld": 5537,
      "oyer": 5538,
      "dÃ©cembre": 5539,
      "UL": 5540,
      "fer": 5541,
      "Ã©ti": 5542,
      "Ġgre": 5543,
      "Ġhom": 5544,
      "Ġmoder": 5545,
      "ĠdÃ©finir": 5546,
      "ĠÃ©changes": 5547,
      ")?": 5548,
      "ortÃ©es": 5549,
      "astroph": 5550,
      "ĠDivision": 5551,
      "nÃ©ra": 5552,
      "Ġdescription": 5553,
      "Quelle": 5554,
      "ĠrÃ©uss": 5555,
      "!!": 5556,
      "na": 5557,
      "Ġvacc": 5558,
      "ĠrÃ©ception": 5559,
      "ĠÃ©chantill": 5560,
      "Ġsuffisamment": 5561,
      "ĠCharte": 5562,
      "90": 5563,
      "Can": 5564,
      "otes": 5565,
      "visions": 5566,
      "Ġsold": 5567,
      "oud": 5568,
      "Ġnouvel": 5569,
      "Ġdiscussion": 5570,
      "las": 5571,
      "Ġaient": 5572,
      "Ã©min": 5573,
      "ĠRob": 5574,
      "ĠmÃ©l": 5575,
      "accent": 5576,
      "ĠmenÃ©es": 5577,
      "ĠextrÃªme": 5578,
      "Ã©lectri": 5579,
      "98": 5580,
      "quante": 5581,
      "ĠunitÃ©s": 5582,
      "ĠPR": 5583,
      "54": 5584,
      "orde": 5585,
      "aud": 5586,
      "Ġprotocole": 5587,
      "Ġmeilleurs": 5588,
      "ĠprÃ©cise": 5589,
      "IR": 5590,
      "Ġvac": 5591,
      "ĠTer": 5592,
      "Ġdrogues": 5593,
      "ĠDan": 5594,
      "Ġauquel": 5595,
      "cool": 5596,
      "Ġchefs": 5597,
      "Etat": 5598,
      "007": 5599,
      "Ġpost": 5600,
      "Ġpotentiel": 5601,
      "Ġpuissance": 5602,
      "ĠsituÃ©": 5603,
      "Ã©mie": 5604,
      "Ġphotos": 5605,
      "Ġlogement": 5606,
      "ives": 5607,
      "Ġsusceptibles": 5608,
      "line": 5609,
      "Ãĳ": 5610,
      "HÃ©": 5611,
      "ek": 5612,
      "pÃ©rer": 5613,
      "ĠprÃ©occupations": 5614,
      "ĠnuclÃ©aire": 5615,
      "installation": 5616,
      "Ġprovo": 5617,
      "Ġexperts": 5618,
      "Ġsubventions": 5619,
      "Ġinitiative": 5620,
      "ĠvulnÃ©ra": 5621,
      "Ġconforme": 5622,
      "Ġblo": 5623,
      "undi": 5624,
      "Ġexport": 5625,
      "ditions": 5626,
      "Ġhuit": 5627,
      "Ġfroi": 5628,
      "ĠrÃ©serves": 5629,
      "Ġvivant": 5630,
      "Ġerreur": 5631,
      "vitÃ©": 5632,
      "tiÃ¨re": 5633,
      "Ġcompens": 5634,
      "Ġrappelle": 5635,
      "Ġpharm": 5636,
      "ĠcompÃ©ti": 5637,
      "ĠrecommandÃ©": 5638,
      "Ġhistorique": 5639,
      "don": 5640,
      "oÃ¹": 5641,
      "Ã¼": 5642,
      "Ġrang": 5643,
      "Ġchoisi": 5644,
      "ĠrÃ©partition": 5645,
      "IV": 5646,
      "ĠrÃ©ta": 5647,
      "Ġcatastroph": 5648,
      "Personne": 5649,
      "Ġdemeure": 5650,
      "otal": 5651,
      "Ġsubs": 5652,
      "alimentation": 5653,
      "Ġdynam": 5654,
      "ĠDate": 5655,
      "accomp": 5656,
      "ĠcomprÃ©h": 5657,
      "Ġcontract": 5658,
      "Ġsuffit": 5659,
      "Rapport": 5660,
      "Toutes": 5661,
      "umÃ©ro": 5662,
      "ĠOntario": 5663,
      "Ġengagement": 5664,
      "Ġgarantie": 5665,
      "Ġx": 5666,
      "rix": 5667,
      "ague": 5668,
      "Ã©sus": 5669,
      "Ġrecueilli": 5670,
      "Ġdroite": 5671,
      "ĠcollectivitÃ©": 5672,
      "Ġrus": 5673,
      "Ġbaisse": 5674,
      "cule": 5675,
      "ĠÃ©tape": 5676,
      "Ã©taient": 5677,
      "ĠrÃ©per": 5678,
      "Ġpartenariats": 5679,
      "Ġnavires": 5680,
      "Ġprie": 5681,
      "Ġactive": 5682,
      "ĠBer": 5683,
      "Ġimpossible": 5684,
      "lub": 5685,
      "nÃ©e": 5686,
      "ĠconÃ§": 5687,
      "exception": 5688,
      "riture": 5689,
      "quisition": 5690,
      "Ġcollecte": 5691,
      "EP": 5692,
      "Rien": 5693,
      "Ã©rap": 5694,
      "ĠMontrÃ©al": 5695,
      "ĠdÃ©lais": 5696,
      "aissez": 5697,
      "Ġmobil": 5698,
      "Ã©quipement": 5699,
      "42": 5700,
      "ET": 5701,
      "Pendant": 5702,
      "ĠmaÃ®": 5703,
      "itude": 5704,
      "ĠconsidÃ©ration": 5705,
      "Ġdistance": 5706,
      "Sa": 5707,
      "tan": 5708,
      "tiens": 5709,
      "Ġvra": 5710,
      "Ġ48": 5711,
      "ĠSur": 5712,
      "ĠLib": 5713,
      "Ġsatisfaction": 5714,
      "ĠvisÃ©e": 5715,
      "by": 5716,
      "Ġpossibles": 5717,
      "conque": 5718,
      "ailleurs": 5719,
      "Ġauteurs": 5720,
      "ĠDÃ©partement": 5721,
      "mÃªmes": 5722,
      "Ġfoi": 5723,
      "tements": 5724,
      "Ġmenace": 5725,
      "Ġ<": 5726,
      "ĠenquÃªtes": 5727,
      "ableau": 5728,
      "Ġmeilleures": 5729,
      "95": 5730,
      "ĠidÃ©": 5731,
      "ĠdÃ©sormais": 5732,
      "Ġfacteur": 5733,
      "Ġindicateurs": 5734,
      "Ġdette": 5735,
      "ĠMission": 5736,
      "Ġsensibilisation": 5737,
      "ef": 5738,
      "alisme": 5739,
      "ands": 5740,
      "ĠdiffÃ©rences": 5741,
      "Ġtraitements": 5742,
      "AB": 5743,
      "io": 5744,
      "Ġcertaine": 5745,
      "ĠadoptÃ©e": 5746,
      "ĠInternational": 5747,
      "ĠDirecteur": 5748,
      "Ġheureux": 5749,
      "ĠtempÃ©rature": 5750,
      "Viens": 5751,
      "ataire": 5752,
      "Ġcommissaire": 5753,
      "ĠvidÃ©o": 5754,
      "ĠÃ©lÃ¨ves": 5755,
      "rom": 5756,
      "rÃ´le": 5757,
      "Ã¦": 5758,
      "Ġprolong": 5759,
      "viend": 5760,
      "ĠcohÃ©r": 5761,
      "ellent": 5762,
      "achat": 5763,
      "ĠpÃ©nale": 5764,
      "gouvernement": 5765,
      "ĠclÃ©": 5766,
      "arrÃª": 5767,
      "ĠPe": 5768,
      "Ġferm": 5769,
      "tÃ©n": 5770,
      "Ġalli": 5771,
      "Ġimportations": 5772,
      "ĠeffectuÃ©": 5773,
      "obligation": 5774,
      "Ġadultes": 5775,
      "ya": 5776,
      "Ġordre": 5777,
      "entement": 5778,
      "Ġceci": 5779,
      "Ġvision": 5780,
      "ĠBruxelles": 5781,
      "orientation": 5782,
      "Sans": 5783,
      "ĠlÃ©gi": 5784,
      "Ġtrim": 5785,
      "Ġdirait": 5786,
      "autÃ©s": 5787,
      "Ġcaf": 5788,
      "Ġencourage": 5789,
      "QU": 5790,
      "Ġpension": 5791,
      "Ġeuro": 5792,
      "Ġlire": 5793,
      "Ġvaste": 5794,
      "ĠbÃ©nÃ©ficier": 5795,
      "61": 5796,
      "IF": 5797,
      "Ġvillage": 5798,
      "Ġ01": 5799,
      "Ġmou": 5800,
      "Ġmilliers": 5801,
      "AF": 5802,
      "Ġrub": 5803,
      "blioth": 5804,
      "Ġcommercial": 5805,
      "Ġ*": 5806,
      "Ġsh": 5807,
      "Ġfall": 5808,
      "Ġrivi": 5809,
      "Ġappliquer": 5810,
      "Ġphoto": 5811,
      "Ġpapier": 5812,
      "Ġchiffres": 5813,
      "Ġtransparence": 5814,
      "bit": 5815,
      "ĠQui": 5816,
      "ettez": 5817,
      "Ġ33": 5818,
      "cussions": 5819,
      "armement": 5820,
      "Date": 5821,
      "isÃ©": 5822,
      "Ġbour": 5823,
      "ĠchÃ´mage": 5824,
      "Ġaccr": 5825,
      "Ġfournis": 5826,
      "Dem": 5827,
      "ĠToronto": 5828,
      "yth": 5829,
      "Ã¥": 5830,
      "Ġaj": 5831,
      "ciens": 5832,
      "tendez": 5833,
      "Ġproduc": 5834,
      "ĠspÃ©ciales": 5835,
      "Ġrecons": 5836,
      "ĠindÃ©pendant": 5837,
      "ky": 5838,
      "ĠÃ©cou": 5839,
      "Ġdiscussions": 5840,
      "ĠAffaires": 5841,
      "Ġdanger": 5842,
      "Ġmaman": 5843,
      "Ġpren": 5844,
      "Ġacte": 5845,
      "ĠthÃ¨me": 5846,
      "ĠconsidÃ©rÃ©e": 5847,
      "Ġling": 5848,
      "Ġpalestini": 5849,
      "ĠdegrÃ©": 5850,
      "ars": 5851,
      "ares": 5852,
      "ĠFR": 5853,
      "Ġmontrer": 5854,
      "ĠrÃ©alisÃ©": 5855,
      "ĠfÃªte": 5856,
      "ĠCal": 5857,
      "Ġannuelle": 5858,
      "Ġtaxe": 5859,
      "ĠSeigneur": 5860,
      "Ġ32": 5861,
      "ĠOb": 5862,
      "ANS": 5863,
      "Ġstim": 5864,
      "ince": 5865,
      "ĠCH": 5866,
      "niti": 5867,
      "Ġappelle": 5868,
      "ĠrÃ©solutions": 5869,
      "ĠrÃ©soudre": 5870,
      "ĠprÃ©sentÃ©s": 5871,
      "ĠconcernÃ©s": 5872,
      "Ġpertinentes": 5873,
      "pit": 5874,
      "Ġbanc": 5875,
      "ĠapprÃ©ci": 5876,
      "ĠdÃ©cide": 5877,
      "ĠprÃ©sidence": 5878,
      "chant": 5879,
      "Ġray": 5880,
      "Ã©rÃ©e": 5881,
      "crits": 5882,
      "isant": 5883,
      "Ġprot": 5884,
      "ulture": 5885,
      "Ã©nÃ©ra": 5886,
      "88": 5887,
      "rad": 5888,
      "Ġassure": 5889,
      "ĠconsidÃ¨re": 5890,
      "ĠCN": 5891,
      "Ġnoms": 5892,
      "arrive": 5893,
      "DF": 5894,
      "gin": 5895,
      "Ġcab": 5896,
      "Ġlead": 5897,
      "Ġnoir": 5898,
      "Ġeau": 5899,
      "ung": 5900,
      "prÃ©s": 5901,
      "ĠÃ©levÃ©s": 5902,
      "Ġessais": 5903,
      "acifique": 5904,
      "Ġchacune": 5905,
      "Ġfacilement": 5906,
      "Ġauxquels": 5907,
      "97": 5908,
      "Ġate": 5909,
      "Ġinternes": 5910,
      "Ġprior": 5911,
      "contre": 5912,
      "Ġtrouvent": 5913,
      "Dire": 5914,
      "Fais": 5915,
      "Ser": 5916,
      "uellement": 5917,
      "oba": 5918,
      "Ġprofit": 5919,
      "Ġmontants": 5920,
      "affec": 5921,
      "Ġbanques": 5922,
      "dent": 5923,
      "raine": 5924,
      "ĠrÃ©el": 5925,
      "acqu": 5926,
      "lÃ©ch": 5927,
      "ĠFÃ©dÃ©ration": 5928,
      "Ġspecta": 5929,
      "ection": 5930,
      "Ġofficielle": 5931,
      "Ġpleine": 5932,
      "Ġcivils": 5933,
      "Ġpilote": 5934,
      "Ġtomber": 5935,
      "43": 5936,
      "ĠconfÃ©rences": 5937,
      "ĠRes": 5938,
      "Ġtransformation": 5939,
      "latÃ©ra": 5940,
      "ĠtÃ¢che": 5941,
      "ĠmÃ©n": 5942,
      "ĠMex": 5943,
      "Annexe": 5944,
      "Ġparvenir": 5945,
      "Ġbases": 5946,
      "Ġsortie": 5947,
      "Ġfavor": 5948,
      "PrÃ©": 5949,
      "oure": 5950,
      "Quoi": 5951,
      "Ġallait": 5952,
      "ĠvÃ©ritable": 5953,
      "Ġfourniture": 5954,
      "niversaire": 5955,
      "Ġbient": 5956,
      "ĠOh": 5957,
      "Ġhausse": 5958,
      "Ġdevenu": 5959,
      "uxemb": 5960,
      "oindre": 5961,
      "habit": 5962,
      "DÃ©solÃ©": 5963,
      "ĠrÃ©munÃ©ration": 5964,
      "uie": 5965,
      "ĠlancÃ©": 5966,
      "Ġrom": 5967,
      "Ġdiscip": 5968,
      "Ġtitres": 5969,
      "ĠSociÃ©tÃ©": 5970,
      "Ġpsych": 5971,
      "Ġlac": 5972,
      "ĠAllemagne": 5973,
      "exemp": 5974,
      "lisation": 5975,
      "Ġphysi": 5976,
      "ĠTurquie": 5977,
      "ĠprÃ©limin": 5978,
      "Cont": 5979,
      "ĠlÃ¢": 5980,
      "rient": 5981,
      "Ġatti": 5982,
      "rin": 5983,
      "erte": 5984,
      "rions": 5985,
      "Ġ75": 5986,
      "infrastructure": 5987,
      "Ġda": 5988,
      "Ġlet": 5989,
      "Ġventes": 5990,
      "Ġnaissance": 5991,
      "Ġblan": 5992,
      "Ġvols": 5993,
      "ĠlaissÃ©": 5994,
      "Ġpapa": 5995,
      "Ġcuis": 5996,
      "Ġsour": 5997,
      "ĠPRO": 5998,
      "crire": 5999,
      "Ġfabric": 6000,
      "Ġpoursu": 6001,
      "Ġbanque": 6002,
      "ĠcomplÃ¨tement": 6003,
      "ĠConstitution": 6004,
      "ieux": 6005,
      "Ġpauvres": 6006,
      "ĠintitulÃ©": 6007,
      "Ġvin": 6008,
      "ommunications": 6009,
      "ĠÃ©tapes": 6010,
      "Ġpolici": 6011,
      "Ġautomatique": 6012,
      "ĠbientÃ´t": 6013,
      "TrÃ¨s": 6014,
      "of": 6015,
      "Ġtribun": 6016,
      "ĠmalgrÃ©": 6017,
      "Ġrelevant": 6018,
      "Ġremboursement": 6019,
      "Ġlour": 6020,
      "Ġmg": 6021,
      "Ġsalari": 6022,
      "ĠdÃ©termination": 6023,
      "Ġglobal": 6024,
      "Ġtransmission": 6025,
      "usage": 6026,
      "Ġinterpr": 6027,
      "laborer": 6028,
      "Ġrouge": 6029,
      "FR": 6030,
      "alth": 6031,
      "Ġprofond": 6032,
      "Ġregr": 6033,
      "ĠbudgÃ©taire": 6034,
      "approbation": 6035,
      "Ġperdre": 6036,
      "ĠPartie": 6037,
      "Ġconcentration": 6038,
      "ĠRou": 6039,
      "2010": 6040,
      "Ġscience": 6041,
      "rs": 6042,
      "armes": 6043,
      "agnies": 6044,
      "2011": 6045,
      "ĠidÃ©es": 6046,
      "Ġbrevet": 6047,
      "Ġcertificat": 6048,
      "fghan": 6049,
      "dom": 6050,
      "rich": 6051,
      "anda": 6052,
      "ĠBi": 6053,
      "ĠJÃ©sus": 6054,
      "Ġ55": 6055,
      "ral": 6056,
      "Ġprends": 6057,
      "Ġsexes": 6058,
      "ĠBar": 6059,
      "ĠenvoyÃ©": 6060,
      "neur": 6061,
      "Ġbons": 6062,
      "Ġcomprom": 6063,
      "Ġassu": 6064,
      "Ġbiais": 6065,
      "Ġcandidat": 6066,
      "75": 6067,
      "Ġmourir": 6068,
      "Ġvingt": 6069,
      "ige": 6070,
      "Ġcancer": 6071,
      "Ġtemporaire": 6072,
      "ĠâĻª": 6073,
      "ĠprÃ©alable": 6074,
      "PR": 6075,
      "ulgation": 6076,
      "ĠOttawa": 6077,
      "Ġverre": 6078,
      "ĠsÃ©jour": 6079,
      "ĠentiÃ¨rement": 6080,
      "Ġplainte": 6081,
      "ĠboÃ®": 6082,
      "MA": 6083,
      "ĠTrÃ©s": 6084,
      "Ġrencontrer": 6085,
      "Ġpreuves": 6086,
      "ICE": 6087,
      "ington": 6088,
      "ĠrÃ©gler": 6089,
      "Ġpermanente": 6090,
      "Ab": 6091,
      "ĠChambre": 6092,
      "Ġsubvention": 6093,
      "ĠscÃ¨ne": 6094,
      "Ah": 6095,
      "Ġclas": 6096,
      "Ġauront": 6097,
      "Ġenregistre": 6098,
      "ĠcollÃ¨gues": 6099,
      "itoba": 6100,
      "Ġrassemb": 6101,
      "Ġprati": 6102,
      "ispens": 6103,
      "96": 6104,
      "TMR": 6105,
      "Ã©roport": 6106,
      "gr": 6107,
      "erti": 6108,
      "istant": 6109,
      "approvisionnement": 6110,
      "Ġinstrument": 6111,
      "fection": 6112,
      "Ġobstacles": 6113,
      "OU": 6114,
      "Ã¶": 6115,
      "ĠRen": 6116,
      "Ġ300": 6117,
      "ĠrÃ©duit": 6118,
      "80": 6119,
      "Rec": 6120,
      "sw": 6121,
      "Ġtiss": 6122,
      "Ġpublications": 6123,
      "appliquent": 6124,
      "hip": 6125,
      "ĠrÃ©percussions": 6126,
      "Ġchinois": 6127,
      "Ġmotifs": 6128,
      "Ġfinanc": 6129,
      "onomie": 6130,
      "Ġtenant": 6131,
      "ĠbudgÃ©taires": 6132,
      "Ġsatisfait": 6133,
      "Ġexactement": 6134,
      "OUR": 6135,
      "Ġgagner": 6136,
      "ĠSlo": 6137,
      "entretien": 6138,
      "Ġreconnaiss": 6139,
      "Ġallant": 6140,
      "ĠfrontiÃ¨res": 6141,
      "Ġsav": 6142,
      "Ġmorte": 6143,
      "Ġtonnes": 6144,
      "allÃ¨": 6145,
      "veille": 6146,
      "Ġplate": 6147,
      "Ġoccident": 6148,
      "Ġpatrimoine": 6149,
      "inet": 6150,
      "ataires": 6151,
      "Ġrespectivement": 6152,
      "ĠÃ©quival": 6153,
      "ĠmultilatÃ©ra": 6154,
      "Ġenc": 6155,
      "igh": 6156,
      "ĠJean": 6157,
      "avec": 6158,
      "yez": 6159,
      "ĠCette": 6160,
      "Ġrati": 6161,
      "Ġnorme": 6162,
      "Ġmutu": 6163,
      "ĠrÃ©sidence": 6164,
      "Ġ34": 6165,
      "Ġrecommande": 6166,
      "askat": 6167,
      "Mar": 6168,
      "Ġkil": 6169,
      "ĠrÃ©guliÃ¨rement": 6170,
      "ĠTrÃ©sor": 6171,
      "Ġstri": 6172,
      "ĠmonÃ©taire": 6173,
      "Ġinsuffis": 6174,
      "Ġdirigeants": 6175,
      "Tra": 6176,
      "],": 6177,
      "ĠrÃ©gimes": 6178,
      "ĠÃ¢ge": 6179,
      "Ġdiscuter": 6180,
      "ĠBro": 6181,
      "Ã©rone": 6182,
      "Ġrequis": 6183,
      "Ġsexuelle": 6184,
      "Ġconscience": 6185,
      "Ġlinguis": 6186,
      "euillez": 6187,
      "Ġparam": 6188,
      "Ġgenti": 6189,
      "Ġpertes": 6190,
      "ĠsignÃ©": 6191,
      "Ġboulot": 6192,
      "ĠcontrÃ´les": 6193,
      "por": 6194,
      "antis": 6195,
      "Ã®le": 6196,
      "cidence": 6197,
      "Ġindispens": 6198,
      "ĠappropriÃ©es": 6199,
      "62": 6200,
      "Ġsuc": 6201,
      "ANT": 6202,
      "leu": 6203,
      "ĠrÃĥ": 6204,
      "tue": 6205,
      "ost": 6206,
      "ĠannoncÃ©": 6207,
      "ĠÃ©tro": 6208,
      "Ġemplois": 6209,
      "Ġveuillez": 6210,
      "Ġpoisson": 6211,
      "Ġdangereux": 6212,
      "aille": 6213,
      "ĠdÃ©tention": 6214,
      "Ġsoule": 6215,
      "ĠminoritÃ©s": 6216,
      "Ġstand": 6217,
      "ĠÃ©tablie": 6218,
      "ĠTraitÃ©": 6219,
      "Ġguide": 6220,
      "ĠpÃ©": 6221,
      "Ġpages": 6222,
      "Ġmasse": 6223,
      "meu": 6224,
      "Ġproche": 6225,
      "dex": 6226,
      "Ġpassi": 6227,
      "ĠPrÃ©": 6228,
      "Ġacteurs": 6229,
      "cherche": 6230,
      "dÃ©pend": 6231,
      "Ãªtements": 6232,
      "Ġpourront": 6233,
      "ĠMus": 6234,
      "ĠTout": 6235,
      "ĠBen": 6236,
      "ĠspÃ©ciaux": 6237,
      "ologne": 6238,
      "ambres": 6239,
      "Ġplaintes": 6240,
      "grÃ¨s": 6241,
      "Ġpenses": 6242,
      "agir": 6243,
      "Ġira": 6244,
      "Ġinfrastructures": 6245,
      "Ġpopulaire": 6246,
      "ĠjouÃ©": 6247,
      "ĠcomprÃ©hension": 6248,
      "PP": 6249,
      "Ġvend": 6250,
      "ĠAir": 6251,
      "ĠÃ©levÃ©e": 6252,
      "Parmi": 6253,
      "telli": 6254,
      "adaptation": 6255,
      "Ġtribunaux": 6256,
      "ĠMi": 6257,
      "III": 6258,
      "drait": 6259,
      "{\\": 6260,
      "ĠquatriÃ¨me": 6261,
      "Ġposer": 6262,
      "Ġviolation": 6263,
      "chiers": 6264,
      "EE": 6265,
      "Ġfichiers": 6266,
      "ĠintÃ©grÃ©e": 6267,
      "Ġenregist": 6268,
      "itement": 6269,
      "oct": 6270,
      "Ġdites": 6271,
      "ĠmodifiÃ©e": 6272,
      "Ġattendre": 6273,
      "Ġoccu": 6274,
      "Afin": 6275,
      "bie": 6276,
      "Ġend": 6277,
      "Ġrej": 6278,
      "Ġreprodu": 6279,
      "Ġraisonnable": 6280,
      "Ġmaritime": 6281,
      "chÃ©e": 6282,
      "ternel": 6283,
      "Ġhier": 6284,
      "Ġcib": 6285,
      "Ġremplir": 6286,
      "ville": 6287,
      "ĠCent": 6288,
      "charg": 6289,
      "Ġbran": 6290,
      "ĠSy": 6291,
      "Ġexercice": 6292,
      "Ġcompagnies": 6293,
      "ĠrÃ©clam": 6294,
      "Ġprogressi": 6295,
      "Ġweb": 6296,
      "ConformÃ©ment": 6297,
      "IG": 6298,
      "Ġouverte": 6299,
      "Ġusage": 6300,
      "ĠrÃ©pÃ©": 6301,
      "Ãīcoute": 6302,
      "Ġtorture": 6303,
      "ĠSa": 6304,
      "rÃ©sil": 6305,
      "ĠgarÃ§on": 6306,
      "jection": 6307,
      "Ġriches": 6308,
      "CS": 6309,
      "Ġconfidenti": 6310,
      "ĠpensÃ©": 6311,
      "Ġcentral": 6312,
      "ĠSam": 6313,
      "Ġactifs": 6314,
      "ĠprÃ©sentÃ©es": 6315,
      "ĠHong": 6316,
      "Ġtiens": 6317,
      "lui": 6318,
      "illÃ©": 6319,
      "Ġnutri": 6320,
      "ommand": 6321,
      "Ġappris": 6322,
      "Ã©rance": 6323,
      "trib": 6324,
      "ĠreprÃ©sentation": 6325,
      "Ġlargement": 6326,
      "ĠBelgique": 6327,
      "html": 6328,
      "oux": 6329,
      "olument": 6330,
      "Ġauraient": 6331,
      "ĠÃ©valuations": 6332,
      "Me": 6333,
      "ĠEl": 6334,
      "ĠÃ©tablies": 6335,
      "arer": 6336,
      "ctes": 6337,
      "ĠÃ©tais": 6338,
      "Ġaband": 6339,
      "Ġeffectuer": 6340,
      "Ġpollution": 6341,
      "ĠsÃ©rieux": 6342,
      "ĠcafÃ©": 6343,
      "Ã´les": 6344,
      "Ġnoter": 6345,
      "ĠdÃ©sir": 6346,
      "Ġdocumentation": 6347,
      "Ġexportations": 6348,
      "feu": 6349,
      "organ": 6350,
      "ĠPAR": 6351,
      "assade": 6352,
      "Ġfacul": 6353,
      "Ġessentiellement": 6354,
      "ish": 6355,
      "Ġrecouv": 6356,
      "ĠcarriÃ¨re": 6357,
      "ĠIndi": 6358,
      "Ġregarder": 6359,
      "Ġadopter": 6360,
      "ographiques": 6361,
      "Ġfaudrait": 6362,
      "Ġtextes": 6363,
      "Ġvictime": 6364,
      "Ġord": 6365,
      "rets": 6366,
      "Ġmorts": 6367,
      "asc": 6368,
      "Ġintergouvernement": 6369,
      "Ġdrogue": 6370,
      "trice": 6371,
      "ombe": 6372,
      "Ġcouleur": 6373,
      "Ġapprofon": 6374,
      "ĠÃ©nergÃ©tique": 6375,
      "ĠSous": 6376,
      "Ãīc": 6377,
      "ĠchangÃ©": 6378,
      "ativement": 6379,
      "Ġoptions": 6380,
      "Ġclimatiques": 6381,
      "Ġsommet": 6382,
      "Ġlivres": 6383,
      "Ġexplic": 6384,
      "ĠpÃ©riodi": 6385,
      "Ġcrimes": 6386,
      "ĠOÃ¹": 6387,
      "Ġdestination": 6388,
      "Ã©valuer": 6389,
      "Ġpes": 6390,
      "Ġfen": 6391,
      "Ġprennent": 6392,
      "dience": 6393,
      "Ġillus": 6394,
      "Ã©chantill": 6395,
      "Ġaime": 6396,
      "Ġcorrespondant": 6397,
      "70": 6398,
      "iz": 6399,
      "ĠrÃ©action": 6400,
      "ĠVal": 6401,
      "Ġpoissons": 6402,
      "Ag": 6403,
      "iÃ¨re": 6404,
      "ony": 6405,
      "Ġgouvernementaux": 6406,
      "ĠÃ©lectroniques": 6407,
      "ĠenregistrÃ©": 6408,
      "ĠDu": 6409,
      "ĠNouveau": 6410,
      "Ġpensez": 6411,
      "Ġopport": 6412,
      "can": 6413,
      "ĠÃ®": 6414,
      "ĠaccroÃ®tre": 6415,
      "Ġassis": 6416,
      "ĠautorisÃ©": 6417,
      "Ġbateau": 6418,
      "ortis": 6419,
      "ĠLond": 6420,
      "uide": 6421,
      "Ġinscrit": 6422,
      "ĠdÃ©terminÃ©": 6423,
      "ĠdÃ©lÃ©gations": 6424,
      "veau": 6425,
      "cum": 6426,
      "ĠdÃ©pass": 6427,
      "ingue": 6428,
      "Ġindiquer": 6429,
      "ĠdÃ©sarmement": 6430,
      "gnant": 6431,
      "Aux": 6432,
      "entraÃ®": 6433,
      "ĠItalie": 6434,
      "Environnement": 6435,
      "ĠJam": 6436,
      "Ġutilise": 6437,
      "Ġprofonde": 6438,
      "uxembourg": 6439,
      "guer": 6440,
      "Ġdemi": 6441,
      "Ġrob": 6442,
      "Ġpros": 6443,
      "Ġconcr": 6444,
      "ĠAlors": 6445,
      "ĠlibÃ©ra": 6446,
      "identitÃ©": 6447,
      "Ġ39": 6448,
      "Ġsubstance": 6449,
      "Ġpeau": 6450,
      "Ġsert": 6451,
      "interprÃ©tation": 6452,
      "ĠprÃ©cÃ©dent": 6453,
      "identification": 6454,
      "Ġencourager": 6455,
      "DU": 6456,
      "ĠrÃ©di": 6457,
      "ĠAR": 6458,
      "ĠmontrÃ©": 6459,
      "ĠprocÃ©dÃ©": 6460,
      "Ġmerde": 6461,
      "ouest": 6462,
      "onnÃ©es": 6463,
      "ĠSuisse": 6464,
      "Ġfamiliale": 6465,
      "ĠextrÃªmement": 6466,
      "iche": 6467,
      "ĠCa": 6468,
      "ĠDÃ©p": 6469,
      "Ġcotis": 6470,
      "lusieurs": 6471,
      "Ġrepos": 6472,
      "oubli": 6473,
      "Ġconformes": 6474,
      "Ġbis": 6475,
      "Ġhor": 6476,
      "ĠBur": 6477,
      "ĠvisÃ©": 6478,
      "vidus": 6479,
      "Ġtendances": 6480,
      "51": 6481,
      "ker": 6482,
      "itter": 6483,
      "istique": 6484,
      "ĠCro": 6485,
      "ĠAt": 6486,
      "instru": 6487,
      "Ġseuls": 6488,
      "Ġdispositif": 6489,
      "ĠReprÃ©sent": 6490,
      "ĠmatÃ©riaux": 6491,
      "Nos": 6492,
      "Ġcouverture": 6493,
      "Ġenj": 6494,
      "ald": 6495,
      "ĠCAN": 6496,
      "ĠGre": 6497,
      "Ġfruits": 6498,
      "2013": 6499,
      "ibles": 6500,
      "ciale": 6501,
      "ĠPacifique": 6502,
      "ĠDis": 6503,
      "Ġcomposition": 6504,
      "Ġmarques": 6505,
      "ĠessayÃ©": 6506,
      "Fin": 6507,
      "col": 6508,
      "Ġinnov": 6509,
      "Ġfixe": 6510,
      "ocument": 6511,
      "Ġdangere": 6512,
      "Ġdiminution": 6513,
      "ĠvÃ©g": 6514,
      "entiel": 6515,
      "imposition": 6516,
      "Ġspor": 6517,
      "Ġsport": 6518,
      "Ġminute": 6519,
      "ĠdÃ©cider": 6520,
      "Ġcellules": 6521,
      "fense": 6522,
      "tension": 6523,
      "Ġgestionnaires": 6524,
      "ael": 6525,
      "Ã©lection": 6526,
      "alcool": 6527,
      "RSC": 6528,
      "ĠÃ©quipes": 6529,
      "Ġlettres": 6530,
      "fghanistan": 6531,
      "Ġplas": 6532,
      "Ġchances": 6533,
      "endrier": 6534,
      "ĠdÃ©cÃ¨s": 6535,
      "ĠsituÃ©e": 6536,
      "Ġspati": 6537,
      "ĠÃ©laborer": 6538,
      "hÃ´tel": 6539,
      "Ġbras": 6540,
      "unis": 6541,
      "Ã©rir": 6542,
      "Ãītats": 6543,
      "ĠcontribuÃ©": 6544,
      "Ġculturels": 6545,
      "ĠDavid": 6546,
      "Di": 6547,
      "ms": 6548,
      "Ġnette": 6549,
      "Ġradi": 6550,
      "Ã©rÃ©es": 6551,
      "Ã´mes": 6552,
      "iliation": 6553,
      "armÃ©e": 6554,
      "Ġsorti": 6555,
      "Ġsouligne": 6556,
      "Ġhabitants": 6557,
      "ĠliÃ©e": 6558,
      "Ġarme": 6559,
      "Ġchauff": 6560,
      "Ġretrouver": 6561,
      "ĠCl": 6562,
      "ensitÃ©": 6563,
      "Ġperfection": 6564,
      "Aucune": 6565,
      "Ġrevenir": 6566,
      "ĠlimitÃ©e": 6567,
      "entreprises": 6568,
      "appelant": 6569,
      "Ġstatistique": 6570,
      "52": 6571,
      "oly": 6572,
      "Ġprivil": 6573,
      "Ġvaut": 6574,
      "auf": 6575,
      "deur": 6576,
      "illÃ©n": 6577,
      "Ġfinale": 6578,
      "ĠcÃ¢": 6579,
      "inv": 6580,
      "ĠEd": 6581,
      "Ġanne": 6582,
      "Ġconclure": 6583,
      "ĠCommissaire": 6584,
      "oriz": 6585,
      "Ã©viter": 6586,
      "ttends": 6587,
      "Add": 6588,
      "ĠForum": 6589,
      "nant": 6590,
      "sida": 6591,
      "Ġentendre": 6592,
      "ĠadoptÃ©es": 6593,
      "Ġsignature": 6594,
      "Ġcalme": 6595,
      "aÃ¯ti": 6596,
      "ĠamÃ©ricain": 6597,
      "ga": 6598,
      "euner": 6599,
      "ĠdÃ©te": 6600,
      "onnÃ©s": 6601,
      "existe": 6602,
      "Ġpare": 6603,
      "Ġarch": 6604,
      "ardon": 6605,
      "ĠCommunautÃ©s": 6606,
      "ĠinvitÃ©": 6607,
      "ĠappropriÃ©e": 6608,
      "cureur": 6609,
      "page": 6610,
      "sur": 6611,
      "Ġtur": 6612,
      "ĠEst": 6613,
      "Ġcultures": 6614,
      "Ġvoies": 6615,
      "94": 6616,
      "PA": 6617,
      "Ġache": 6618,
      "ĠCap": 6619,
      "Ġdispositifs": 6620,
      "Ġretrouv": 6621,
      "ĠpossÃ¨de": 6622,
      "ĠmÃ©d": 6623,
      "ĠmÃ¨tres": 6624,
      "âĢĵ": 6625,
      "euros": 6626,
      "Ġ47": 6627,
      "Ġassistance": 6628,
      "Ġlutter": 6629,
      "oeuvre": 6630,
      "Ġnet": 6631,
      "Ġdevront": 6632,
      "Ġpoly": 6633,
      "Ġappareils": 6634,
      "cÃ©e": 6635,
      "Ġsil": 6636,
      "Ġvien": 6637,
      "ĠLES": 6638,
      "Ġcompati": 6639,
      "Ġparticipant": 6640,
      "ĠdestinÃ©": 6641,
      "????": 6642,
      "ĠbilatÃ©ra": 6643,
      "Ġremercier": 6644,
      "ĠchaÃ®ne": 6645,
      "Ġdos": 6646,
      "allÃ©": 6647,
      "ĠprÃ©sentent": 6648,
      "Ġcaus": 6649,
      "Ġmonn": 6650,
      "Ġlecture": 6651,
      "Ġtravaillent": 6652,
      "rovi": 6653,
      "atie": 6654,
      "inscription": 6655,
      "ĠpÃ©riodes": 6656,
      "Ġessentiels": 6657,
      "Ã©lectricitÃ©": 6658,
      "Ġcens": 6659,
      "Ġsole": 6660,
      "ĠprÃ©voir": 6661,
      "olie": 6662,
      "Ġappuyer": 6663,
      "Asie": 6664,
      "ĠPME": 6665,
      "ĠPortu": 6666,
      "ĠmenÃ©e": 6667,
      "intermÃ©diaire": 6668,
      "Ġaugmenter": 6669,
      "ĠempÃªcher": 6670,
      "Ġliaison": 6671,
      "chewan": 6672,
      "Ġinterventions": 6673,
      "Ġdose": 6674,
      "Ġbiz": 6675,
      "ĠmÃ©dicaux": 6676,
      "Ġoccasion": 6677,
      "ĠforÃªts": 6678,
      "65": 6679,
      "gents": 6680,
      "cidents": 6681,
      "Ġfaudra": 6682,
      "ĠcompÃ©tentes": 6683,
      "Ġpont": 6684,
      "ĠSommet": 6685,
      "Ġcomport": 6686,
      "impression": 6687,
      "ellence": 6688,
      "Ġculturel": 6689,
      "ĠÃ©laborÃ©": 6690,
      "Ottawa": 6691,
      "td": 6692,
      "onge": 6693,
      "ĠdÃ©faut": 6694,
      "Ġcombus": 6695,
      "Ġextraordin": 6696,
      "Ġcomplexe": 6697,
      "illÃ©naire": 6698,
      "inon": 6699,
      "talement": 6700,
      "ami": 6701,
      "atell": 6702,
      "Ġmenac": 6703,
      "ĠaccordÃ©e": 6704,
      "olesc": 6705,
      "ĠprÃ©cÃ©dente": 6706,
      "64": 6707,
      "Ġgard": 6708,
      "ardin": 6709,
      "Ġobtenus": 6710,
      "ĠphÃ©nom": 6711,
      "Ġviolations": 6712,
      "guÃ©": 6713,
      "ĠarrÃªtÃ©": 6714,
      "Ġmessages": 6715,
      "ĠMexique": 6716,
      "ĠAcc": 6717,
      "askatchewan": 6718,
      "Ġdorm": 6719,
      "Ġsouviens": 6720,
      "Ġcapable": 6721,
      "Ġaides": 6722,
      "ĠeffectuÃ©e": 6723,
      "Ã©nagement": 6724,
      "ren": 6725,
      "liquer": 6726,
      "Ġinves": 6727,
      "Ġchron": 6728,
      "Ġfinances": 6729,
      "Ġfutur": 6730,
      "Ġneu": 6731,
      "Ġrendez": 6732,
      "Ġsaison": 6733,
      "Ġsecondaire": 6734,
      "Ġmaximale": 6735,
      "tabilitÃ©": 6736,
      "Ã¨ges": 6737,
      "Ġcorruption": 6738,
      "aliers": 6739,
      "Ġcopie": 6740,
      "Ġrappeler": 6741,
      "ĠmÃ©rite": 6742,
      "RÃ¨glement": 6743,
      "¿½": 6744,
      "ï¿½": 6745,
      "Ġmotiv": 6746,
      "Ġespagn": 6747,
      "ĠsÃ»retÃ©": 6748,
      "Ġadmissibles": 6749,
      "ĠriviÃ¨re": 6750,
      "hon": 6751,
      "pare": 6752,
      "ĠrÃ©cupÃ©": 6753,
      "Ġtransit": 6754,
      "Ġremise": 6755,
      "essources": 6756,
      "Ġsoumettre": 6757,
      "ustralie": 6758,
      "inspection": 6759,
      "Ġactuelles": 6760,
      "ĠchargÃ©e": 6761,
      "Ġsymb": 6762,
      "ĠJustice": 6763,
      "cieux": 6764,
      "Ġavais": 6765,
      "influ": 6766,
      "ĠacceptÃ©": 6767,
      "Ġnourriture": 6768,
      "TÃī": 6769,
      "ĠParti": 6770,
      "ĠreconnaÃ®tre": 6771,
      "Ġclimat": 6772,
      "Ġsanctions": 6773,
      "MI": 6774,
      "Ã¨vement": 6775,
      "Ġmob": 6776,
      "ica": 6777,
      "ĠfondÃ©": 6778,
      "ĠPremiÃ¨re": 6779,
      "Laisse": 6780,
      "Ġsigne": 6781,
      "ted": 6782,
      "Ġnett": 6783,
      "oto": 6784,
      "Ġtourisme": 6785,
      "ĠÃ©quitable": 6786,
      "Ġlait": 6787,
      "Ġfre": 6788,
      "Ġroi": 6789,
      "Ġapport": 6790,
      "appare": 6791,
      "Ġenvironnementales": 6792,
      "Ġmachines": 6793,
      "COM": 6794,
      "Ġlou": 6795,
      "Ġaccident": 6796,
      "illon": 6797,
      "AV": 6798,
      "ionn": 6799,
      "Ã©tiques": 6800,
      "ĠprÃ©t": 6801,
      "ĠparticuliÃ¨res": 6802,
      "ĠdestinÃ©es": 6803,
      "Ġassociations": 6804,
      "ĠappropriÃ©": 6805,
      "ĠCEE": 6806,
      "ĠcontrÃ´ler": 6807,
      "Ġperspective": 6808,
      "Ġlogiciel": 6809,
      "Ġsaur": 6810,
      "Ġfront": 6811,
      "Ġprovenance": 6812,
      "Ġmultiples": 6813,
      "Ġsoleil": 6814,
      "ĠprÃªte": 6815,
      "ĠrÃ©formes": 6816,
      "Ġchasse": 6817,
      "idente": 6818,
      "image": 6819,
      "ĠsÃ©min": 6820,
      "Ġfallait": 6821,
      "69": 6822,
      "cadre": 6823,
      "cide": 6824,
      "Ġoutil": 6825,
      "Ġpose": 6826,
      "Ġliqu": 6827,
      "ĠManitoba": 6828,
      "ĠÃ©duc": 6829,
      "Ġfinancer": 6830,
      "Ġnomination": 6831,
      "Ġsuppose": 6832,
      "Orient": 6833,
      "arrÃªt": 6834,
      "endue": 6835,
      "Ġdirecte": 6836,
      "ĠGrÃ¨ce": 6837,
      "ĠintÃ©gra": 6838,
      "islam": 6839,
      "ĠArticle": 6840,
      "ĠÃ©labor": 6841,
      "Ġbrevets": 6842,
      "nitiative": 6843,
      "78": 6844,
      "LL": 6845,
      "XX": 6846,
      "trÃ©": 6847,
      "Ġrappro": 6848,
      "ĠChrist": 6849,
      "ĠUnion": 6850,
      "OMPI": 6851,
      "Ġaccomplis": 6852,
      "Ġstocks": 6853,
      "asp": 6854,
      "riche": 6855,
      "ĠJu": 6856,
      "manie": 6857,
      "ĠexÃ©cutif": 6858,
      "ĠAutres": 6859,
      "Ġpieds": 6860,
      "Ġtests": 6861,
      "ibilitÃ©": 6862,
      "Ġindemn": 6863,
      "acquisition": 6864,
      "Ġacquis": 6865,
      "utation": 6866,
      "empÃª": 6867,
      "Co": 6868,
      "Ġtch": 6869,
      "ĠrÃ©d": 6870,
      "ĠrÃ©sistance": 6871,
      "grammes": 6872,
      "Ġrapporteur": 6873,
      "Ã®ner": 6874,
      "Ġcritique": 6875,
      "ĠÃ©tablissement": 6876,
      "Ġcitoyen": 6877,
      "Ġsatisfaire": 6878,
      "Internet": 6879,
      "ĠGenÃ¨ve": 6880,
      "Ġgross": 6881,
      "Donne": 6882,
      "TV": 6883,
      "Ã©larg": 6884,
      "Ġpoursuite": 6885,
      "Ġgaranties": 6886,
      "ĠrÃ©volution": 6887,
      "53": 6888,
      "Ġmodes": 6889,
      "ĠBos": 6890,
      "ĠorganisÃ©e": 6891,
      "ĠpublicitÃ©": 6892,
      "Ġconfront": 6893,
      "ĠarrÃªter": 6894,
      "hÃ´pital": 6895,
      "Ġdiplom": 6896,
      "sidÃ©rant": 6897,
      "tribue": 6898,
      "bur": 6899,
      "Ã©vÃ©nement": 6900,
      "Ġmas": 6901,
      "ĠrelÃ¨ve": 6902,
      "Ġprofiter": 6903,
      "Ġsecret": 6904,
      "Ġsauver": 6905,
      "ĠnumÃ©rique": 6906,
      "ĠgÃ©ographique": 6907,
      "Ġconcept": 6908,
      "93": 6909,
      "ION": 6910,
      "issante": 6911,
      "Ġformule": 6912,
      "raison": 6913,
      "ĠmÃ©dicament": 6914,
      "Ġmauvaise": 6915,
      "SC": 6916,
      "ĠliÃ©": 6917,
      "association": 6918,
      "ĠterminÃ©": 6919,
      "ĠconstatÃ©": 6920,
      "ĠfÃ©min": 6921,
      "ĠdÃ©ri": 6922,
      "ĠIV": 6923,
      "Ġhydro": 6924,
      "ĠtÃ©lÃ©phon": 6925,
      "Col": 6926,
      "gÃ¨ne": 6927,
      "Ã©poque": 6928,
      "Ġutiles": 6929,
      "ĠdÃ©gra": 6930,
      "ĠTR": 6931,
      "Ġsois": 6932,
      "ĠdiffÃ©rent": 6933,
      "Ġrelever": 6934,
      "Ġsimilaires": 6935,
      "Trois": 6936,
      "Ġsond": 6937,
      "Ġdestruction": 6938,
      "Ġchien": 6939,
      "ĠMo": 6940,
      "Ġramen": 6941,
      "gies": 6942,
      "Ġstade": 6943,
      "Ġmillion": 6944,
      "Ġexemples": 6945,
      "Ġconduit": 6946,
      "ĠultÃ©ri": 6947,
      "Ġsti": 6948,
      "Ġoffert": 6949,
      "Ġagent": 6950,
      "Ġpartenaire": 6951,
      "Ġindustrielle": 6952,
      "Ġexplique": 6953,
      "immigration": 6954,
      "Ġsolid": 6955,
      "Ġprovinciaux": 6956,
      "Ġperspectives": 6957,
      "Ġvacances": 6958,
      "DC": 6959,
      "ĠcomitÃ©s": 6960,
      "ĠMoy": 6961,
      "ĠÃ©tats": 6962,
      "Ġassur": 6963,
      "Ġincor": 6964,
      "Allons": 6965,
      "Ġlimiter": 6966,
      "Ġcommercialisation": 6967,
      "Ġefficacement": 6968,
      "Ġessayer": 6969,
      "Ġperformance": 6970,
      "vait": 6971,
      "za": 6972,
      "ppe": 6973,
      "Ġanniversaire": 6974,
      "emark": 6975,
      "Ã©tudi": 6976,
      "ĠbÃ©nÃ©ficiaires": 6977,
      "Ġdommages": 6978,
      "Va": 6979,
      "ĠdÃĥ": 6980,
      "Ġparent": 6981,
      "ĠÃ©conomies": 6982,
      "issez": 6983,
      "jouter": 6984,
      "ĠnÃ©gociation": 6985,
      "GrÃ¢ce": 6986,
      "ĠpÃ©trole": 6987,
      "GR": 6988,
      "dustrie": 6989,
      "ĠentitÃ©s": 6990,
      "ĠIsraÃ«l": 6991,
      "ĠbÃ¢timent": 6992,
      "Ġadjoint": 6993,
      "agnos": 6994,
      "Ġfigurent": 6995,
      "Ġvaloir": 6996,
      "exclusion": 6997,
      "ĠCorÃ©e": 6998,
      "Ġmagas": 6999,
      "Ġtal": 7000,
      "Ġfaux": 7001,
      "als": 7002,
      "ĠMer": 7003,
      "ĠemployÃ©": 7004,
      "Ġquitter": 7005,
      "NUD": 7006,
      "cession": 7007,
      "juin": 7008,
      "ĠrÃ©pondu": 7009,
      "ĠSuÃ¨de": 7010,
      "Ġsouligner": 7011,
      "ĠaÃ©rien": 7012,
      "Ġfortement": 7013,
      "ĠnommÃ©": 7014,
      "Ġarabe": 7015,
      "doc": 7016,
      "mil": 7017,
      "active": 7018,
      "iennes": 7019,
      "Ġautonom": 7020,
      "rimÃ©": 7021,
      "voie": 7022,
      "Bre": 7023,
      "Tableau": 7024,
      "Ġtre": 7025,
      "Ġrentrer": 7026,
      "Ġillic": 7027,
      "Ġdemandeur": 7028,
      "espÃ¨ce": 7029,
      "Ġterroristes": 7030,
      "Seu": 7031,
      "Ã©laborer": 7032,
      "Ġsatell": 7033,
      "ĠIRSC": 7034,
      "Ġsoutenu": 7035,
      "ĠeffectuÃ©s": 7036,
      "Ġanciens": 7037,
      "ĠmÃ©moire": 7038,
      "Ġgri": 7039,
      "Ġconst": 7040,
      "issariat": 7041,
      "ĠpayÃ©": 7042,
      "Ġauxquelles": 7043,
      "ĠmaÃ®tr": 7044,
      "ondation": 7045,
      "Ġofferts": 7046,
      "Ġrestre": 7047,
      "Ġlocation": 7048,
      "Ġconstituer": 7049,
      "Ġobjets": 7050,
      "ukon": 7051,
      "hom": 7052,
      "ĠPacte": 7053,
      "ited": 7054,
      "Ġquartier": 7055,
      "73": 7056,
      "ban": 7057,
      "ĠsÃ©cur": 7058,
      "ores": 7059,
      "ĠComme": 7060,
      "ĠPer": 7061,
      "ĠLuxembourg": 7062,
      "Ġ1989": 7063,
      "ĠsystÃ©matique": 7064,
      "ume": 7065,
      "ola": 7066,
      "ĠillÃ©g": 7067,
      "ĠTPS": 7068,
      "Ġinterro": 7069,
      "ĠalinÃ©a": 7070,
      "Aujourd": 7071,
      "Ġinitiale": 7072,
      "Ġdiscours": 7073,
      "ĠJournal": 7074,
      "Ġap": 7075,
      "Ġproxim": 7076,
      "ĠprÃ©sentes": 7077,
      "ystÃ¨mes": 7078,
      "Ġamendements": 7079,
      "92": 7080,
      "oient": 7081,
      "Ġchambres": 7082,
      "Ġcommuns": 7083,
      "ĠbÃ©nÃ©v": 7084,
      "ĠeffectuÃ©es": 7085,
      "ĠPolitique": 7086,
      "Ġcadres": 7087,
      "Ġaccrue": 7088,
      "incidence": 7089,
      "ala": 7090,
      "Ġesprit": 7091,
      "aurait": 7092,
      "ATI": 7093,
      "Ses": 7094,
      "ino": 7095,
      "Ġserai": 7096,
      "ĠTV": 7097,
      "asses": 7098,
      "ĠconnaÃ®t": 7099,
      "Ġprofil": 7100,
      "ĠdÃ©bar": 7101,
      "Ġtarifs": 7102,
      "ĠCRTC": 7103,
      "91": 7104,
      "euro": 7105,
      "ĠdÃ©tru": 7106,
      "Ġvisage": 7107,
      "Ġbiologique": 7108,
      "ĠlÃ©gislatives": 7109,
      "ĠtÃ©lÃ©communications": 7110,
      "Ġviennent": 7111,
      "Es": 7112,
      "bon": 7113,
      "orce": 7114,
      "ĠMad": 7115,
      "ĠdÃ©couvrir": 7116,
      "Ġapplications": 7117,
      "Ġmusi": 7118,
      "ĠbrÃ»": 7119,
      "ĠquantitÃ©s": 7120,
      "Ġenvisag": 7121,
      "blit": 7122,
      "gnes": 7123,
      "ha": 7124,
      "incip": 7125,
      "Ġenvie": 7126,
      "ĠcongÃ©": 7127,
      "Ġtouche": 7128,
      "ministre": 7129,
      "trait": 7130,
      "Ġdonnent": 7131,
      "ĠProjet": 7132,
      "2012": 7133,
      "ĠpropriÃ©taire": 7134,
      "Ġsimul": 7135,
      "Nombre": 7136,
      "mise": 7137,
      "ĠGra": 7138,
      "ĠportÃ©": 7139,
      "Ġremplacement": 7140,
      "ĠfixÃ©": 7141,
      "Ġaccepter": 7142,
      "ĠmentionnÃ©": 7143,
      "Mont": 7144,
      "Ġpire": 7145,
      "rime": 7146,
      "ensus": 7147,
      "ĠVi": 7148,
      "iterran": 7149,
      "ĠsÃ©ances": 7150,
      "Ġflux": 7151,
      "Ton": 7152,
      "tons": 7153,
      "arge": 7154,
      "raÃ©li": 7155,
      "Ġbe": 7156,
      "Ġpartager": 7157,
      "ĠirrÃ©": 7158,
      "Imp": 7159,
      "Ã©re": 7160,
      "ĠGrande": 7161,
      "Ġportent": 7162,
      "DA": 7163,
      "SS": 7164,
      "do": 7165,
      "ĠconcernÃ©es": 7166,
      "Ġculturelles": 7167,
      "Ġadministrative": 7168,
      "landais": 7169,
      "Ġdimension": 7170,
      "octobre": 7171,
      "85": 7172,
      "Ġital": 7173,
      "ester": 7174,
      "ĠPat": 7175,
      "Ġinstant": 7176,
      "Ġcorri": 7177,
      "Ġmenaces": 7178,
      "Ġvivent": 7179,
      "ĠspÃ©cialistes": 7180,
      "istres": 7181,
      "Ġimages": 7182,
      "ĠproposÃ©es": 7183,
      "ovo": 7184,
      "Ġcauses": 7185,
      "Ġculturelle": 7186,
      "ĠForces": 7187,
      "Ġjury": 7188,
      "Ġvice": 7189,
      "ĠrÃ©col": 7190,
      "Ġcinquante": 7191,
      "Ġapprendre": 7192,
      "ĠsoirÃ©e": 7193,
      "Ġconserver": 7194,
      "Ġfournisseur": 7195,
      "ham": 7196,
      "change": 7197,
      "ĠPubli": 7198,
      "ĠLors": 7199,
      "Ġtoxic": 7200,
      "dÃ©pendance": 7201,
      "Plusieurs": 7202,
      "Ġcre": 7203,
      "oureux": 7204,
      "Ġconven": 7205,
      "dia": 7206,
      "Ġplantes": 7207,
      "ĠSection": 7208,
      "ĠfrÃ©quence": 7209,
      "As": 7210,
      "Note": 7211,
      "Ġnu": 7212,
      "elui": 7213,
      "Ceci": 7214,
      "Ġ%)": 7215,
      "Ġsecours": 7216,
      "Ġnavire": 7217,
      "Ġpertinents": 7218,
      "Ġavions": 7219,
      "ĠplÃ©ni": 7220,
      "ĠPaul": 7221,
      "ĠcomposÃ©": 7222,
      "issait": 7223,
      "Ġ42": 7224,
      "ĠÃ©conomie": 7225,
      "Ã©mission": 7226,
      "ĠprÃ©cisÃ©ment": 7227,
      "ĠinvitÃ©s": 7228,
      "Ġmettant": 7229,
      "Ġpatient": 7230,
      "ĠestimÃ©": 7231,
      "Canada": 7232,
      "Ġconstat": 7233,
      "illant": 7234,
      "Ġadresse": 7235,
      "imag": 7236,
      "Ġ41": 7237,
      "Ġ1988": 7238,
      "Ġprochaines": 7239,
      "Ġmachine": 7240,
      "FP": 7241,
      "Loi": 7242,
      "euses": 7243,
      "ute": 7244,
      "Ġign": 7245,
      "Ġassi": 7246,
      "ĠlibertÃ©s": 7247,
      "Ġconcentrations": 7248,
      "________________________________": 7249,
      "Ġremplacer": 7250,
      "human": 7251,
      "millions": 7252,
      "Ph": 7253,
      "avril": 7254,
      "illets": 7255,
      "voyer": 7256,
      "Ġvent": 7257,
      "ĠPl": 7258,
      "Ġ85": 7259,
      "ĠaccordÃ©": 7260,
      "ĠStratÃ©gie": 7261,
      "ws": 7262,
      "timent": 7263,
      "ĠAD": 7264,
      "autom": 7265,
      "ĠentrÃ©e": 7266,
      "Ġcalendrier": 7267,
      "ĠÃ©vo": 7268,
      "Ġcapitale": 7269,
      "ĠfrontiÃ¨re": 7270,
      "Ġafricaine": 7271,
      "ĠexpÃ©riences": 7272,
      "Ġsoldats": 7273,
      "agissant": 7274,
      "troi": 7275,
      "Ġappels": 7276,
      "Ã§a": 7277,
      "ĠinformÃ©": 7278,
      "Ġscolaire": 7279,
      "Ġmeurtre": 7280,
      "IsraÃ«l": 7281,
      "observation": 7282,
      "Ġlaboratoire": 7283,
      "ĠproximitÃ©": 7284,
      "tit": 7285,
      "anche": 7286,
      "entente": 7287,
      "adop": 7288,
      "Ġaccueilli": 7289,
      "Ġ43": 7290,
      "Ġpassagers": 7291,
      "Ġvoici": 7292,
      "Ġnormale": 7293,
      "heureusement": 7294,
      "ĠajoutÃ©": 7295,
      "Ġflo": 7296,
      "Ġoise": 7297,
      "iteur": 7298,
      "Ġperd": 7299,
      "Ġ57": 7300,
      "Ġciel": 7301,
      "Ġproposer": 7302,
      "Ġregret": 7303,
      "Ġjeunesse": 7304,
      "Ġsynth": 7305,
      "ĠinfÃ©rieur": 7306,
      "Ġsavons": 7307,
      "eld": 7308,
      "Ġindividus": 7309,
      "ĠrÃ©cente": 7310,
      "ĠengagÃ©": 7311,
      "Ã©lÃ©c": 7312,
      "87": 7313,
      "Neu": 7314,
      "PO": 7315,
      "Ã±": 7316,
      "orme": 7317,
      "Ġinfir": 7318,
      "terr": 7319,
      "ĠFre": 7320,
      "raiment": 7321,
      "ĠtravaillÃ©": 7322,
      "ĠrencontrÃ©": 7323,
      "Italie": 7324,
      "Ġquin": 7325,
      "rateurs": 7326,
      "Ġfasse": 7327,
      "ĠCes": 7328,
      "vices": 7329,
      "ĠFr": 7330,
      "ĠespÃ©": 7331,
      "alisÃ©": 7332,
      "ĠprivÃ©s": 7333,
      "ĠconsidÃ©rablement": 7334,
      "Ġtouchant": 7335,
      "Autres": 7336,
      "ĠPortugal": 7337,
      "Ġquelles": 7338,
      "Ġfol": 7339,
      "Ã©dent": 7340,
      "Ġ65": 7341,
      "ĠproposÃ©e": 7342,
      "Ġaccompagn": 7343,
      "Ġcontinuent": 7344,
      "Ġconseill": 7345,
      "arrÃªter": 7346,
      "Ġopportun": 7347,
      "Espagne": 7348,
      "IA": 7349,
      "honneur": 7350,
      "oul": 7351,
      "igu": 7352,
      "Ġharmon": 7353,
      "ducation": 7354,
      "ancouver": 7355,
      "Ġinclus": 7356,
      "cusez": 7357,
      "coura": 7358,
      "Ġrurales": 7359,
      "ks": 7360,
      "kraine": 7361,
      "ĠcÃ©lÃ©": 7362,
      "Ġroy": 7363,
      "avaient": 7364,
      "ĠnotÃ©": 7365,
      "ĠVer": 7366,
      "ÃīR": 7367,
      "Ġindiquent": 7368,
      "Ġactuels": 7369,
      "Ġdouani": 7370,
      "Ġhauteur": 7371,
      "Ġsentiment": 7372,
      "FM": 7373,
      "UM": 7374,
      "lue": 7375,
      "oot": 7376,
      "Ãı": 7377,
      "ild": 7378,
      "lissement": 7379,
      "Ġcoin": 7380,
      "outh": 7381,
      "2014": 7382,
      "ĠassociÃ©": 7383,
      "Ġconduire": 7384,
      "ĠinfÃ©rieure": 7385,
      "ĠfÃ©licite": 7386,
      "Ġhabituellement": 7387,
      "erai": 7388,
      "ĠdÃ©ro": 7389,
      "Ġjournal": 7390,
      "ĠrÃ©flÃ©ch": 7391,
      "ĠAmÃ©rique": 7392,
      "Ġbel": 7393,
      "ĠchÃ©rie": 7394,
      "ĠmenÃ©": 7395,
      "Ġtotalement": 7396,
      "Lorsqu": 7397,
      "Ġsolide": 7398,
      "Ġteneur": 7399,
      "bert": 7400,
      "ĠdÃ©bats": 7401,
      "ulletin": 7402,
      "OK": 7403,
      "ĠpÃ©r": 7404,
      "Ġprud": 7405,
      "videmment": 7406,
      "Ġdivision": 7407,
      "Ġdevaient": 7408,
      "ĠtÃ©moins": 7409,
      "ĠRÃ©union": 7410,
      "Ġcharges": 7411,
      "Ġexpliquer": 7412,
      "Commission": 7413,
      "credi": 7414,
      "ĠLu": 7415,
      "angÃ©": 7416,
      "Ġ58": 7417,
      "ĠKos": 7418,
      "Ġbrut": 7419,
      "Ġindustries": 7420,
      "Ġmatch": 7421,
      "Ġleaders": 7422,
      "ney": 7423,
      "ĠdÃ©tenus": 7424,
      "oirs": 7425,
      "Ġmines": 7426,
      "Ġenvironnementaux": 7427,
      "ĠDÃ©veloppement": 7428,
      "Ġnormal": 7429,
      "mping": 7430,
      "ĠJack": 7431,
      "Ġ44": 7432,
      "Aucun": 7433,
      "Ġcroyais": 7434,
      "Ġordinaire": 7435,
      "Ġparlementaire": 7436,
      "occuper": 7437,
      "swick": 7438,
      "omÃ©": 7439,
      "ĠSan": 7440,
      "Ġdiagnos": 7441,
      "Ġration": 7442,
      "Alberta": 7443,
      "ovine": 7444,
      "ĠreflÃ¨": 7445,
      "ĠprÃ©ciser": 7446,
      "Ġordinateur": 7447,
      "PL": 7448,
      "Ġbri": 7449,
      "ĠPologne": 7450,
      "ĠTotal": 7451,
      "ĠprÃ©sentant": 7452,
      "ĠYukon": 7453,
      "2015": 7454,
      "Ġreligi": 7455,
      "Ġvirus": 7456,
      "Ġrestrictions": 7457,
      "Ġsoin": 7458,
      "opinion": 7459,
      "Ġ95": 7460,
      "Ġmodern": 7461,
      "glise": 7462,
      "ita": 7463,
      "Ġarbit": 7464,
      "Ġviande": 7465,
      "Ġchiffre": 7466,
      "cier": 7467,
      "Ġgl": 7468,
      "actu": 7469,
      "Ġoffres": 7470,
      "Ġremettre": 7471,
      "Ġeffectivement": 7472,
      "ĠintitulÃ©e": 7473,
      "ĠprÃ©judice": 7474,
      "ĠDanemark": 7475,
      "Irlande": 7476,
      "lair": 7477,
      "ĠconÃ§u": 7478,
      "ĠSystÃ¨me": 7479,
      "enser": 7480,
      "entis": 7481,
      "Quelqu": 7482,
      "ĠintÃ©rim": 7483,
      "ĠdÃ©coulant": 7484,
      "Ġmur": 7485,
      "ĠSaskatchewan": 7486,
      "Ġdirecteurs": 7487,
      "alisÃ©s": 7488,
      "Ã¢tre": 7489,
      "Ġcible": 7490,
      "ĠÃ©trangÃ¨re": 7491,
      "Ġchauss": 7492,
      "Ġrembours": 7493,
      "ĠdÃ©marche": 7494,
      "Ġtabac": 7495,
      "haus": 7496,
      "ĠPIB": 7497,
      "Ġsucre": 7498,
      "ĠEuropÃ©": 7499,
      "ĠJO": 7500,
      "Ġgarantis": 7501,
      "ĠQuoi": 7502,
      "ĠrÃ©flex": 7503,
      "ĠintÃ©grÃ©": 7504,
      "ĠÃ©tiez": 7505,
      "Ġrubrique": 7506,
      "Ecoute": 7507,
      "FF": 7508,
      "aisons": 7509,
      "ĠSp": 7510,
      "Ġattra": 7511,
      "Ġmix": 7512,
      "1998": 7513,
      "Ġreligie": 7514,
      "Ġexistants": 7515,
      "ortateurs": 7516,
      "Ġphysiques": 7517,
      "ĠparallÃ¨": 7518,
      "ĠprotÃ©": 7519,
      "accroÃ®tre": 7520,
      "ĠQuel": 7521,
      "ĠdisponibilitÃ©": 7522,
      "BL": 7523,
      "Ġmoindre": 7524,
      "ĠBo": 7525,
      "Ġpaci": 7526,
      "Ġindire": 7527,
      "Ang": 7528,
      "ĠmÃ©decins": 7529,
      "ĠÃ©lectrique": 7530,
      "Ġcuisine": 7531,
      "nez": 7532,
      "ĠONG": 7533,
      "introduction": 7534,
      "ĠReg": 7535,
      "Ġprimaire": 7536,
      "Aff": 7537,
      "Toi": 7538,
      "Ġinu": 7539,
      "titudes": 7540,
      "ĠÃ©coute": 7541,
      "Ġinclure": 7542,
      "Ġvouloir": 7543,
      "ices": 7544,
      "aim": 7545,
      "ĠdÃ©bu": 7546,
      "ĠconcernÃ©": 7547,
      "ĠthÃ¨mes": 7548,
      "ancien": 7549,
      "ĠprÃ©voy": 7550,
      "ĠconsidÃ©rÃ©s": 7551,
      "ĠCOMM": 7552,
      "ĠLondres": 7553,
      "AIN": 7554,
      "PrÃ©s": 7555,
      "estim": 7556,
      "encontre": 7557,
      "inn": 7558,
      "Ġconvi": 7559,
      "Ġ56": 7560,
      "Ġjuges": 7561,
      "Ġfier": 7562,
      "Ġbiblioth": 7563,
      "perÃ§u": 7564,
      "Ġvoulons": 7565,
      "Ġajouter": 7566,
      "--------": 7567,
      "ĠexpÃ©riment": 7568,
      "ougos": 7569,
      "Ġconvenu": 7570,
      "ĠSUR": 7571,
      "Ġnotes": 7572,
      "Ġregistre": 7573,
      "Ġ1987": 7574,
      "Ġretourner": 7575,
      "Papa": 7576,
      "ray": 7577,
      "opposition": 7578,
      "Ġsimpli": 7579,
      "Ġsouvenir": 7580,
      "Ġcontamin": 7581,
      "Ġincidence": 7582,
      "ĠNational": 7583,
      "Veuillez": 7584,
      "Ġinspe": 7585,
      "own": 7586,
      "ĠprÃ©occupation": 7587,
      "Ġro": 7588,
      "Ġjeux": 7589,
      "ĠBri": 7590,
      "ĠGaz": 7591,
      "Ġ54": 7592,
      "juillet": 7593,
      "ĠintÃ©ressant": 7594,
      "Ġvisiteurs": 7595,
      "Ġclassification": 7596,
      "dou": 7597,
      "ĪĴ": 7598,
      "lif": 7599,
      "ultats": 7600,
      "tenance": 7601,
      "Ġargent": 7602,
      "roissement": 7603,
      "Ġoffrent": 7604,
      "Ġentrepris": 7605,
      "Ġsalaire": 7606,
      "Ġreligion": 7607,
      "programme": 7608,
      "Conc": 7609,
      "ĠmÃ©ta": 7610,
      "Ġcontent": 7611,
      "tration": 7612,
      "Ġargu": 7613,
      "Ġvisent": 7614,
      "Ġpuisqu": 7615,
      "ĠLis": 7616,
      "fici": 7617,
      "tront": 7618,
      "ĠdÃ©ploi": 7619,
      "Ġcontinent": 7620,
      "ĠoccupÃ©": 7621,
      "ĠÃ©num": 7622,
      "Ġacheter": 7623,
      "tilitÃ©": 7624,
      "ĠconsacrÃ©": 7625,
      "ĠremplacÃ©": 7626,
      "ĠdÃ©clare": 7627,
      "BC": 7628,
      "Ãļ": 7629,
      "ortÃ©e": 7630,
      "Ġintelli": 7631,
      "Ġeuros": 7632,
      "Ġhos": 7633,
      "Ġmaisons": 7634,
      "Ġdomicile": 7635,
      "Ġsupport": 7636,
      "Ġremplis": 7637,
      "ĠpÃªches": 7638,
      "ĠDÃ©fense": 7639,
      "Ġestimations": 7640,
      "Ġriche": 7641,
      "Regardez": 7642,
      "Ġenjeux": 7643,
      "nal": 7644,
      "dir": 7645,
      "Ġactif": 7646,
      "Ġnotification": 7647,
      "Ġ150": 7648,
      "Ġstyle": 7649,
      "Ġinstructions": 7650,
      "Ġnavigation": 7651,
      "ĠAutochtones": 7652,
      "Comb": 7653,
      "oo": 7654,
      "Ġmm": 7655,
      "ĠDem": 7656,
      "Ġcompli": 7657,
      "ĠdÃ©putÃ©s": 7658,
      "Ġformat": 7659,
      "Ġmalade": 7660,
      "Ġtaxes": 7661,
      "Ġprofesseur": 7662,
      "OMC": 7663,
      "Ġexistantes": 7664,
      "âĢ¦âĢ¦": 7665,
      "Ġendroits": 7666,
      "Ġerreurs": 7667,
      "rict": 7668,
      "Ġ400": 7669,
      "Ġmontrent": 7670,
      "ĠrÃ©pondants": 7671,
      "Ġrusse": 7672,
      "ougosla": 7673,
      "uh": 7674,
      "inÃ©e": 7675,
      "dication": 7676,
      "Ġtire": 7677,
      "ĠthÃ©rap": 7678,
      "Ġ%.": 7679,
      "agraphe": 7680,
      "Ġprofessionnelles": 7681,
      "Ġrequises": 7682,
      "ĠamÃ©ricains": 7683,
      "habitat": 7684,
      "Ġassujet": 7685,
      "Ġextraordinaire": 7686,
      "Premi": 7687,
      "utÃ©": 7688,
      "Ġnul": 7689,
      "ĠRE": 7690,
      "Unies": 7691,
      "Ins": 7692,
      "ĠÃ¢gÃ©es": 7693,
      "Ġindispensable": 7694,
      "Amendement": 7695,
      "Temp": 7696,
      "Ġenle": 7697,
      "ĠdÃ©v": 7698,
      "ĠBrÃ©sil": 7699,
      "ĠForm": 7700,
      "Ġvisites": 7701,
      "Ġsauve": 7702,
      "hydro": 7703,
      "Ġmouvements": 7704,
      "Laissez": 7705,
      "euse": 7706,
      "mission": 7707,
      "Ã©sie": 7708,
      "Ġbais": 7709,
      "ĠMadame": 7710,
      "exig": 7711,
      "Ġimpact": 7712,
      "Ġinscrits": 7713,
      "Ġ88": 7714,
      "ComitÃ©": 7715,
      "ĠcriminalitÃ©": 7716,
      "Ġrecrutement": 7717,
      "ling": 7718,
      "yan": 7719,
      "rages": 7720,
      "Ġconventions": 7721,
      "ĠdÃ©du": 7722,
      "Ġsurvi": 7723,
      "ĠDÃī": 7724,
      "Ġrestent": 7725,
      "Ġferrovi": 7726,
      "Ġwe": 7727,
      "ĠamÃ©ricaine": 7728,
      "ĠconsidÃ©rer": 7729,
      "ĠStatis": 7730,
      "ĠrÃªve": 7731,
      "ball": 7732,
      "Ġcyc": 7733,
      "Ġtol": 7734,
      "ĠvÃªtements": 7735,
      "tuer": 7736,
      "ĠLtd": 7737,
      "pris": 7738,
      "Ġactivement": 7739,
      "Ġjugement": 7740,
      "Ġrempli": 7741,
      "uyer": 7742,
      "Ġbloc": 7743,
      "Ġachet": 7744,
      "Ġconjoint": 7745,
      "iration": 7746,
      "poration": 7747,
      "Ġence": 7748,
      "ĠMari": 7749,
      "amÃ©ric": 7750,
      "Ġinterdit": 7751,
      "Ġatmosph": 7752,
      "interdiction": 7753,
      "Ġstations": 7754,
      "Ġessentielle": 7755,
      "ĠautorisÃ©e": 7756,
      "Ġcapitaux": 7757,
      "Faites": 7758,
      "Sh": 7759,
      "ĠCD": 7760,
      "ĠSm": 7761,
      "ĠEspagne": 7762,
      "ĠrÃ©sultant": 7763,
      "Ġinfec": 7764,
      "Ġportes": 7765,
      "Ġvoyez": 7766,
      "Ġfranco": 7767,
      "key": 7768,
      "offrir": 7769,
      "ĠFinlande": 7770,
      "Ġexercer": 7771,
      "Ġvendredi": 7772,
      "intÃ©gritÃ©": 7773,
      "Ġmoderne": 7774,
      "Ãīcosse": 7775,
      "harmon": 7776,
      "uation": 7777,
      "ĠÅĵu": 7778,
      "Ġflex": 7779,
      "ĠrequÃªte": 7780,
      "extra": 7781,
      "Ġcourse": 7782,
      "ĠReprÃ©sentant": 7783,
      "hor": 7784,
      "rible": 7785,
      "Ġserais": 7786,
      "Ġadministrations": 7787,
      "ĠcompÃ©tente": 7788,
      "elez": 7789,
      "ja": 7790,
      "vage": 7791,
      "quement": 7792,
      "roits": 7793,
      "paravant": 7794,
      "ERS": 7795,
      "inage": 7796,
      "ussi": 7797,
      "dies": 7798,
      "ctori": 7799,
      "ĠreconnaÃ®t": 7800,
      "ĠuniversitÃ©s": 7801,
      "Ġtraditionnels": 7802,
      "ĠSalut": 7803,
      "Ġmentale": 7804,
      "gypte": 7805,
      "Ġtrimestre": 7806,
      "ko": 7807,
      "Ġpourtant": 7808,
      "ĠVic": 7809,
      "ĠespÃ¨ce": 7810,
      "arriÃ¨re": 7811,
      "Ġcertainement": 7812,
      "Ġfondamentales": 7813,
      "ĠaÃ©rienne": 7814,
      "Ġparlementaires": 7815,
      "Ġclinique": 7816,
      "humanitÃ©": 7817,
      "Ġvues": 7818,
      "ĠdÃ©partement": 7819,
      "ĠSÃ©n": 7820,
      "Ġpouvais": 7821,
      "Ġadministratif": 7822,
      "ĠcomplÃ©mentaires": 7823,
      "Mer": 7824,
      "Ġavantage": 7825,
      "ressÃ©": 7826,
      "Ġ1986": 7827,
      "dications": 7828,
      "ĠprÃ©server": 7829,
      "Ġcontribue": 7830,
      "ousse": 7831,
      "ulaires": 7832,
      "Ġamour": 7833,
      "ĠdÃ©terminÃ©e": 7834,
      "ĠpÃ©nal": 7835,
      "Ġconseiller": 7836,
      "ĠprÃ©liminaire": 7837,
      "mÃ©e": 7838,
      "vÃ¨ge": 7839,
      "inture": 7840,
      "Ġtort": 7841,
      "rac": 7842,
      "ĠAh": 7843,
      "ĠextÃ©rieur": 7844,
      "Ġkg": 7845,
      "Ġobligation": 7846,
      "Ġautorisation": 7847,
      "Ġvoisins": 7848,
      "ĠÃ©troite": 7849,
      "ium": 7850,
      "Ġislam": 7851,
      "Ġcouvrir": 7852,
      "Ġem": 7853,
      "octroi": 7854,
      "ĠconsidÃ©rable": 7855,
      "Ġremarquer": 7856,
      "Ġcommissions": 7857,
      "Compte": 7858,
      "Ġintensi": 7859,
      "ĠdÃ©ployÃ©s": 7860,
      "Ġmonnaie": 7861,
      "aujourd": 7862,
      "Ġconsensus": 7863,
      "isez": 7864,
      "ĠcÃ´te": 7865,
      "Ġhypoth": 7866,
      "Ġsatisfais": 7867,
      "Ġanalyses": 7868,
      "ĠÃ©vidence": 7869,
      "ĠAssociation": 7870,
      "ĠparamÃ¨tres": 7871,
      "GC": 7872,
      "Sous": 7873,
      "indemn": 7874,
      "ric": 7875,
      "ĠprÃ©sents": 7876,
      "Ġfidu": 7877,
      "Ġabou": 7878,
      "Ġsurveiller": 7879,
      "ĠrequÃ©r": 7880,
      "Ġrecev": 7881,
      "Ġsemblent": 7882,
      "ĠindÃ©pendants": 7883,
      "EX": 7884,
      "xy": 7885,
      "isations": 7886,
      "orld": 7887,
      "ressions": 7888,
      "Ġconsentement": 7889,
      "Ġadolesc": 7890,
      "Ġautrement": 7891,
      "Ġ1985": 7892,
      "ĠentraÃ®ner": 7893,
      "ĠrÃ©ussite": 7894,
      "ĠtchÃ¨que": 7895,
      "isÃ©s": 7896,
      "ĠunitÃ©": 7897,
      "institution": 7898,
      "Ġfores": 7899,
      "Ġvenue": 7900,
      "ATIONS": 7901,
      "Brun": 7902,
      "Maman": 7903,
      "ĠdÃ©fic": 7904,
      "Ġgraph": 7905,
      "ĠBal": 7906,
      "ĠWh": 7907,
      "Ġcade": 7908,
      "effici": 7909,
      "Ġsoix": 7910,
      "ĠÃ©volu": 7911,
      "Ġsympt": 7912,
      "Ġpensions": 7913,
      "ĠcompÃ©titivitÃ©": 7914,
      "Ġdynamique": 7915,
      "CA": 7916,
      "tro": 7917,
      "Ã¨ques": 7918,
      "Ġconten": 7919,
      "ĠPE": 7920,
      "ĠAllez": 7921,
      "Ġentente": 7922,
      "Ġportu": 7923,
      "ĠlimitÃ©": 7924,
      "ĠÃ¢gÃ©s": 7925,
      "Ġrural": 7926,
      "Juste": 7927,
      "atteindre": 7928,
      "ĠRapporteur": 7929,
      "Ġajus": 7930,
      "Ġsupr": 7931,
      "teste": 7932,
      "ĠUnivers": 7933,
      "Ġadministration": 7934,
      "Ġfaim": 7935,
      "ĠintÃ©ressÃ©s": 7936,
      "ĠrÃ©sidents": 7937,
      "ĠoubliÃ©": 7938,
      "ĠexposÃ©s": 7939,
      "Ġfroid": 7940,
      "Demande": 7941,
      "cial": 7942,
      "agu": 7943,
      "ĠTÃ©lÃ©": 7944,
      "Ã´te": 7945,
      "idation": 7946,
      "Ġ49": 7947,
      "ĠRecherche": 7948,
      "Ġsollic": 7949,
      "Ġindustriels": 7950,
      "ĠsecrÃ©taire": 7951,
      "ĠexprimÃ©": 7952,
      "Attends": 7953,
      "Ta": 7954,
      "Ġpanne": 7955,
      "cides": 7956,
      "Ġrepose": 7957,
      "ĠLou": 7958,
      "ĠBCE": 7959,
      "ĠapportÃ©": 7960,
      "Ġferai": 7961,
      "ĠGrand": 7962,
      "Atlantique": 7963,
      "Ġlivraison": 7964,
      "ater": 7965,
      "ĠpÃ©d": 7966,
      "und": 7967,
      "Ġchoc": 7968,
      "ĠAvis": 7969,
      "Ġaltern": 7970,
      "ĠÃ©troit": 7971,
      "Ġfrom": 7972,
      "guÃ©s": 7973,
      "ĠspÃ©cialisÃ©s": 7974,
      "Ġpositive": 7975,
      "ĠNoÃ«l": 7976,
      "Ġdonateurs": 7977,
      "affectation": 7978,
      "lav": 7979,
      "ttes": 7980,
      "ĠmÃ©tÃ©": 7981,
      "Ġfant": 7982,
      "oig": 7983,
      "Ġbritannique": 7984,
      "ĠrÃ©pu": 7985,
      "ĠLab": 7986,
      "Ġimag": 7987,
      "lacements": 7988,
      "Ġrevue": 7989,
      "Ġcapitaine": 7990,
      "ĠÃ©noncÃ©es": 7991,
      "riers": 7992,
      "Ġavenir": 7993,
      "lÃ¨ve": 7994,
      "Ġlongueur": 7995,
      "Ġfournissent": 7996,
      "atrices": 7997,
      "ĠrÃ©glementaires": 7998,
      "Ġcomparaison": 7999,
      "ĠproductivitÃ©": 8000,
      "ĠMoyen": 8001,
      "if": 8002,
      "onse": 8003,
      "ĠcÃ©lÃ¨": 8004,
      "ĠLim": 8005,
      "endroit": 8006,
      "ĠRom": 8007,
      "Ġvoyages": 8008,
      "ĠrÃ©paration": 8009,
      "Ġvolontaire": 8010,
      "ĠadressÃ©e": 8011,
      "gen": 8012,
      "Ġpan": 8013,
      "timis": 8014,
      "cien": 8015,
      "Ġexcessi": 8016,
      "ommaire": 8017,
      "ĠprÃ©visions": 8018,
      "Ġmoyennes": 8019,
      "Ġimage": 8020,
      "ĠproposÃ©s": 8021,
      "Ã©ros": 8022,
      "Ġtrouverez": 8023,
      "Ġtrucs": 8024,
      "ĠApplication": 8025,
      "ĠbÃ¢timents": 8026,
      "Ã©qui": 8027,
      "aucune": 8028,
      "oise": 8029,
      "ĠbÃ©nÃ©ficiaire": 8030,
      "ĠboÃ®te": 8031,
      "rateur": 8032,
      "Ġflic": 8033,
      "ĠrÃ©elle": 8034,
      "Ġvieil": 8035,
      "ĠisraÃ©li": 8036,
      "Ġtraduction": 8037,
      "Ġtitulaires": 8038,
      "ashington": 8039,
      "ĠvulnÃ©rables": 8040,
      "cy": 8041,
      "eront": 8042,
      "etour": 8043,
      "ulÃ©": 8044,
      "ĠRome": 8045,
      "ĠGestion": 8046,
      "aceu": 8047,
      "ĠWest": 8048,
      "aye": 8049,
      "TIONS": 8050,
      "ĠÃ©change": 8051,
      "akistan": 8052,
      "Ġtranqu": 8053,
      "aÃ©roport": 8054,
      "Ġlancer": 8055,
      "Ġgal": 8056,
      "Ġplaf": 8057,
      "Ġdisposer": 8058,
      "ĠrequÃ©rant": 8059,
      "organisations": 8060,
      "ouÃ©": 8061,
      "ertes": 8062,
      "Ġfurent": 8063,
      "Ġvide": 8064,
      "ĠefficacitÃ©": 8065,
      "ĠmÃ©decine": 8066,
      "Ġstockage": 8067,
      "ĠfenÃªtre": 8068,
      "Ġdangereuses": 8069,
      "Ġcu": 8070,
      "Ġmassi": 8071,
      "ĠÃ£": 8072,
      "Ġconstruire": 8073,
      "ĠperÃ§": 8074,
      "ĠgÃ©nÃ©ration": 8075,
      "Ġindiquant": 8076,
      "ĠsupÃ©rieurs": 8077,
      "Ġlicences": 8078,
      "Ġclimatique": 8079,
      "SP": 8080,
      "ford": 8081,
      "Ġglace": 8082,
      "ĠToute": 8083,
      "ĠGo": 8084,
      "Ġpersonnelle": 8085,
      "Ġagir": 8086,
      "biliser": 8087,
      "Ġappeler": 8088,
      "Ġancien": 8089,
      "Ġlogiciels": 8090,
      "universitÃ©": 8091,
      "ertise": 8092,
      "ctives": 8093,
      "estÃ©": 8094,
      "Ġpromo": 8095,
      "Ġofficiels": 8096,
      "view": 8097,
      "Neuve": 8098,
      "CON": 8099,
      "itre": 8100,
      "Ġfili": 8101,
      "Ġbulletin": 8102,
      "Ġoption": 8103,
      "ĠSon": 8104,
      "rÃ©gion": 8105,
      "ĠNi": 8106,
      "Ġintervention": 8107,
      "Ġcodes": 8108,
      "Ġ46": 8109,
      "Ġ51": 8110,
      "ĠnÃ©anmoins": 8111,
      "ĠarriÃ¨re": 8112,
      "Ġessentielles": 8113,
      "Ġsentir": 8114,
      "avion": 8115,
      "Ġcombattre": 8116,
      "Emp": 8117,
      "Initiative": 8118,
      "Sou": 8119,
      "ĠdÃ®ner": 8120,
      "Ġdevenue": 8121,
      "Ġcos": 8122,
      "quants": 8123,
      "cevoir": 8124,
      "ĠrÃ©ellement": 8125,
      "Ġdiam": 8126,
      "Ġclau": 8127,
      "ĠcoopÃ©ra": 8128,
      "mars": 8129,
      "ĠForce": 8130,
      "Ġremercie": 8131,
      "ĠTransports": 8132,
      "ĠmÃ©tal": 8133,
      "Ġ]": 8134,
      "Ġlancement": 8135,
      "Ġsouver": 8136,
      "Ġchans": 8137,
      "ĠBell": 8138,
      "ĠInstitu": 8139,
      "Ġpouvaient": 8140,
      "ĠreÃ§oit": 8141,
      "Ġfournies": 8142,
      "Projet": 8143,
      "ĠRoumanie": 8144,
      "hÃ©": 8145,
      "Ġclub": 8146,
      "ĠtirÃ©": 8147,
      "ĠCommuni": 8148,
      "ĠchargÃ©s": 8149,
      "arrivÃ©e": 8150,
      "Ġcarbone": 8151,
      "inquiÃ¨te": 8152,
      "76": 8153,
      "VE": 8154,
      "comm": 8155,
      "obile": 8156,
      "Ġprintemps": 8157,
      "ĠplanÃ¨te": 8158,
      "ĠgÃ©ni": 8159,
      "Ġenvoyer": 8160,
      "ĠindÃ©pendante": 8161,
      "ĠhandicapÃ©es": 8162,
      "%.": 8163,
      "moin": 8164,
      "ĠVancouver": 8165,
      "ĠprivÃ©es": 8166,
      "ĠBull": 8167,
      "Ġenseignants": 8168,
      "ae": 8169,
      "estiv": 8170,
      "Ã©quilibre": 8171,
      "ĠconstituÃ©": 8172,
      "Ġdocteur": 8173,
      "Hey": 8174,
      "ĠdÃ©gag": 8175,
      "ĠrÃ©affir": 8176,
      "amer": 8177,
      "issons": 8178,
      "ĠIns": 8179,
      "ArrÃªte": 8180,
      "Ġimmig": 8181,
      "Ġfavorable": 8182,
      "ocuments": 8183,
      "employÃ©": 8184,
      "Ġbateaux": 8185,
      "ĠÃ©liminer": 8186,
      "Ġenseignement": 8187,
      "Ġimprim": 8188,
      "Ġamie": 8189,
      "ĠdÃ©signÃ©": 8190,
      "Ġmigrants": 8191,
      "adopter": 8192,
      "ptiÃ¨me": 8193,
      "quait": 8194,
      "raq": 8195,
      "temp": 8196,
      "ĠmobilitÃ©": 8197,
      "issue": 8198,
      "lÃ¨vement": 8199,
      "Ġjuridiction": 8200,
      "ĠÃ©noncÃ©s": 8201,
      "79": 8202,
      "wn": 8203,
      "Âª": 8204,
      "Ġdel": 8205,
      "asile": 8206,
      "ĠMillÃ©naire": 8207,
      "ĠRo": 8208,
      "Ġnoti": 8209,
      "Ġmagni": 8210,
      "Ġlogique": 8211,
      "ĠKosovo": 8212,
      "FOR": 8213,
      "Ġmol": 8214,
      "ries": 8215,
      "Ġintention": 8216,
      "ĠHam": 8217,
      "culaire": 8218,
      "160": 8219,
      "Ġhistoriques": 8220,
      "Ġcomplexes": 8221,
      "Ġordres": 8222,
      "ĠCrÃ©": 8223,
      "ĠAli": 8224,
      "ums": 8225,
      "ĠCongo": 8226,
      "Ġparticipent": 8227,
      "Ġappartenant": 8228,
      "Ġinvite": 8229,
      "Ġvoitures": 8230,
      "Ġtechnologique": 8231,
      "Point": 8232,
      "audience": 8233,
      "ols": 8234,
      "Ġ52": 8235,
      "ĠrÃ©alisÃ©e": 8236,
      "huile": 8237,
      "ĠÃ©quipements": 8238,
      "Ġinfractions": 8239,
      "Brunswick": 8240,
      "ires": 8241,
      "vue": 8242,
      "quette": 8243,
      "arti": 8244,
      "Ġrevient": 8245,
      "agement": 8246,
      "ĠrÃ©ve": 8247,
      "adore": 8248,
      "institu": 8249,
      "Ġdisent": 8250,
      "ĠImp": 8251,
      "Ãītant": 8252,
      "Ġ04": 8253,
      "olique": 8254,
      "Ġabsolument": 8255,
      "DÃ¨s": 8256,
      "Ġlanc": 8257,
      "ĠÃ©loi": 8258,
      "user": 8259,
      "ĠreÃ§ues": 8260,
      "Ġassociation": 8261,
      "Ġspir": 8262,
      "Ġcontacts": 8263,
      "Ġmettent": 8264,
      "appareil": 8265,
      "84": 8266,
      "cience": 8267,
      "ĠRessources": 8268,
      "Ġfinir": 8269,
      "Ġdonnant": 8270,
      "Ġmilieux": 8271,
      "Ġentra": 8272,
      "Ġpassant": 8273,
      "Ġrepas": 8274,
      "Ġretrait": 8275,
      "Ġcommandant": 8276,
      "Ġobserver": 8277,
      "Ġretirer": 8278,
      "Ġavocat": 8279,
      "VI": 8280,
      "Ã¨dent": 8281,
      "ĠMIN": 8282,
      "Ġtax": 8283,
      "Ġcontinuera": 8284,
      "Ġcarburant": 8285,
      "Ġparfaitement": 8286,
      "Ġexternes": 8287,
      "ĠsolidaritÃ©": 8288,
      "Te": 8289,
      "cations": 8290,
      "ections": 8291,
      "Ġdevi": 8292,
      "Ġfati": 8293,
      "olue": 8294,
      "Ġmodu": 8295,
      "onnage": 8296,
      "Ġral": 8297,
      "Ġsoutient": 8298,
      "Ġmesurer": 8299,
      "mentionn": 8300,
      "Ġnormalement": 8301,
      "Ġamples": 8302,
      "Ġbizarre": 8303,
      "van": 8304,
      "Ġquels": 8305,
      "ĠdÃ©r": 8306,
      "Ġinvent": 8307,
      "agnes": 8308,
      "angements": 8309,
      "ĠgÃ©nÃ©tique": 8310,
      "Inde": 8311,
      "ova": 8312,
      "ĠarrivÃ©e": 8313,
      "Ġinstance": 8314,
      "Excusez": 8315,
      "Ġfixer": 8316,
      "ĠfrÃ©quent": 8317,
      ")}": 8318,
      "Beau": 8319,
      "GL": 8320,
      "onction": 8321,
      "Ġflu": 8322,
      "Ġryth": 8323,
      "Ġduquel": 8324,
      "Ġaccue": 8325,
      "ondes": 8326,
      "Ġtiendra": 8327,
      "Ġreprises": 8328,
      "71": 8329,
      "NÃ©": 8330,
      "Ren": 8331,
      "rale": 8332,
      "Ġplage": 8333,
      "Ġpointe": 8334,
      "ĠrÃ©sumÃ©": 8335,
      "Ġfinalement": 8336,
      "Ġdomin": 8337,
      "Ġressort": 8338,
      "ĠlibÃ©ration": 8339,
      "ĠÃ©tudier": 8340,
      "Ġouvrir": 8341,
      "Ġconnaissez": 8342,
      "Ġmanifestations": 8343,
      "Ġcheveux": 8344,
      "Ici": 8345,
      "jan": 8346,
      "ĠtrÃ©s": 8347,
      "ĠcolÃ¨re": 8348,
      "jectifs": 8349,
      "Ġbiologiques": 8350,
      "ĠscÃ©n": 8351,
      "uba": 8352,
      "Ġchaud": 8353,
      "Ġconsolidation": 8354,
      "Ġprenant": 8355,
      "Ġchaleur": 8356,
      "pÃ©rations": 8357,
      "ĠNote": 8358,
      "Ġgran": 8359,
      "berg": 8360,
      "ĠmÃ©thod": 8361,
      "Ġsignes": 8362,
      "Ġfutures": 8363,
      "ĠintÃ©ressÃ©es": 8364,
      "Ġrenouvellement": 8365,
      "Ġaffirme": 8366,
      "Ġcollabor": 8367,
      "Ġmineurs": 8368,
      "Ã¢teau": 8369,
      "fre": 8370,
      "Ġpiste": 8371,
      "ory": 8372,
      "ĠÃ©poque": 8373,
      "Ġbus": 8374,
      "Ġmarcher": 8375,
      "ĠexposÃ©": 8376,
      "Ġsubstitu": 8377,
      "enfance": 8378,
      "Ġnavig": 8379,
      "Ġincidences": 8380,
      "AO": 8381,
      "bonne": 8382,
      "car": 8383,
      "quez": 8384,
      "onnÃ©e": 8385,
      "euxiÃ¨me": 8386,
      "ĠdÃ©couv": 8387,
      "Ġformer": 8388,
      "culteurs": 8389,
      "ĠtÃ©moin": 8390,
      "Ã©quitÃ©": 8391,
      "ĠrÃ©alisÃ©es": 8392,
      "Ġden": 8393,
      "ansion": 8394,
      "Ġboire": 8395,
      "Ġchem": 8396,
      "Ġcontribuent": 8397,
      "Ġscru": 8398,
      "ĠrÃ©glementaire": 8399,
      "ĠentiÃ¨re": 8400,
      "ĠarmÃ©s": 8401,
      "Ġkilom": 8402,
      "89": 8403,
      "Ġaqu": 8404,
      "ison": 8405,
      "sec": 8406,
      "rob": 8407,
      "ĠGÃ©nÃ©ra": 8408,
      "ĠÃ©tablit": 8409,
      "Ġtransactions": 8410,
      "aliment": 8411,
      "Ġeffective": 8412,
      "ĠAnd": 8413,
      "Ġsecondes": 8414,
      "ĠPhili": 8415,
      "Ġsacri": 8416,
      "ĠdifficultÃ©": 8417,
      "Ġcouvre": 8418,
      "Vas": 8419,
      "nÃ©es": 8420,
      "Ġlistes": 8421,
      "encoura": 8422,
      "Ġdivis": 8423,
      "itez": 8424,
      "Ġstable": 8425,
      "espoir": 8426,
      "Ġdisparu": 8427,
      "Ġconstate": 8428,
      "fais": 8429,
      "ope": 8430,
      "Ġbro": 8431,
      "ĠrÃ©cip": 8432,
      "Ġserre": 8433,
      "Ġcomprenant": 8434,
      "Ġutilisent": 8435,
      "hib": 8436,
      "ĠcommuniquÃ©": 8437,
      "Ġexamens": 8438,
      "Ġvraie": 8439,
      "ICEF": 8440,
      "Min": 8441,
      "Ġpertur": 8442,
      "Ġ59": 8443,
      "Ġmerveille": 8444,
      "ĠconfirmÃ©": 8445,
      "ĠantÃ©rieure": 8446,
      "TER": 8447,
      "rÃ©d": 8448,
      "Ã®t": 8449,
      "ĠmortalitÃ©": 8450,
      "Ġcollective": 8451,
      "Ġpilotes": 8452,
      "Ġoiseaux": 8453,
      "lifÃ©ration": 8454,
      "ĠdrÃ´le": 8455,
      "ĠpÃ¢": 8456,
      "indÃ©pendance": 8457,
      "ĠMaj": 8458,
      "attribu": 8459,
      "ĠÂŃ": 8460,
      "Ġ53": 8461,
      "ĠÃ©gal": 8462,
      "Ġreprise": 8463,
      "ĠgarÃ§ons": 8464,
      "ĠamÃ©lioration": 8465,
      "Ġfranch": 8466,
      "ows": 8467,
      "Ġindustriel": 8468,
      "habitude": 8469,
      "Ġdifficiles": 8470,
      "ĠmÃ©dical": 8471,
      "83": 8472,
      "ye": 8473,
      "alie": 8474,
      "avoc": 8475,
      "Ġsouci": 8476,
      "Ġconcert": 8477,
      "ĠspÃ©cialement": 8478,
      "Ġemployeurs": 8479,
      "ĠtotalitÃ©": 8480,
      "ĠArch": 8481,
      "Ġcircu": 8482,
      "ĠprÃ©cision": 8483,
      "Ġconstater": 8484,
      "Ġexclusivement": 8485,
      "Her": 8486,
      "bal": 8487,
      "isÃ©e": 8488,
      "Ġparles": 8489,
      "mber": 8490,
      "Ġputain": 8491,
      "ĠdÃ©clen": 8492,
      "ĠmaÃ®tre": 8493,
      "ĠÃ©cole": 8494,
      "Ġ1980": 8495,
      "ĠrÃ©centes": 8496,
      "ĠachetÃ©": 8497,
      "ĠdÃ©lib": 8498,
      "dames": 8499,
      "ĠRÃ©seau": 8500,
      "ĠdÃ©taillÃ©e": 8501,
      "occupe": 8502,
      "ĠÃ©chantillons": 8503,
      "Ġprioritaires": 8504,
      "DN": 8505,
      "Dites": 8506,
      "garie": 8507,
      "xion": 8508,
      "entend": 8509,
      "itÃĥ": 8510,
      "Ġdesser": 8511,
      "Ġenne": 8512,
      "audit": 8513,
      "Ġbata": 8514,
      "Ġmotif": 8515,
      "Ġpersonnelles": 8516,
      "ĠnÃ©gli": 8517,
      "Ġisol": 8518,
      "Ġhumanitaires": 8519,
      "ĠNorvÃ¨ge": 8520,
      "rits": 8521,
      "Ġracc": 8522,
      "Ġaffich": 8523,
      "ĠdiffÃ©rente": 8524,
      "Ġmodifiant": 8525,
      "Ġaccorder": 8526,
      "Ġcouleurs": 8527,
      "ĠappropriÃ©s": 8528,
      "Ġfilms": 8529,
      "DR": 8530,
      "espÃ©": 8531,
      "Ġcass": 8532,
      "ardi": 8533,
      "ompe": 8534,
      "dev": 8535,
      "ĠPakistan": 8536,
      "ĠFondation": 8537,
      "ĠfaÃ§ons": 8538,
      "Ġaffi": 8539,
      "udget": 8540,
      "Ġimmobil": 8541,
      "ĠnumÃ©ros": 8542,
      "ĠTrav": 8543,
      "ĠmÃ©lange": 8544,
      "Ġstandard": 8545,
      "dÃ©c": 8546,
      "hou": 8547,
      "ĠPal": 8548,
      "orteurs": 8549,
      "Ġvia": 8550,
      "Ġvert": 8551,
      "Ġcheval": 8552,
      "ĠfÃ©dÃ©rales": 8553,
      "ĠdestinÃ©e": 8554,
      "ortateur": 8555,
      "72": 8556,
      "asions": 8557,
      "ĠÃ©mis": 8558,
      "ĠAsie": 8559,
      "Ġsocio": 8560,
      "Ġquelconque": 8561,
      "Ġ64": 8562,
      "ĠWashington": 8563,
      "ĠdÃ©fendre": 8564,
      "Ġprisonn": 8565,
      "Ġoptim": 8566,
      "ĠFranÃ§": 8567,
      ".).": 8568,
      "Ġracont": 8569,
      "uir": 8570,
      "ĠKe": 8571,
      "Ġententes": 8572,
      "ĠrÃ©gissant": 8573,
      "Ġferait": 8574,
      "esses": 8575,
      "netÃ©": 8576,
      "Ġretrouve": 8577,
      "ĠthÃ©orie": 8578,
      "employeur": 8579,
      "ĠÃ©vident": 8580,
      "Ġexamine": 8581,
      "ĠrÃ©daction": 8582,
      "EI": 8583,
      "No": 8584,
      "Sec": 8585,
      "ionne": 8586,
      "Ġlundi": 8587,
      "Ġpure": 8588,
      "Ġmeu": 8589,
      "ĠCC": 8590,
      "Ġbillets": 8591,
      "Ġchant": 8592,
      "vice": 8593,
      "Ã©rations": 8594,
      "ĠGuide": 8595,
      "ings": 8596,
      "ĠtÃ©lÃ©charg": 8597,
      "1997": 8598,
      "ĠajoutÃ©e": 8599,
      "Ġadmissible": 8600,
      "MalgrÃ©": 8601,
      "Ġaccessible": 8602,
      "Ġspiritu": 8603,
      "Ġner": 8604,
      "ĠMor": 8605,
      "Ġsuici": 8606,
      "amÃ©nagement": 8607,
      "ainte": 8608,
      "Ġnomin": 8609,
      "Ġinformer": 8610,
      "Ġsalaires": 8611,
      "organismes": 8612,
      "ĠtÃ©moign": 8613,
      "Ġcombusti": 8614,
      "itants": 8615,
      "Ãªt": 8616,
      "Ġram": 8617,
      "emplois": 8618,
      "Ġreproduction": 8619,
      "Ġsusmentionn": 8620,
      "Ġroutes": 8621,
      "Ġcommandes": 8622,
      "honorable": 8623,
      "her": 8624,
      "rass": 8625,
      "Ġrentre": 8626,
      "Ġservent": 8627,
      "ĠdÃ©poser": 8628,
      "Ġfonctionne": 8629,
      "Ġwith": 8630,
      "Ġcentrales": 8631,
      "Ġpositions": 8632,
      "Ġtroubles": 8633,
      "ĠadÃ©quate": 8634,
      "ĠrÃ©flexion": 8635,
      "lait": 8636,
      "Ġbac": 8637,
      "pecte": 8638,
      "Ġdevriez": 8639,
      "Ġatten": 8640,
      "Ġannuels": 8641,
      "Ġ600": 8642,
      "Ġsuivent": 8643,
      "Ġincap": 8644,
      "Ġrestru": 8645,
      "82": 8646,
      "Ġliti": 8647,
      "ĠKar": 8648,
      "Ġcroit": 8649,
      "Ġdouanes": 8650,
      "Ġatteinte": 8651,
      "otechn": 8652,
      "Ġorientations": 8653,
      "ĠBonjour": 8654,
      "EA": 8655,
      "non": 8656,
      "pd": 8657,
      "sb": 8658,
      "Ãİ": 8659,
      "Ġressemble": 8660,
      "ico": 8661,
      "Ġ03": 8662,
      "ĠlÃ©gu": 8663,
      "Ġmajeure": 8664,
      "ĠcontinuÃ©": 8665,
      "ĠhÃ´te": 8666,
      "ĠamÃ©liorations": 8667,
      "Ġcliniques": 8668,
      ")(": 8669,
      "sons": 8670,
      "Ġcm": 8671,
      "ouer": 8672,
      "erat": 8673,
      "Ġfus": 8674,
      "Ġdure": 8675,
      "ĠdÃ©lin": 8676,
      "entir": 8677,
      "Ġemprun": 8678,
      "ITÃī": 8679,
      "Ġperfectionnement": 8680,
      "chet": 8681,
      "septembre": 8682,
      "exer": 8683,
      "ĠâĢ¢": 8684,
      "ĠEnvironnement": 8685,
      "Ġsusc": 8686,
      "Ġapproches": 8687,
      "Ġfrau": 8688,
      "rador": 8689,
      "IQUE": 8690,
      "Ã©ter": 8691,
      "Ġmac": 8692,
      "Ġtrib": 8693,
      "ĠgagnÃ©": 8694,
      "Ġhu": 8695,
      "Ġsubi": 8696,
      "Ġfournie": 8697,
      "ĠengagÃ©s": 8698,
      "ĠconsidÃ©rÃ©es": 8699,
      "Ġgentil": 8700,
      "ĠchrÃ©": 8701,
      "ĠPet": 8702,
      "ĠAmendement": 8703,
      "irs": 8704,
      "Ġnov": 8705,
      "ĠdÃ©finies": 8706,
      "Ġcritiques": 8707,
      "Ġsignificative": 8708,
      "ĠdÃ©couvert": 8709,
      "Bonne": 8710,
      "tone": 8711,
      "ĠcÃ´t": 8712,
      "ĠrÃ´les": 8713,
      "Ġnotion": 8714,
      "Ġtenus": 8715,
      "ĠreÃ§us": 8716,
      "ĠbÃ©nÃ©fices": 8717,
      "RÃ©publique": 8718,
      "Ġartistes": 8719,
      "Ġrecueillir": 8720,
      "613": 8721,
      "jac": 8722,
      "Ġnav": 8723,
      "anglais": 8724,
      "isses": 8725,
      "pore": 8726,
      "Ġfonctionner": 8727,
      "oria": 8728,
      "Ġaccompli": 8729,
      "ĠdatÃ©e": 8730,
      "ĠphÃ©nomÃ¨ne": 8731,
      "Ã©largissement": 8732,
      "Ġjardin": 8733,
      "rÃ©ment": 8734,
      "instruction": 8735,
      "Ã©dant": 8736,
      "Ġentrepren": 8737,
      "ilib": 8738,
      "ĠcinÃ©m": 8739,
      "Ġbouche": 8740,
      "illiam": 8741,
      "owe": 8742,
      "Ġsoumises": 8743,
      "Ġquotidien": 8744,
      "aoÃ»t": 8745,
      "Ġby": 8746,
      "Ġsurvie": 8747,
      "Ġplait": 8748,
      "tifie": 8749,
      "Ġconcernent": 8750,
      "ĠocÃ©": 8751,
      "AIRE": 8752,
      "Ġfiscale": 8753,
      "Ġtombe": 8754,
      "Ġbuts": 8755,
      "ĠHealth": 8756,
      "Ġinfraction": 8757,
      "Ġoccupe": 8758,
      "artis": 8759,
      "Ġsections": 8760,
      "ider": 8761,
      "Ġvoter": 8762,
      "Ġjeudi": 8763,
      "Ġstress": 8764,
      "ĠlÃ©gislatif": 8765,
      "Ġcontacter": 8766,
      "enseignements": 8767,
      "Certaines": 8768,
      "ĠDÃ©penses": 8769,
      "DÃ©p": 8770,
      "Homme": 8771,
      "ho": 8772,
      "itions": 8773,
      "zz": 8774,
      "onnant": 8775,
      "ĠRich": 8776,
      "ĠIS": 8777,
      "cole": 8778,
      "quide": 8779,
      "Ġdirects": 8780,
      "royable": 8781,
      "Ġbruit": 8782,
      "Pu": 8783,
      "Pardon": 8784,
      "ena": 8785,
      "Ġjui": 8786,
      "ĠPNUD": 8787,
      "Ġeffort": 8788,
      "ercices": 8789,
      "ĠChyp": 8790,
      "ĠdÃ©sire": 8791,
      "ĠcoÃ»te": 8792,
      "Ġespace": 8793,
      "1996": 8794,
      "AutoritÃ©": 8795,
      "troduction": 8796,
      "Ġ==": 8797,
      "ession": 8798,
      "Ã©par": 8799,
      "Ġladite": 8800,
      "Ġreb": 8801,
      "Ġagences": 8802,
      "ĠfixÃ©s": 8803,
      "session": 8804,
      "ype": 8805,
      "inions": 8806,
      "phones": 8807,
      "ĠÃ©crite": 8808,
      "Ġvisiter": 8809,
      "ĠChris": 8810,
      "Ġchamps": 8811,
      "ĠdÃ©finis": 8812,
      "Ġfuturs": 8813,
      "ĠâĪĴ": 8814,
      "ĠsignalÃ©": 8815,
      "ĠsuprÃªme": 8816,
      "Ġremis": 8817,
      "ĠPN": 8818,
      "tissement": 8819,
      "Ġsubsi": 8820,
      "Ġinitial": 8821,
      "Ġsimples": 8822,
      "Programme": 8823,
      "ĠCaraÃ¯": 8824,
      "effectuer": 8825,
      "Ġdesqu": 8826,
      "ĠPlus": 8827,
      "aband": 8828,
      "avance": 8829,
      "Ġsoud": 8830,
      "entine": 8831,
      "Ġcourte": 8832,
      "Ġtransferts": 8833,
      "Ġpositif": 8834,
      "QUES": 8835,
      "ĠBosnie": 8836,
      "Combien": 8837,
      "ram": 8838,
      "ĠEs": 8839,
      "ĠapportÃ©es": 8840,
      "allÃ©e": 8841,
      "ĠaxÃ©e": 8842,
      "ĠobservÃ©": 8843,
      "Ġdisposent": 8844,
      "Ġjet": 8845,
      "ĠPort": 8846,
      "Ġraciale": 8847,
      "ĠFC": 8848,
      "appuyer": 8849,
      "ĠcohÃ©sion": 8850,
      "Ġ%,": 8851,
      "2016": 8852,
      "Jusqu": 8853,
      "ĠGeorge": 8854,
      "ĠrÃ©tablissement": 8855,
      "Ġer": 8856,
      "Ã©missions": 8857,
      "rase": 8858,
      "ĠvÃ©cu": 8859,
      "ĠCB": 8860,
      "ĠLac": 8861,
      "igure": 8862,
      "ĠdÃ©placement": 8863,
      "Ġsupprimer": 8864,
      "Ġtableaux": 8865,
      "Ġadministratifs": 8866,
      "SION": 8867,
      "Ġaccessibles": 8868,
      "Ġnettoy": 8869,
      "74": 8870,
      "tiÃ¨res": 8871,
      "ĠÃ©larg": 8872,
      "actif": 8873,
      "ĠÃ©cos": 8874,
      "ĠÃ©levÃ©es": 8875,
      "ĠdÃ©jeuner": 8876,
      "Ã©matiques": 8877,
      "Ġinvo": 8878,
      "ĠautorisÃ©s": 8879,
      "ĠexpliquÃ©": 8880,
      "ĠconsacrÃ©e": 8881,
      "Ġtraditionnelles": 8882,
      "Ġconvaincu": 8883,
      "Ġreconstruction": 8884,
      "LÃł": 8885,
      "OI": 8886,
      "POR": 8887,
      "fice": 8888,
      "ĠautoritÃ©": 8889,
      "ĠdÃ©solÃ©e": 8890,
      "ĠappliquÃ©es": 8891,
      "Ġappartient": 8892,
      "Ġinfluence": 8893,
      "feuille": 8894,
      "heur": 8895,
      "way": 8896,
      "Ġlacun": 8897,
      "estres": 8898,
      "ĠCamp": 8899,
      "ĠCoun": 8900,
      "ago": 8901,
      "iliers": 8902,
      "ternitÃ©": 8903,
      "ĠÃ©quip": 8904,
      "ĠcÃ©rÃ©m": 8905,
      "Ġsavent": 8906,
      "ĠÃ®les": 8907,
      "sa": 8908,
      "Ġclo": 8909,
      "ĠaÃ©rone": 8910,
      "Ġventi": 8911,
      "Ġauparavant": 8912,
      "aucun": 8913,
      "ĠPage": 8914,
      "apporter": 8915,
      "ĠpubliÃ©s": 8916,
      "Ġdomes": 8917,
      "Ġmondialisation": 8918,
      "Description": 8919,
      "Ġcinqui": 8920,
      "Ġcoupable": 8921,
      "ĠvÃ©rit": 8922,
      "Ġcorrection": 8923,
      "Ġallemand": 8924,
      "prÃ©sident": 8925,
      "Ġateliers": 8926,
      "eries": 8927,
      "Ġbassin": 8928,
      "irur": 8929,
      "allage": 8930,
      "ĠappliquÃ©e": 8931,
      "ĠnÃ©cessairement": 8932,
      "Ġvolontaires": 8933,
      "Ġdiscrimin": 8934,
      "Ġbilan": 8935,
      "ĠclientÃ¨le": 8936,
      "ĠarmÃ©es": 8937,
      "ĠÃ©lectorale": 8938,
      "ĠRobert": 8939,
      "ĠHongrie": 8940,
      "ĠÃ©gale": 8941,
      "accus": 8942,
      "Ġcouche": 8943,
      "ĠbÃ©nÃ©fice": 8944,
      "appeler": 8945,
      "ĠcritÃ¨re": 8946,
      "Ġtransmettre": 8947,
      "Ġremarqu": 8948,
      "ĠintÃ©rieure": 8949,
      "Ġpierre": 8950,
      "assemb": 8951,
      "Ġjapon": 8952,
      "utilisateur": 8953,
      "ĠsÃ»rement": 8954,
      "ennie": 8955,
      "Ġscolaires": 8956,
      "ĠAccueil": 8957,
      "ĠCaraÃ¯bes": 8958,
      "earch": 8959,
      "pol": 8960,
      "Ġdue": 8961,
      "ĠPDF": 8962,
      "ĠMoi": 8963,
      "Ġhas": 8964,
      "istent": 8965,
      "Ġcertification": 8966,
      "Ġdemandeurs": 8967,
      "Ġaugmente": 8968,
      "ĠprÃ©parÃ©": 8969,
      "ĠXX": 8970,
      "Ġexistant": 8971,
      "Ġanglaise": 8972,
      "Ġdistinction": 8973,
      "Ġpermettrait": 8974,
      "Ġsusceptible": 8975,
      "DeuxiÃ¨me": 8976,
      "ĠavancÃ©s": 8977,
      "arts": 8978,
      "Ġserez": 8979,
      "ulsion": 8980,
      "ĠNig": 8981,
      "auto": 8982,
      "Encore": 8983,
      "Ġ02": 8984,
      "Ġfaisons": 8985,
      "ĠUN": 8986,
      "ĠCanadiennes": 8987,
      "ĠcomplÃ©ter": 8988,
      "ĠrÃ©cupÃ©rer": 8989,
      "TT": 8990,
      "rante": 8991,
      "Â·": 8992,
      "Ã©lÃ©ment": 8993,
      "ĠcrÃ©e": 8994,
      "Ġfid": 8995,
      "Ġratification": 8996,
      "ĠTim": 8997,
      "illent": 8998,
      "Ġlacunes": 8999,
      "81": 9000,
      "Celui": 9001,
      "Utilis": 9002,
      "encer": 9003,
      "Ġlatine": 9004,
      "ĠqualitÃ©s": 9005,
      "ĠvÃ©tÃ©": 9006,
      "ĠSC": 9007,
      "ĠGRC": 9008,
      "parle": 9009,
      "ĠÃ©cologique": 9010,
      "ĠappelÃ©e": 9011,
      "ĠpropriÃ©tÃ©s": 9012,
      "leterre": 9013,
      "ĠdiminuÃ©": 9014,
      "Ġadolescents": 9015,
      "osi": 9016,
      "tein": 9017,
      "ĠBus": 9018,
      "Ġincomp": 9019,
      "Ġferais": 9020,
      "Ġprescriptions": 9021,
      "ĠreÃ§oivent": 9022,
      "Ġtrouvera": 9023,
      "ĠopÃ©rationnelles": 9024,
      "Ġpatron": 9025,
      "Ġleadership": 9026,
      "Ġsit": 9027,
      "ĠÃ¡": 9028,
      "Ġaccess": 9029,
      "angement": 9030,
      "ĠEmp": 9031,
      "192": 9032,
      "Ġphil": 9033,
      "Ġinstituant": 9034,
      "Ġagriculteurs": 9035,
      "ĠspÃ©cialisÃ©es": 9036,
      "Ġpotentiels": 9037,
      "novembre": 9038,
      "Ġcombinaison": 9039,
      "ommandation": 9040,
      "ji": 9041,
      "istÃ©": 9042,
      "ceau": 9043,
[...]
